#include "magic_wand_model_data.h"


// We need to keep the data array aligned on some architectures.

#ifdef __has_attribute

#define HAVE_ATTRIBUTE(x) __has_attribute(x)

#else

#define HAVE_ATTRIBUTE(x) 0

#endif

#if HAVE_ATTRIBUTE(aligned) || (defined(__GNUC__) && !defined(__clang__))

#define DATA_ALIGN_ATTRIBUTE __attribute__((aligned(4)))

#else

#define DATA_ALIGN_ATTRIBUTE

#endif


const unsigned char g_magic_wand_model_data[] DATA_ALIGN_ATTRIBUTE = {

  // Paste the data of the char array in `src/model.cc` here
0x1c, 0x00, 0x00, 0x00, 0x54, 0x46, 0x4c, 0x33, 0x14, 0x00, 0x20, 0x00,
  0x04, 0x00, 0x08, 0x00, 0x0c, 0x00, 0x10, 0x00, 0x14, 0x00, 0x00, 0x00,
  0x18, 0x00, 0x1c, 0x00, 0x14, 0x00, 0x00, 0x00, 0x03, 0x00, 0x00, 0x00,
  0x18, 0x00, 0x00, 0x00, 0x2c, 0x00, 0x00, 0x00, 0xd8, 0x00, 0x00, 0x00,
  0x2c, 0x00, 0x00, 0x00, 0x80, 0x00, 0x00, 0x00, 0x78, 0x00, 0x00, 0x00,
  0x05, 0x00, 0x00, 0x00, 0x28, 0x07, 0x00, 0x00, 0x44, 0x06, 0x00, 0x00,
  0xbc, 0x03, 0x00, 0x00, 0xf8, 0x02, 0x00, 0x00, 0xac, 0x01, 0x00, 0x00,
  0x01, 0x00, 0x00, 0x00, 0xd0, 0x00, 0x00, 0x00, 0x14, 0x00, 0x00, 0x00,
  0x98, 0x32, 0x00, 0x00, 0x94, 0x32, 0x00, 0x00, 0x8c, 0x31, 0x00, 0x00,
  0xd8, 0x30, 0x00, 0x00, 0x30, 0x30, 0x00, 0x00, 0xbc, 0x2f, 0x00, 0x00,
  0x50, 0x2f, 0x00, 0x00, 0x00, 0x13, 0x00, 0x00, 0xec, 0x11, 0x00, 0x00,
  0x10, 0x10, 0x00, 0x00, 0xb4, 0x07, 0x00, 0x00, 0x6c, 0x32, 0x00, 0x00,
  0x68, 0x32, 0x00, 0x00, 0x64, 0x32, 0x00, 0x00, 0x60, 0x32, 0x00, 0x00,
  0x5c, 0x32, 0x00, 0x00, 0x58, 0x32, 0x00, 0x00, 0x54, 0x32, 0x00, 0x00,
  0x50, 0x32, 0x00, 0x00, 0x3c, 0x00, 0x00, 0x00, 0x00, 0x00, 0x00, 0x00,
  0x01, 0x00, 0x00, 0x00, 0x0c, 0x00, 0x00, 0x00, 0x08, 0x00, 0x0c, 0x00,
  0x04, 0x00, 0x08, 0x00, 0x08, 0x00, 0x00, 0x00, 0x08, 0x00, 0x00, 0x00,
  0x13, 0x00, 0x00, 0x00, 0x13, 0x00, 0x00, 0x00, 0x6d, 0x69, 0x6e, 0x5f,
  0x72, 0x75, 0x6e, 0x74, 0x69, 0x6d, 0x65, 0x5f, 0x76, 0x65, 0x72, 0x73,
  0x69, 0x6f, 0x6e, 0x00, 0xfa, 0xce, 0xff, 0xff, 0x04, 0x00, 0x00, 0x00,
  0x10, 0x00, 0x00, 0x00, 0x31, 0x2e, 0x35, 0x2e, 0x30, 0x00, 0x00, 0x00,
  0x00, 0x00, 0x00, 0x00, 0x00, 0x00, 0x00, 0x00, 0x0f, 0x00, 0x00, 0x00,
  0x4d, 0x4c, 0x49, 0x52, 0x20, 0x43, 0x6f, 0x6e, 0x76, 0x65, 0x72, 0x74,
  0x65, 0x64, 0x2e, 0x00, 0x00, 0x00, 0x0e, 0x00, 0x18, 0x00, 0x04, 0x00,
  0x08, 0x00, 0x0c, 0x00, 0x10, 0x00, 0x14, 0x00, 0x0e, 0x00, 0x00, 0x00,
  0x14, 0x00, 0x00, 0x00, 0x5c, 0x00, 0x00, 0x00, 0x60, 0x00, 0x00, 0x00,
  0x64, 0x00, 0x00, 0x00, 0x84, 0x00, 0x00, 0x00, 0x12, 0x00, 0x00, 0x00,
  0x58, 0x31, 0x00, 0x00, 0xe8, 0x30, 0x00, 0x00, 0x44, 0x30, 0x00, 0x00,
  0x9c, 0x2f, 0x00, 0x00, 0xf4, 0x2e, 0x00, 0x00, 0x94, 0x2e, 0x00, 0x00,
  0x2c, 0x2e, 0x00, 0x00, 0xd8, 0x11, 0x00, 0x00, 0xbc, 0x10, 0x00, 0x00,
  0xe0, 0x0e, 0x00, 0x00, 0x0c, 0x06, 0x00, 0x00, 0x28, 0x05, 0x00, 0x00,
  0xe8, 0x03, 0x00, 0x00, 0x3c, 0x03, 0x00, 0x00, 0x98, 0x02, 0x00, 0x00,
  0xd4, 0x01, 0x00, 0x00, 0x10, 0x01, 0x00, 0x00, 0x84, 0x00, 0x00, 0x00,
  0x01, 0x00, 0x00, 0x00, 0x00, 0x00, 0x00, 0x00, 0x01, 0x00, 0x00, 0x00,
  0x11, 0x00, 0x00, 0x00, 0x08, 0x00, 0x00, 0x00, 0x74, 0x05, 0x00, 0x00,
  0x94, 0x04, 0x00, 0x00, 0x78, 0x03, 0x00, 0x00, 0xbc, 0x02, 0x00, 0x00,
  0x30, 0x02, 0x00, 0x00, 0x50, 0x01, 0x00, 0x00, 0xa8, 0x00, 0x00, 0x00,
  0x10, 0x00, 0x00, 0x00, 0x04, 0x00, 0x00, 0x00, 0x6d, 0x61, 0x69, 0x6e,
  0x00, 0x00, 0x00, 0x00, 0x7a, 0xff, 0xff, 0xff, 0x00, 0x00, 0x00, 0x09,
  0x04, 0x00, 0x00, 0x00, 0x1c, 0x00, 0x00, 0x00, 0x10, 0x00, 0x00, 0x00,
  0x04, 0x00, 0x00, 0x00, 0xf6, 0xcf, 0xff, 0xff, 0x00, 0x00, 0x80, 0x3f,
  0x01, 0x00, 0x00, 0x00, 0x11, 0x00, 0x00, 0x00, 0x01, 0x00, 0x00, 0x00,
  0x10, 0x00, 0x00, 0x00, 0xa0, 0xfa, 0xff, 0xff, 0x19, 0x00, 0x00, 0x00,
  0x00, 0x00, 0x00, 0x19, 0x01, 0x00, 0x00, 0x00, 0x84, 0xcf, 0xff, 0xff,
  0x14, 0x00, 0x00, 0x00, 0x12, 0x00, 0x00, 0x00, 0x18, 0x00, 0x00, 0x00,
  0x30, 0x00, 0x00, 0x00, 0x20, 0x00, 0x00, 0x00, 0x02, 0x00, 0x00, 0x00,
  0x01, 0x00, 0x00, 0x00, 0x03, 0x00, 0x00, 0x00, 0x08, 0x00, 0x00, 0x00,
  0x49, 0x64, 0x65, 0x6e, 0x74, 0x69, 0x74, 0x79, 0x00, 0x00, 0x00, 0x00,
  0x02, 0x00, 0x00, 0x00, 0xff, 0xff, 0xff, 0xff, 0x03, 0x00, 0x00, 0x00,
  0x68, 0xd0, 0xff, 0xff, 0x00, 0x00, 0x0e, 0x00, 0x18, 0x00, 0x08, 0x00,
  0x0c, 0x00, 0x10, 0x00, 0x07, 0x00, 0x14, 0x00, 0x0e, 0x00, 0x00, 0x00,
  0x00, 0x00, 0x00, 0x08, 0x03, 0x00, 0x00, 0x00, 0x18, 0x00, 0x00, 0x00,
  0x0c, 0x00, 0x00, 0x00, 0x04, 0x00, 0x00, 0x00, 0x84, 0xcf, 0xff, 0xff,
  0x01, 0x00, 0x00, 0x00, 0x10, 0x00, 0x00, 0x00, 0x03, 0x00, 0x00, 0x00,
  0x0f, 0x00, 0x00, 0x00, 0x07, 0x00, 0x00, 0x00, 0x04, 0x00, 0x00, 0x00,
  0x0c, 0xd0, 0xff, 0xff, 0x14, 0x00, 0x00, 0x00, 0x11, 0x00, 0x00, 0x00,
  0x18, 0x00, 0x00, 0x00, 0x5c, 0x00, 0x00, 0x00, 0x4c, 0x00, 0x00, 0x00,
  0x02, 0x00, 0x00, 0x00, 0x01, 0x00, 0x00, 0x00, 0x03, 0x00, 0x00, 0x00,
  0x34, 0x00, 0x00, 0x00, 0x73, 0x65, 0x71, 0x75, 0x65, 0x6e, 0x74, 0x69,
  0x61, 0x6c, 0x2f, 0x64, 0x65, 0x6e, 0x73, 0x65, 0x5f, 0x31, 0x2f, 0x4d,
  0x61, 0x74, 0x4d, 0x75, 0x6c, 0x3b, 0x73, 0x65, 0x71, 0x75, 0x65, 0x6e,
  0x74, 0x69, 0x61, 0x6c, 0x2f, 0x64, 0x65, 0x6e, 0x73, 0x65, 0x5f, 0x31,
  0x2f, 0x42, 0x69, 0x61, 0x73, 0x41, 0x64, 0x64, 0x00, 0x00, 0x00, 0x00,
  0x02, 0x00, 0x00, 0x00, 0xff, 0xff, 0xff, 0xff, 0x03, 0x00, 0x00, 0x00,
  0x0c, 0xd0, 0xff, 0xff, 0xda, 0xfc, 0xff, 0xff, 0x00, 0x00, 0x00, 0x08,
  0x03, 0x00, 0x00, 0x00, 0x24, 0x00, 0x00, 0x00, 0x18, 0x00, 0x00, 0x00,
  0x0c, 0x00, 0x00, 0x00, 0x00, 0x00, 0x06, 0x00, 0x08, 0x00, 0x07, 0x00,
  0x06, 0x00, 0x00, 0x00, 0x00, 0x00, 0x00, 0x01, 0x01, 0x00, 0x00, 0x00,
  0x0f, 0x00, 0x00, 0x00, 0x03, 0x00, 0x00, 0x00, 0x0e, 0x00, 0x00, 0x00,
  0x06, 0x00, 0x00, 0x00, 0x03, 0x00, 0x00, 0x00, 0xe8, 0xfb, 0xff, 0xff,
  0x09, 0x00, 0x00, 0x00, 0x00, 0x00, 0x00, 0x09, 0x01, 0x00, 0x00, 0x00,
  0xcc, 0xd0, 0xff, 0xff, 0x14, 0x00, 0x00, 0x00, 0x10, 0x00, 0x00, 0x00,
  0x18, 0x00, 0x00, 0x00, 0x6c, 0x00, 0x00, 0x00, 0x5c, 0x00, 0x00, 0x00,
  0x02, 0x00, 0x00, 0x00, 0x01, 0x00, 0x00, 0x00, 0x10, 0x00, 0x00, 0x00,
  0x46, 0x00, 0x00, 0x00, 0x73, 0x65, 0x71, 0x75, 0x65, 0x6e, 0x74, 0x69,
  0x61, 0x6c, 0x2f, 0x64, 0x65, 0x6e, 0x73, 0x65, 0x2f, 0x4d, 0x61, 0x74,
  0x4d, 0x75, 0x6c, 0x3b, 0x73, 0x65, 0x71, 0x75, 0x65, 0x6e, 0x74, 0x69,
  0x61, 0x6c, 0x2f, 0x64, 0x65, 0x6e, 0x73, 0x65, 0x2f, 0x52, 0x65, 0x6c,
  0x75, 0x3b, 0x73, 0x65, 0x71, 0x75, 0x65, 0x6e, 0x74, 0x69, 0x61, 0x6c,
  0x2f, 0x64, 0x65, 0x6e, 0x73, 0x65, 0x2f, 0x42, 0x69, 0x61, 0x73, 0x41,
  0x64, 0x64, 0x00, 0x00, 0x02, 0x00, 0x00, 0x00, 0xff, 0xff, 0xff, 0xff,
  0x10, 0x00, 0x00, 0x00, 0xec, 0xd1, 0xff, 0xff, 0x00, 0x00, 0x0a, 0x00,
  0x10, 0x00, 0x04, 0x00, 0x08, 0x00, 0x0c, 0x00, 0x0a, 0x00, 0x00, 0x00,
  0x02, 0x00, 0x00, 0x00, 0x10, 0x00, 0x00, 0x00, 0x04, 0x00, 0x00, 0x00,
  0x01, 0x00, 0x00, 0x00, 0x0e, 0x00, 0x00, 0x00, 0x02, 0x00, 0x00, 0x00,
  0x0d, 0x00, 0x00, 0x00, 0x05, 0x00, 0x00, 0x00, 0xa8, 0xfc, 0xff, 0xff,
  0x16, 0x00, 0x00, 0x00, 0x00, 0x00, 0x00, 0x16, 0x01, 0x00, 0x00, 0x00,
  0x8c, 0xd1, 0xff, 0xff, 0x14, 0x00, 0x00, 0x00, 0x0f, 0x00, 0x00, 0x00,
  0x18, 0x00, 0x00, 0x00, 0x40, 0x00, 0x00, 0x00, 0x30, 0x00, 0x00, 0x00,
  0x02, 0x00, 0x00, 0x00, 0x01, 0x00, 0x00, 0x00, 0x70, 0x00, 0x00, 0x00,
  0x1a, 0x00, 0x00, 0x00, 0x73, 0x65, 0x71, 0x75, 0x65, 0x6e, 0x74, 0x69,
  0x61, 0x6c, 0x2f, 0x66, 0x6c, 0x61, 0x74, 0x74, 0x65, 0x6e, 0x2f, 0x52,
  0x65, 0x73, 0x68, 0x61, 0x70, 0x65, 0x00, 0x00, 0x02, 0x00, 0x00, 0x00,
  0xff, 0xff, 0xff, 0xff, 0x70, 0x00, 0x00, 0x00, 0x70, 0xd1, 0xff, 0xff,
  0x3e, 0xfe, 0xff, 0xff, 0x00, 0x00, 0x00, 0x05, 0x01, 0x00, 0x00, 0x00,
  0x38, 0x00, 0x00, 0x00, 0x2c, 0x00, 0x00, 0x00, 0x14, 0x00, 0x00, 0x00,
  0x00, 0x00, 0x0e, 0x00, 0x14, 0x00, 0x00, 0x00, 0x10, 0x00, 0x0c, 0x00,
  0x08, 0x00, 0x04, 0x00, 0x0e, 0x00, 0x00, 0x00, 0x03, 0x00, 0x00, 0x00,
  0x01, 0x00, 0x00, 0x00, 0x03, 0x00, 0x00, 0x00, 0x01, 0x00, 0x00, 0x00,
  0x01, 0x00, 0x00, 0x00, 0x0d, 0x00, 0x00, 0x00, 0x01, 0x00, 0x00, 0x00,
  0x0c, 0x00, 0x00, 0x00, 0x2c, 0xd2, 0xff, 0xff, 0x14, 0x00, 0x00, 0x00,
  0x0e, 0x00, 0x00, 0x00, 0x20, 0x00, 0x00, 0x00, 0x58, 0x00, 0x00, 0x00,
  0x40, 0x00, 0x00, 0x00, 0x04, 0x00, 0x00, 0x00, 0x01, 0x00, 0x00, 0x00,
  0x07, 0x00, 0x00, 0x00, 0x01, 0x00, 0x00, 0x00, 0x10, 0x00, 0x00, 0x00,
  0x22, 0x00, 0x00, 0x00, 0x73, 0x65, 0x71, 0x75, 0x65, 0x6e, 0x74, 0x69,
  0x61, 0x6c, 0x2f, 0x6d, 0x61, 0x78, 0x5f, 0x70, 0x6f, 0x6f, 0x6c, 0x69,
  0x6e, 0x67, 0x32, 0x64, 0x5f, 0x31, 0x2f, 0x4d, 0x61, 0x78, 0x50, 0x6f,
  0x6f, 0x6c, 0x00, 0x00, 0x04, 0x00, 0x00, 0x00, 0xff, 0xff, 0xff, 0xff,
  0x07, 0x00, 0x00, 0x00, 0x01, 0x00, 0x00, 0x00, 0x10, 0x00, 0x00, 0x00,
  0x28, 0xd2, 0xff, 0xff, 0x1a, 0xfe, 0xff, 0xff, 0x00, 0x00, 0x00, 0x01,
  0x24, 0x00, 0x00, 0x00, 0x18, 0x00, 0x00, 0x00, 0x04, 0x00, 0x00, 0x00,
  0x0c, 0xfe, 0xff, 0xff, 0x01, 0x00, 0x00, 0x00, 0x01, 0x00, 0x00, 0x00,
  0x00, 0x00, 0x00, 0x01, 0x01, 0x00, 0x00, 0x00, 0x0c, 0x00, 0x00, 0x00,
  0x03, 0x00, 0x00, 0x00, 0x0b, 0x00, 0x00, 0x00, 0x09, 0x00, 0x00, 0x00,
  0x02, 0x00, 0x00, 0x00, 0xd4, 0xd2, 0xff, 0xff, 0x14, 0x00, 0x00, 0x00,
  0x0d, 0x00, 0x00, 0x00, 0x20, 0x00, 0x00, 0x00, 0xb8, 0x00, 0x00, 0x00,
  0xa0, 0x00, 0x00, 0x00, 0x04, 0x00, 0x00, 0x00, 0x01, 0x00, 0x00, 0x00,
  0x15, 0x00, 0x00, 0x00, 0x01, 0x00, 0x00, 0x00, 0x10, 0x00, 0x00, 0x00,
  0x83, 0x00, 0x00, 0x00, 0x73, 0x65, 0x71, 0x75, 0x65, 0x6e, 0x74, 0x69,
  0x61, 0x6c, 0x2f, 0x63, 0x6f, 0x6e, 0x76, 0x32, 0x64, 0x5f, 0x31, 0x2f,
  0x52, 0x65, 0x6c, 0x75, 0x3b, 0x73, 0x65, 0x71, 0x75, 0x65, 0x6e, 0x74,
  0x69, 0x61, 0x6c, 0x2f, 0x63, 0x6f, 0x6e, 0x76, 0x32, 0x64, 0x5f, 0x31,
  0x2f, 0x42, 0x69, 0x61, 0x73, 0x41, 0x64, 0x64, 0x3b, 0x73, 0x65, 0x71,
  0x75, 0x65, 0x6e, 0x74, 0x69, 0x61, 0x6c, 0x2f, 0x63, 0x6f, 0x6e, 0x76,
  0x32, 0x64, 0x5f, 0x31, 0x2f, 0x43, 0x6f, 0x6e, 0x76, 0x32, 0x44, 0x3b,
  0x73, 0x65, 0x71, 0x75, 0x65, 0x6e, 0x74, 0x69, 0x61, 0x6c, 0x2f, 0x63,
  0x6f, 0x6e, 0x76, 0x32, 0x64, 0x5f, 0x31, 0x2f, 0x42, 0x69, 0x61, 0x73,
  0x41, 0x64, 0x64, 0x2f, 0x52, 0x65, 0x61, 0x64, 0x56, 0x61, 0x72, 0x69,
  0x61, 0x62, 0x6c, 0x65, 0x4f, 0x70, 0x2f, 0x72, 0x65, 0x73, 0x6f, 0x75,
  0x72, 0x63, 0x65, 0x00, 0x04, 0x00, 0x00, 0x00, 0xff, 0xff, 0xff, 0xff,
  0x15, 0x00, 0x00, 0x00, 0x01, 0x00, 0x00, 0x00, 0x10, 0x00, 0x00, 0x00,
  0x40, 0xd4, 0xff, 0xff, 0x00, 0x00, 0x0e, 0x00, 0x1a, 0x00, 0x08, 0x00,
  0x0c, 0x00, 0x10, 0x00, 0x07, 0x00, 0x14, 0x00, 0x0e, 0x00, 0x00, 0x00,
  0x00, 0x00, 0x00, 0x05, 0x01, 0x00, 0x00, 0x00, 0x3c, 0x00, 0x00, 0x00,
  0x30, 0x00, 0x00, 0x00, 0x14, 0x00, 0x00, 0x00, 0x00, 0x00, 0x0e, 0x00,
  0x18, 0x00, 0x17, 0x00, 0x10, 0x00, 0x0c, 0x00, 0x08, 0x00, 0x04, 0x00,
  0x0e, 0x00, 0x00, 0x00, 0x03, 0x00, 0x00, 0x00, 0x03, 0x00, 0x00, 0x00,
  0x03, 0x00, 0x00, 0x00, 0x03, 0x00, 0x00, 0x00, 0x00, 0x00, 0x00, 0x01,
  0x01, 0x00, 0x00, 0x00, 0x0b, 0x00, 0x00, 0x00, 0x01, 0x00, 0x00, 0x00,
  0x0a, 0x00, 0x00, 0x00, 0x2c, 0xff, 0xff, 0xff, 0x11, 0x00, 0x00, 0x00,
  0x00, 0x00, 0x00, 0x11, 0x01, 0x00, 0x00, 0x00, 0x10, 0xd4, 0xff, 0xff,
  0x14, 0x00, 0x00, 0x00, 0x0c, 0x00, 0x00, 0x00, 0x20, 0x00, 0x00, 0x00,
  0x58, 0x00, 0x00, 0x00, 0x40, 0x00, 0x00, 0x00, 0x04, 0x00, 0x00, 0x00,
  0x01, 0x00, 0x00, 0x00, 0x15, 0x00, 0x00, 0x00, 0x01, 0x00, 0x00, 0x00,
  0x08, 0x00, 0x00, 0x00, 0x20, 0x00, 0x00, 0x00, 0x73, 0x65, 0x71, 0x75,
  0x65, 0x6e, 0x74, 0x69, 0x61, 0x6c, 0x2f, 0x6d, 0x61, 0x78, 0x5f, 0x70,
  0x6f, 0x6f, 0x6c, 0x69, 0x6e, 0x67, 0x32, 0x64, 0x2f, 0x4d, 0x61, 0x78,
  0x50, 0x6f, 0x6f, 0x6c, 0x00, 0x00, 0x00, 0x00, 0x04, 0x00, 0x00, 0x00,
  0xff, 0xff, 0xff, 0xff, 0x15, 0x00, 0x00, 0x00, 0x01, 0x00, 0x00, 0x00,
  0x08, 0x00, 0x00, 0x00, 0x1c, 0xd5, 0xff, 0xff, 0x00, 0x00, 0x0e, 0x00,
  0x14, 0x00, 0x00, 0x00, 0x08, 0x00, 0x0c, 0x00, 0x07, 0x00, 0x10, 0x00,
  0x0e, 0x00, 0x00, 0x00, 0x00, 0x00, 0x00, 0x01, 0x30, 0x00, 0x00, 0x00,
  0x24, 0x00, 0x00, 0x00, 0x10, 0x00, 0x00, 0x00, 0x0c, 0x00, 0x10, 0x00,
  0x00, 0x00, 0x04, 0x00, 0x08, 0x00, 0x0f, 0x00, 0x0c, 0x00, 0x00, 0x00,
  0x01, 0x00, 0x00, 0x00, 0x01, 0x00, 0x00, 0x00, 0x00, 0x00, 0x00, 0x01,
  0x01, 0x00, 0x00, 0x00, 0x0a, 0x00, 0x00, 0x00, 0x03, 0x00, 0x00, 0x00,
  0x00, 0x00, 0x00, 0x00, 0x08, 0x00, 0x00, 0x00, 0x01, 0x00, 0x00, 0x00,
  0x0c, 0x00, 0x10, 0x00, 0x0b, 0x00, 0x00, 0x00, 0x0c, 0x00, 0x04, 0x00,
  0x0c, 0x00, 0x00, 0x00, 0x03, 0x00, 0x00, 0x00, 0x00, 0x00, 0x00, 0x03,
  0x01, 0x00, 0x00, 0x00, 0xf0, 0xd4, 0xff, 0xff, 0x14, 0x00, 0x00, 0x00,
  0x0b, 0x00, 0x00, 0x00, 0x20, 0x00, 0x00, 0x00, 0xb0, 0x00, 0x00, 0x00,
  0x98, 0x00, 0x00, 0x00, 0x04, 0x00, 0x00, 0x00, 0x01, 0x00, 0x00, 0x00,
  0x40, 0x00, 0x00, 0x00, 0x03, 0x00, 0x00, 0x00, 0x08, 0x00, 0x00, 0x00,
  0x7b, 0x00, 0x00, 0x00, 0x73, 0x65, 0x71, 0x75, 0x65, 0x6e, 0x74, 0x69,
  0x61, 0x6c, 0x2f, 0x63, 0x6f, 0x6e, 0x76, 0x32, 0x64, 0x2f, 0x52, 0x65,
  0x6c, 0x75, 0x3b, 0x73, 0x65, 0x71, 0x75, 0x65, 0x6e, 0x74, 0x69, 0x61,
  0x6c, 0x2f, 0x63, 0x6f, 0x6e, 0x76, 0x32, 0x64, 0x2f, 0x42, 0x69, 0x61,
  0x73, 0x41, 0x64, 0x64, 0x3b, 0x73, 0x65, 0x71, 0x75, 0x65, 0x6e, 0x74,
  0x69, 0x61, 0x6c, 0x2f, 0x63, 0x6f, 0x6e, 0x76, 0x32, 0x64, 0x2f, 0x43,
  0x6f, 0x6e, 0x76, 0x32, 0x44, 0x3b, 0x73, 0x65, 0x71, 0x75, 0x65, 0x6e,
  0x74, 0x69, 0x61, 0x6c, 0x2f, 0x63, 0x6f, 0x6e, 0x76, 0x32, 0x64, 0x2f,
  0x42, 0x69, 0x61, 0x73, 0x41, 0x64, 0x64, 0x2f, 0x52, 0x65, 0x61, 0x64,
  0x56, 0x61, 0x72, 0x69, 0x61, 0x62, 0x6c, 0x65, 0x4f, 0x70, 0x2f, 0x72,
  0x65, 0x73, 0x6f, 0x75, 0x72, 0x63, 0x65, 0x00, 0x04, 0x00, 0x00, 0x00,
  0xff, 0xff, 0xff, 0xff, 0x40, 0x00, 0x00, 0x00, 0x03, 0x00, 0x00, 0x00,
  0x08, 0x00, 0x00, 0x00, 0x44, 0xd5, 0xff, 0xff, 0x4e, 0xd6, 0xff, 0xff,
  0x04, 0x00, 0x00, 0x00, 0x00, 0x08, 0x00, 0x00, 0x2d, 0xae, 0xde, 0x3c,
  0x2a, 0xe3, 0x6e, 0x3d, 0xf5, 0xac, 0x80, 0xbe, 0x61, 0xcc, 0x1e, 0xbe,
  0x31, 0xbd, 0xd7, 0xbd, 0x9e, 0x9b, 0x1c, 0xbe, 0x36, 0xd0, 0x83, 0x3d,
  0x6a, 0xa3, 0xcb, 0x3e, 0xc2, 0x76, 0x8b, 0xbd, 0x5d, 0x28, 0xd9, 0xbc,
  0x72, 0x3e, 0x34, 0xbe, 0x35, 0x90, 0x2d, 0xbc, 0x79, 0xd8, 0xd5, 0x3e,
  0x51, 0xb5, 0xe9, 0x3c, 0xfd, 0x4a, 0xfa, 0x3d, 0x6b, 0x8d, 0xfa, 0x3e,
  0x78, 0xd2, 0x49, 0x3e, 0x65, 0x94, 0x3f, 0xbd, 0xd8, 0x50, 0x2b, 0xbe,
  0xd3, 0xfc, 0x11, 0xbe, 0x19, 0xdf, 0x98, 0x3d, 0x03, 0x7e, 0x4d, 0x3c,
  0x9c, 0xc4, 0x5a, 0xbd, 0xdb, 0xe5, 0xd8, 0x3d, 0x54, 0x5f, 0x4f, 0xbe,
  0x74, 0xb3, 0x11, 0xbd, 0x61, 0x72, 0x1a, 0xbe, 0x62, 0x66, 0x25, 0xbe,
  0xac, 0x8f, 0x40, 0xbd, 0x9e, 0xcd, 0x2b, 0xbd, 0x98, 0x54, 0x89, 0x3d,
  0x22, 0x20, 0xa0, 0xbd, 0x32, 0xef, 0xd1, 0x3c, 0x9a, 0x7f, 0xcf, 0xbc,
  0xb8, 0xfd, 0xe9, 0x3c, 0xce, 0x49, 0x18, 0xbe, 0x8e, 0x4d, 0x15, 0x3e,
  0xd0, 0x96, 0xf7, 0x3b, 0x25, 0x6b, 0x54, 0xbd, 0x6f, 0x4b, 0x09, 0xbe,
  0xde, 0x37, 0x73, 0xbe, 0x5a, 0x0c, 0xa0, 0xbd, 0xfc, 0x22, 0x6b, 0xbc,
  0x26, 0x70, 0x83, 0xbe, 0x6a, 0xd1, 0x14, 0x3e, 0x3e, 0x7a, 0x81, 0xbd,
  0x5c, 0x2b, 0xe1, 0xbd, 0x05, 0x2c, 0x1d, 0xbe, 0x46, 0xb8, 0x7f, 0xbe,
  0xe6, 0xae, 0x97, 0x3a, 0x8e, 0x85, 0x8d, 0x3e, 0x1f, 0x30, 0x57, 0xbe,
  0xac, 0x31, 0x1d, 0x3e, 0x88, 0x00, 0xbd, 0xbd, 0x70, 0xae, 0x14, 0xbe,
  0xd7, 0xc9, 0x8b, 0xbd, 0xab, 0xea, 0x9c, 0x3d, 0x91, 0x5a, 0x59, 0xbe,
  0xf4, 0xd9, 0x6d, 0xbe, 0xc4, 0xcf, 0x8d, 0xbe, 0x65, 0x6d, 0x80, 0xbd,
  0xda, 0x9c, 0x17, 0xbd, 0x77, 0xcc, 0x95, 0xbe, 0x38, 0xec, 0xca, 0x3d,
  0xf0, 0x50, 0x13, 0x3e, 0x0f, 0x31, 0x5f, 0xbe, 0xbc, 0x1a, 0xe2, 0xbd,
  0x51, 0x13, 0x66, 0xbd, 0x71, 0x2e, 0xbc, 0xbd, 0x64, 0x30, 0x2f, 0xbe,
  0x47, 0x57, 0x9f, 0xbd, 0x44, 0x73, 0xe7, 0xbd, 0x2f, 0x49, 0x93, 0x3d,
  0x4d, 0x03, 0x1e, 0xbe, 0x83, 0x6e, 0x0b, 0xbe, 0x14, 0x0d, 0x04, 0x3d,
  0xa4, 0xe8, 0x2a, 0xbe, 0x8a, 0x9d, 0x78, 0xbe, 0x8b, 0x5e, 0x3d, 0xbd,
  0xdc, 0xfa, 0x4a, 0xbe, 0xdb, 0x63, 0x59, 0x3c, 0x45, 0xfe, 0x14, 0x3f,
  0xde, 0x29, 0xb2, 0xbb, 0xd5, 0xe9, 0xec, 0x3d, 0x88, 0x33, 0x55, 0xbe,
  0x11, 0x6b, 0xa8, 0xbd, 0x52, 0x26, 0xd1, 0x3d, 0xd7, 0xd0, 0x08, 0xbe,
  0x68, 0xfa, 0x24, 0x3d, 0x5d, 0x1d, 0xe9, 0xbd, 0xd4, 0x1a, 0xe7, 0xbd,
  0xa8, 0x83, 0x8e, 0xbe, 0xea, 0xfa, 0xa2, 0xbd, 0x93, 0x91, 0x0c, 0x3f,
  0x17, 0x01, 0x9e, 0xbd, 0x45, 0x76, 0x1d, 0xbe, 0x15, 0x7b, 0x2f, 0xbd,
  0xa5, 0x3e, 0x68, 0xbd, 0xe1, 0xcb, 0x32, 0xbd, 0x06, 0xa7, 0x0d, 0xbe,
  0xe7, 0x5b, 0x5c, 0xbe, 0x24, 0x96, 0x16, 0xbe, 0x51, 0x6d, 0x0b, 0xbe,
  0xfd, 0x85, 0x73, 0xbe, 0xf1, 0x64, 0xb3, 0x3c, 0xb3, 0xc8, 0x1a, 0x3e,
  0xbd, 0x18, 0x69, 0xbd, 0x16, 0x72, 0xc9, 0xbd, 0x04, 0x11, 0x85, 0xbd,
  0xf3, 0x1d, 0x1e, 0x3f, 0xe7, 0xf2, 0x1c, 0xbe, 0xe9, 0x5d, 0xaf, 0x3d,
  0x47, 0x9e, 0xac, 0xbe, 0x9c, 0x49, 0x85, 0xbd, 0xb7, 0x88, 0x03, 0xbe,
  0x3f, 0x73, 0x14, 0xbe, 0xb3, 0xf0, 0xc5, 0xbd, 0x11, 0x8b, 0xa2, 0xbc,
  0x9f, 0xc5, 0x09, 0xbe, 0x46, 0xa2, 0x05, 0xbe, 0x4e, 0x5c, 0x8d, 0xbd,
  0x2b, 0x5a, 0x09, 0x3e, 0xef, 0x20, 0x34, 0xbd, 0x70, 0x7e, 0x76, 0xbd,
  0x96, 0x05, 0xd3, 0xbd, 0xb2, 0x15, 0x9a, 0x3e, 0xf4, 0x61, 0x93, 0x3d,
  0xbf, 0x59, 0xd2, 0xbd, 0xfb, 0xf1, 0x56, 0xbd, 0x98, 0x4e, 0x91, 0xbc,
  0x86, 0x94, 0x25, 0xbb, 0x87, 0x32, 0x86, 0x3d, 0x06, 0x37, 0x88, 0xbe,
  0x4d, 0x35, 0xa8, 0xbe, 0x14, 0x7d, 0x54, 0xbe, 0x19, 0x00, 0xa7, 0x3d,
  0xf7, 0x1d, 0x14, 0x3e, 0x50, 0x21, 0x02, 0xbd, 0x42, 0xc6, 0x89, 0xbc,
  0xf3, 0x70, 0xd0, 0x3d, 0x04, 0x5f, 0x8e, 0xbe, 0x15, 0xe8, 0x81, 0xbe,
  0xe7, 0xca, 0x38, 0x3c, 0x65, 0xeb, 0x7b, 0xbd, 0xe4, 0xdb, 0x7b, 0x3e,
  0x3d, 0x43, 0x3b, 0x3b, 0x3f, 0x1c, 0x03, 0xbc, 0x8b, 0x36, 0xac, 0xbe,
  0x42, 0x06, 0x9d, 0xbe, 0x5f, 0xb1, 0xa0, 0xbe, 0x64, 0xa7, 0x6f, 0xbe,
  0x6e, 0xe4, 0xee, 0xbd, 0x9b, 0x58, 0x08, 0x3f, 0x6c, 0x2d, 0x24, 0xbd,
  0x3e, 0x61, 0xf3, 0xbc, 0xab, 0x81, 0x27, 0xbe, 0xf9, 0x6a, 0xe8, 0xbd,
  0xbc, 0x8a, 0x90, 0x3d, 0x0e, 0x53, 0xaa, 0x3c, 0xd1, 0x76, 0x47, 0x3d,
  0x8f, 0x60, 0x2d, 0x3e, 0x5d, 0xac, 0xe6, 0x3d, 0xbb, 0x8b, 0x81, 0xbc,
  0x23, 0x97, 0x1b, 0xbe, 0x2a, 0x31, 0x1c, 0xbe, 0x32, 0x75, 0x75, 0xbe,
  0x02, 0xd8, 0xdb, 0xbe, 0x82, 0x67, 0x01, 0xbe, 0x0a, 0x30, 0x72, 0xbe,
  0xa8, 0xb5, 0xc1, 0x3a, 0xb9, 0x3d, 0xaa, 0xbd, 0x99, 0xdd, 0x65, 0x3c,
  0xb8, 0x1d, 0x90, 0xb9, 0xd3, 0x80, 0x38, 0xbe, 0x14, 0xdc, 0xc3, 0xbe,
  0x61, 0xad, 0x6b, 0xbc, 0x9f, 0xe8, 0x59, 0x3e, 0xf9, 0x67, 0x7b, 0xbd,
  0xe8, 0xfa, 0xa1, 0xbc, 0xc8, 0x09, 0xbb, 0x3d, 0x1b, 0x9b, 0x42, 0xbc,
  0xd6, 0xae, 0x79, 0xbd, 0xf7, 0x6d, 0x2c, 0x3f, 0x5a, 0x15, 0x91, 0xbc,
  0xe0, 0xb2, 0xae, 0x3e, 0xf9, 0x9a, 0x13, 0xbe, 0xa1, 0xcd, 0xad, 0xbd,
  0x21, 0x1e, 0x89, 0x3d, 0x87, 0x12, 0x8c, 0xbc, 0x3e, 0x41, 0x9f, 0xbc,
  0xd6, 0x37, 0x07, 0xbd, 0x84, 0x09, 0x68, 0xbd, 0x99, 0xc6, 0x0a, 0xbf,
  0xec, 0xc6, 0x0a, 0x3e, 0x41, 0xfd, 0x8e, 0xbb, 0x39, 0x6e, 0xb5, 0x3d,
  0xb7, 0x31, 0xf1, 0xbd, 0xaa, 0x61, 0x8c, 0x3d, 0xe5, 0x3f, 0x0a, 0xbc,
  0xec, 0xac, 0x71, 0xbe, 0xb0, 0xab, 0x8b, 0xbe, 0x33, 0xc4, 0x16, 0x3e,
  0x0f, 0x7d, 0xee, 0x3d, 0xdb, 0xfc, 0x3e, 0xbd, 0x13, 0xbd, 0x20, 0xbe,
  0x8e, 0x50, 0x3b, 0xbe, 0x81, 0xe4, 0x3a, 0xbd, 0x79, 0x1c, 0xe5, 0xbd,
  0xa8, 0xa4, 0x74, 0xbe, 0xf9, 0xb7, 0xc9, 0xbd, 0x60, 0x38, 0x34, 0xbd,
  0x98, 0x27, 0xea, 0xbd, 0x63, 0x60, 0x24, 0xbe, 0x75, 0x45, 0xf3, 0x3d,
  0x1d, 0xba, 0x36, 0xbc, 0x22, 0xe8, 0x20, 0xbe, 0x05, 0xcb, 0x1e, 0xbe,
  0x06, 0xec, 0x03, 0x3e, 0x5f, 0x18, 0xbf, 0x3d, 0xf3, 0xa6, 0x31, 0x3e,
  0x91, 0xe1, 0x90, 0x3e, 0xf4, 0x26, 0xfa, 0x3d, 0xc1, 0x2c, 0x84, 0x3e,
  0x3e, 0x2c, 0xd9, 0x3d, 0xdf, 0xd7, 0x0c, 0x3e, 0x23, 0xce, 0x81, 0x3e,
  0xe3, 0x0c, 0xa5, 0x3e, 0x51, 0xe2, 0x69, 0x3e, 0x58, 0x62, 0x99, 0xbe,
  0x46, 0x20, 0x2c, 0xbd, 0x53, 0xc4, 0x44, 0xbd, 0xfa, 0x12, 0x3b, 0xbe,
  0x8e, 0x8f, 0x44, 0x3e, 0x5f, 0x42, 0x2e, 0x3e, 0x56, 0x18, 0xc4, 0xbd,
  0x9c, 0xef, 0x5e, 0xbe, 0x01, 0xf9, 0x6a, 0xbe, 0x63, 0x08, 0x07, 0x3e,
  0xda, 0x49, 0xce, 0xbd, 0x8e, 0xdc, 0x97, 0xbe, 0x88, 0x47, 0x24, 0x3e,
  0x3f, 0xeb, 0x83, 0xbe, 0x8a, 0xdf, 0x5a, 0xbe, 0x5c, 0x67, 0x6e, 0xbe,
  0x8a, 0x0e, 0x89, 0xbc, 0x86, 0x0e, 0x5e, 0x3e, 0xf5, 0xcd, 0xf4, 0x3d,
  0x74, 0x4a, 0x65, 0xbe, 0x37, 0xe0, 0xd9, 0x3d, 0x44, 0x32, 0xc3, 0xbe,
  0x1d, 0xe9, 0x9d, 0xbe, 0xea, 0xcc, 0x27, 0xbe, 0xeb, 0x47, 0x63, 0x3e,
  0x3b, 0xbe, 0xdf, 0xbc, 0x4f, 0xe4, 0xdb, 0xbc, 0x4f, 0x69, 0x85, 0xbd,
  0x6f, 0xcc, 0x05, 0x3e, 0x4c, 0x79, 0x9b, 0xbe, 0x05, 0x7d, 0x95, 0xbe,
  0xd3, 0x3c, 0x46, 0x3e, 0xc7, 0xbe, 0xd1, 0x3e, 0xb8, 0x40, 0xdf, 0x3c,
  0x4f, 0x59, 0x04, 0x3e, 0xad, 0xb8, 0x53, 0x3e, 0xc0, 0x14, 0x10, 0x3e,
  0x6e, 0x57, 0x5c, 0xbe, 0x99, 0x76, 0x1b, 0xbe, 0xb0, 0x33, 0xf7, 0x3c,
  0xa7, 0xd0, 0x31, 0xbe, 0x69, 0xb3, 0xfc, 0x3c, 0x42, 0x01, 0x88, 0x3e,
  0x22, 0xc3, 0x88, 0x3d, 0x33, 0xc3, 0x8a, 0xbd, 0x00, 0xb1, 0xcb, 0xbd,
  0xa7, 0x4c, 0x13, 0xbd, 0x62, 0xf8, 0x81, 0xbd, 0x94, 0xdd, 0x2c, 0xbe,
  0x88, 0x5c, 0xbb, 0xbd, 0x75, 0xf0, 0xdd, 0xbd, 0x83, 0x7a, 0x2d, 0xbe,
  0x98, 0xc9, 0xfd, 0xbe, 0x3b, 0xeb, 0xc9, 0x3d, 0x51, 0x6d, 0x8d, 0xbd,
  0xb4, 0x9f, 0xa2, 0xbd, 0x5b, 0xb8, 0x21, 0xbe, 0x02, 0xab, 0x00, 0xbe,
  0xc9, 0xab, 0x4a, 0xbe, 0xef, 0x40, 0x28, 0xbe, 0xc6, 0x18, 0x0d, 0x3f,
  0x87, 0xf6, 0x2a, 0xbd, 0x7f, 0xf7, 0x58, 0xbd, 0xad, 0x69, 0x19, 0x3e,
  0x45, 0x9f, 0x25, 0x3e, 0x99, 0x8e, 0xa7, 0xbd, 0x61, 0x9c, 0xe6, 0xba,
  0xee, 0xdf, 0x8c, 0x3b, 0xc1, 0x27, 0xea, 0xba, 0x31, 0xca, 0xdf, 0xbb,
  0x90, 0xb1, 0x3b, 0xbc, 0x72, 0xea, 0x3b, 0x3e, 0xd6, 0x4e, 0x14, 0xbd,
  0x41, 0x2b, 0xfc, 0x3d, 0x27, 0x00, 0x34, 0xbd, 0x85, 0x3e, 0x3f, 0x3c,
  0x8f, 0x71, 0xc8, 0x3d, 0x5c, 0x64, 0xc0, 0xbb, 0x50, 0xda, 0x51, 0x3d,
  0xc4, 0x70, 0x3d, 0xbe, 0xd7, 0xba, 0x07, 0xbf, 0x88, 0xde, 0x0a, 0x3d,
  0x93, 0xc1, 0x7a, 0x3e, 0x3e, 0x17, 0xa9, 0xbd, 0x93, 0xaa, 0xc8, 0xbe,
  0x98, 0x3c, 0xfc, 0x3c, 0x0f, 0xd9, 0xa4, 0xbc, 0x2b, 0x6a, 0xc9, 0xbe,
  0x03, 0x33, 0x0e, 0xbf, 0x18, 0xab, 0x1c, 0xbf, 0x19, 0xab, 0x61, 0xbf,
  0x07, 0x76, 0xef, 0xbd, 0xaa, 0x77, 0xa6, 0x3d, 0x5a, 0x9c, 0x61, 0xbe,
  0xba, 0x4a, 0x91, 0xbd, 0x19, 0x3b, 0x40, 0xbe, 0x19, 0x79, 0xe3, 0xbd,
  0xbb, 0x4c, 0x41, 0xbd, 0xd6, 0x00, 0x26, 0xbe, 0x6f, 0xc3, 0x40, 0xbe,
  0xad, 0x11, 0x9f, 0x3e, 0xf1, 0x46, 0x89, 0xbe, 0x97, 0x13, 0x6a, 0xbd,
  0x19, 0xb3, 0x11, 0xbe, 0x95, 0xa0, 0xc3, 0xbd, 0x3c, 0x78, 0x3a, 0xbd,
  0x4b, 0xe6, 0xae, 0xbd, 0x3f, 0x73, 0x23, 0xbe, 0xa0, 0x85, 0xd6, 0x3c,
  0x00, 0x35, 0xff, 0xbd, 0x11, 0x32, 0xb2, 0xbc, 0x91, 0x47, 0xe8, 0xbd,
  0x8d, 0xcd, 0xf2, 0x3c, 0xa9, 0x4d, 0x7a, 0xbd, 0x7e, 0xa9, 0x7b, 0xbd,
  0xe4, 0xfe, 0x9c, 0x3d, 0xd3, 0xbf, 0xdf, 0x3d, 0x97, 0x26, 0xbd, 0xbb,
  0xd7, 0x3e, 0x27, 0x3d, 0x1e, 0xf2, 0x04, 0x3f, 0x8c, 0xee, 0x4e, 0x3e,
  0x8f, 0x85, 0xd3, 0xbc, 0x0b, 0x22, 0x8f, 0x3d, 0x98, 0x30, 0xe8, 0x3d,
  0xcf, 0x82, 0xfa, 0x3d, 0xcf, 0x5b, 0x0d, 0xbe, 0x34, 0x23, 0xa0, 0xbe,
  0x5d, 0x89, 0xba, 0xbc, 0x5c, 0x75, 0x33, 0x3e, 0x72, 0x2e, 0x4a, 0x3c,
  0x51, 0x54, 0x36, 0x3e, 0xbb, 0xc2, 0x14, 0x3f, 0xe5, 0xb2, 0x9e, 0x3e,
  0xdd, 0xe4, 0x01, 0xbe, 0x3f, 0x13, 0xa1, 0xbe, 0xf8, 0x81, 0x08, 0xbd,
  0x1f, 0xee, 0x17, 0xbe, 0xf1, 0x28, 0xe4, 0xbd, 0xbe, 0x0e, 0xf1, 0xbd,
  0x11, 0xa2, 0xd9, 0xbc, 0x9a, 0x31, 0x83, 0x3e, 0xe2, 0xa6, 0xc3, 0x3b,
  0x97, 0x9f, 0x9a, 0xbe, 0xf5, 0x78, 0x02, 0xbe, 0xcb, 0xae, 0x61, 0xbd,
  0xfd, 0x4c, 0x85, 0x3d, 0xd2, 0x57, 0x00, 0x3d, 0xbe, 0x64, 0x72, 0x3e,
  0x77, 0xbc, 0x41, 0x3e, 0xf4, 0x95, 0x99, 0x3d, 0x2d, 0x51, 0x5e, 0xbe,
  0x31, 0x16, 0x3f, 0xbe, 0xbb, 0x3a, 0x4b, 0xbe, 0x39, 0xec, 0x5e, 0xbe,
  0x60, 0x97, 0xd7, 0xbd, 0x8d, 0x33, 0x46, 0x3e, 0x5f, 0xb5, 0xd3, 0x3e,
  0xff, 0x6a, 0xfa, 0xbd, 0x7b, 0x77, 0x8b, 0xbe, 0x26, 0x02, 0x0b, 0x3e,
  0x66, 0x8a, 0x93, 0x3e, 0xaf, 0xbd, 0xac, 0x3e, 0x62, 0x1b, 0xff, 0x3b,
  0x76, 0x1b, 0xa0, 0xbe, 0x80, 0xf1, 0x87, 0xbd, 0xa5, 0xbf, 0x0a, 0xbe,
  0x1e, 0xd2, 0x93, 0xbe, 0x5e, 0xa5, 0x8e, 0xbe, 0x66, 0x21, 0x00, 0xbf,
  0x5f, 0x7f, 0x91, 0xbe, 0x3d, 0x09, 0x7d, 0x3e, 0x78, 0x2a, 0xd8, 0xbe,
  0x1f, 0xf1, 0xe6, 0x3d, 0x92, 0x1f, 0x41, 0x3e, 0x05, 0xac, 0x54, 0xbe,
  0x51, 0xc6, 0xf6, 0xbe, 0x74, 0x3c, 0x1c, 0xbd, 0xc5, 0x3c, 0x11, 0xbf,
  0x9c, 0x02, 0x7b, 0xbe, 0x4b, 0xc6, 0x27, 0x3e, 0xcb, 0xab, 0x3d, 0xbd,
  0x2c, 0xc6, 0x4d, 0x3e, 0x13, 0xb6, 0x1f, 0x3e, 0x7b, 0xee, 0x88, 0x3e,
  0x6e, 0x63, 0x9b, 0xbd, 0x50, 0x82, 0x04, 0xbf, 0x2c, 0xab, 0xb4, 0xbe,
  0xd3, 0xe8, 0x2c, 0xbe, 0x80, 0x99, 0x9a, 0xbe, 0x31, 0x42, 0x0d, 0xbe,
  0xae, 0x88, 0x1f, 0xbe, 0x79, 0x57, 0xe7, 0xbd, 0x32, 0x3c, 0x14, 0xbc,
  0xe0, 0x72, 0x39, 0xbe, 0xbc, 0x1f, 0x65, 0xbe, 0xc9, 0xc9, 0x2e, 0xbd,
  0x2c, 0x85, 0x13, 0xbe, 0x3d, 0xd1, 0xc2, 0xbe, 0x35, 0x8e, 0x93, 0xbe,
  0xe8, 0x0d, 0xc3, 0xbc, 0xbc, 0x7e, 0x7f, 0x3e, 0x6c, 0x37, 0xf6, 0xbc,
  0xb7, 0x8c, 0xd9, 0xbc, 0x39, 0xe6, 0xa7, 0x3c, 0xbe, 0x1e, 0x27, 0xbd,
  0x01, 0x64, 0x1a, 0xbe, 0x3d, 0x4d, 0x24, 0xbe, 0x26, 0x46, 0x9b, 0x3d,
  0xb2, 0x1e, 0xc3, 0x3d, 0x8f, 0xb0, 0x49, 0x3d, 0xfe, 0x1d, 0x96, 0xbc,
  0x9e, 0xf5, 0x44, 0x3d, 0x8e, 0xe5, 0x10, 0x3f, 0x0b, 0xa6, 0x97, 0xbd,
  0xa3, 0x7b, 0x81, 0xbe, 0x50, 0x7e, 0x49, 0xbe, 0xba, 0x3c, 0xf7, 0xbc,
  0xb5, 0x24, 0x84, 0x3b, 0x91, 0x6f, 0x85, 0x3e, 0x4b, 0x43, 0x76, 0x39,
  0xd2, 0xd7, 0x69, 0x3d, 0x9d, 0x7f, 0x2c, 0xbe, 0x4e, 0x16, 0x25, 0xbe,
  0xae, 0x8d, 0xef, 0x3b, 0x5e, 0x84, 0xf9, 0xbc, 0x6c, 0xdb, 0x0a, 0xbe,
  0x59, 0xcd, 0x78, 0xbd, 0x2e, 0xdf, 0x25, 0xbe, 0x09, 0xae, 0x34, 0xbe,
  0x54, 0xee, 0x76, 0xbe, 0x7b, 0x68, 0x47, 0xbe, 0x3e, 0xc8, 0xed, 0x3d,
  0xcf, 0xba, 0x6e, 0x3c, 0x72, 0xae, 0x66, 0xbd, 0x43, 0xb5, 0x0c, 0x3f,
  0x1c, 0x2d, 0xef, 0xbd, 0xf9, 0xe3, 0xc2, 0x3e, 0xf5, 0xb1, 0xbd, 0xbd,
  0x61, 0x67, 0xdc, 0xbd, 0x52, 0xbb, 0x18, 0x3e, 0xae, 0x98, 0xa3, 0xbd,
  0xeb, 0x88, 0xa6, 0xbd, 0xdc, 0xdc, 0x76, 0xbe, 0x66, 0x43, 0x23, 0x3d,
  0xf1, 0xdd, 0xf8, 0x3d, 0xb4, 0x28, 0x9f, 0xbd, 0xe5, 0x0d, 0x99, 0xbd,
  0x81, 0xc9, 0x81, 0xbd, 0xda, 0xe2, 0x49, 0xbd, 0x67, 0x75, 0x03, 0xbe,
  0x80, 0x60, 0x7a, 0xbd, 0xf1, 0x96, 0x8b, 0xbd, 0x82, 0x5e, 0x09, 0x3f,
  0x05, 0xa1, 0xa9, 0x3e, 0x3b, 0xc5, 0x16, 0x3e, 0x9e, 0x06, 0x4c, 0xbe,
  0x01, 0xbd, 0xed, 0xbe, 0xd1, 0x4b, 0x5b, 0xbe, 0xf7, 0xa1, 0x6a, 0xbe,
  0x1c, 0x68, 0x71, 0xbe, 0x4e, 0x88, 0x44, 0x3e, 0x86, 0xfe, 0x0e, 0xbe,
  0xfc, 0x1c, 0x1e, 0xbe, 0x0b, 0x82, 0xd0, 0xbe, 0xd6, 0x0e, 0x50, 0xbe,
  0x18, 0xb3, 0xa9, 0xbd, 0x17, 0x77, 0xbf, 0xbd, 0xeb, 0xf5, 0x7f, 0xbe,
  0xdc, 0x6a, 0x60, 0x3e, 0xbc, 0x62, 0x32, 0xbe, 0x22, 0x31, 0x49, 0xbe,
  0x95, 0x91, 0x42, 0xbe, 0xc6, 0xe4, 0xf1, 0xbd, 0x61, 0x0c, 0x9a, 0x3e,
  0x50, 0x29, 0x8a, 0x3d, 0x3a, 0x3a, 0x78, 0xbe, 0x4f, 0x9b, 0xe0, 0x3c,
  0x7d, 0x9f, 0x80, 0xbe, 0x19, 0x53, 0x12, 0xbe, 0x21, 0xb3, 0x5e, 0x3d,
  0x40, 0x9f, 0x6c, 0x3e, 0x79, 0x8f, 0x8b, 0x3d, 0x74, 0xa4, 0xf9, 0x3c,
  0x87, 0x53, 0xf7, 0x39, 0x26, 0xde, 0xff, 0xff, 0x10, 0x00, 0x00, 0x00,
  0x0a, 0x00, 0x00, 0x00, 0x1c, 0x00, 0x00, 0x00, 0x38, 0x00, 0x00, 0x00,
  0x04, 0x00, 0x00, 0x00, 0x10, 0x00, 0x00, 0x00, 0x04, 0x00, 0x00, 0x00,
  0x01, 0x00, 0x00, 0x00, 0x08, 0x00, 0x00, 0x00, 0x1a, 0x00, 0x00, 0x00,
  0x73, 0x65, 0x71, 0x75, 0x65, 0x6e, 0x74, 0x69, 0x61, 0x6c, 0x2f, 0x63,
  0x6f, 0x6e, 0x76, 0x32, 0x64, 0x5f, 0x31, 0x2f, 0x43, 0x6f, 0x6e, 0x76,
  0x32, 0x44, 0x00, 0x00, 0x9c, 0xdd, 0xff, 0xff, 0xa6, 0xde, 0xff, 0xff,
  0x04, 0x00, 0x00, 0x00, 0x80, 0x01, 0x00, 0x00, 0xc2, 0xd5, 0xc4, 0xbe,
  0x8c, 0x0d, 0xe3, 0x3c, 0x1a, 0xe0, 0x69, 0x3d, 0xb2, 0xc6, 0x2e, 0x3e,
  0xc1, 0x98, 0x88, 0x3e, 0xc7, 0x71, 0xab, 0x3e, 0xa9, 0xae, 0xb1, 0x3d,
  0xba, 0x59, 0x94, 0x3c, 0x9c, 0xa9, 0xbb, 0xbd, 0x10, 0xa1, 0x3f, 0x3e,
  0xd5, 0x2e, 0xa3, 0xbe, 0x20, 0x66, 0x9f, 0xbe, 0x08, 0x10, 0xb2, 0x3c,
  0x96, 0x63, 0x89, 0x3e, 0xa5, 0x90, 0x90, 0xbe, 0x1e, 0x8b, 0x81, 0x3d,
  0x02, 0x7f, 0x07, 0xbd, 0xd2, 0x84, 0x46, 0xbe, 0x21, 0x12, 0x23, 0x3d,
  0xa0, 0xe4, 0x1d, 0xbe, 0xd7, 0xd2, 0x12, 0x3e, 0xa1, 0x64, 0xca, 0x3c,
  0x3f, 0x53, 0x1e, 0xbe, 0x5f, 0xf1, 0xc4, 0x3d, 0xe0, 0xd5, 0x01, 0xbd,
  0xb1, 0xae, 0x14, 0x3e, 0xd0, 0x27, 0x2e, 0xbe, 0xdb, 0x9c, 0xa5, 0xbd,
  0xcd, 0x1a, 0x13, 0x3e, 0x24, 0x7b, 0xcf, 0xbd, 0x94, 0x54, 0x1f, 0xbc,
  0x2b, 0xb8, 0xf7, 0x3c, 0xba, 0x55, 0xec, 0xbd, 0xf2, 0x57, 0xec, 0x3d,
  0xe8, 0x10, 0xbb, 0xbc, 0x1b, 0xea, 0x7e, 0xbc, 0xf6, 0x10, 0xec, 0x3d,
  0x57, 0x89, 0x9d, 0xbd, 0xb3, 0x4d, 0x6c, 0xbd, 0xf5, 0x7a, 0x8b, 0x3e,
  0xd4, 0xc0, 0xbd, 0x3d, 0x6b, 0xd6, 0x77, 0x3c, 0x58, 0x71, 0x06, 0x3d,
  0x4f, 0xe9, 0x8b, 0x3d, 0x2c, 0xc0, 0x7d, 0x3e, 0x5b, 0x80, 0x08, 0xbe,
  0x5a, 0x96, 0x8c, 0xbd, 0x3d, 0xfa, 0x90, 0x3d, 0xd3, 0x8c, 0xa9, 0x3d,
  0x15, 0xe5, 0xb6, 0xbd, 0x28, 0xfc, 0xaa, 0xbd, 0xbf, 0xf0, 0x85, 0x3d,
  0x66, 0xb9, 0x1b, 0xbd, 0x08, 0x87, 0xaf, 0xbd, 0x8a, 0xa0, 0x90, 0x3e,
  0x00, 0x2f, 0x01, 0x3e, 0xaa, 0xea, 0x78, 0x3e, 0x3e, 0x55, 0x88, 0x3d,
  0xf6, 0x31, 0xc0, 0x3d, 0x69, 0xf7, 0x4d, 0xbd, 0xaf, 0x22, 0x3e, 0x3d,
  0x15, 0x52, 0xcf, 0x3e, 0x05, 0x87, 0x31, 0x3d, 0x55, 0x4b, 0x09, 0x3e,
  0x29, 0x5f, 0x7b, 0xbc, 0x49, 0xc3, 0x60, 0x3e, 0x46, 0x4b, 0x29, 0x3d,
  0x5c, 0x83, 0xd4, 0xbc, 0x07, 0x1f, 0x1b, 0xbe, 0x10, 0x2f, 0x3d, 0x3d,
  0xed, 0xc4, 0x88, 0x3d, 0x5b, 0x9c, 0x85, 0xbc, 0x66, 0x12, 0x5e, 0x3e,
  0x8f, 0x6c, 0x5b, 0xbd, 0xb7, 0x71, 0x8e, 0x3d, 0xfe, 0x79, 0xcd, 0x3e,
  0x6e, 0xb2, 0x96, 0x3e, 0x89, 0x48, 0x85, 0x3e, 0x5b, 0x18, 0x5d, 0xbe,
  0xda, 0x94, 0x44, 0x3d, 0xc3, 0x42, 0xee, 0xbc, 0x9e, 0x4a, 0x36, 0xbe,
  0x21, 0x9e, 0x18, 0xbe, 0x7f, 0xb8, 0x54, 0xbe, 0x2e, 0x0e, 0xf5, 0x3e,
  0xac, 0xf8, 0x4e, 0x3c, 0xbd, 0x3c, 0x36, 0x3d, 0xcc, 0x28, 0x0c, 0xbf,
  0xa8, 0x00, 0x57, 0x3d, 0x63, 0xac, 0x19, 0xbe, 0x28, 0x6b, 0xab, 0x3d,
  0x7b, 0xbf, 0x5d, 0xbe, 0xb4, 0x02, 0x41, 0x3e, 0x10, 0x8a, 0x84, 0x3e,
  0x95, 0x3a, 0x7a, 0x3e, 0xc5, 0xc2, 0x2b, 0xbe, 0xfe, 0xdf, 0xff, 0xff,
  0x10, 0x00, 0x00, 0x00, 0x09, 0x00, 0x00, 0x00, 0x1c, 0x00, 0x00, 0x00,
  0x38, 0x00, 0x00, 0x00, 0x04, 0x00, 0x00, 0x00, 0x08, 0x00, 0x00, 0x00,
  0x04, 0x00, 0x00, 0x00, 0x03, 0x00, 0x00, 0x00, 0x01, 0x00, 0x00, 0x00,
  0x18, 0x00, 0x00, 0x00, 0x73, 0x65, 0x71, 0x75, 0x65, 0x6e, 0x74, 0x69,
  0x61, 0x6c, 0x2f, 0x63, 0x6f, 0x6e, 0x76, 0x32, 0x64, 0x2f, 0x43, 0x6f,
  0x6e, 0x76, 0x32, 0x44, 0x00, 0x00, 0x00, 0x00, 0x74, 0xdf, 0xff, 0xff,
  0x7e, 0xe0, 0xff, 0xff, 0x04, 0x00, 0x00, 0x00, 0xc0, 0x00, 0x00, 0x00,
  0x5e, 0x20, 0x05, 0x3e, 0x66, 0x2b, 0x45, 0xbe, 0x71, 0x20, 0x98, 0xbb,
  0x32, 0x3a, 0x85, 0x3e, 0x63, 0xf8, 0x19, 0xbf, 0x69, 0x8e, 0x10, 0x3e,
  0x51, 0x07, 0xb3, 0xbe, 0x22, 0x01, 0x8a, 0x3e, 0x2e, 0x0c, 0x08, 0x3e,
  0xf1, 0x9b, 0x89, 0x3d, 0x05, 0x38, 0x49, 0x3e, 0x14, 0xfd, 0xf4, 0xbd,
  0x43, 0x23, 0xd6, 0xbd, 0x3e, 0x3d, 0x99, 0xbd, 0xad, 0x0c, 0x5f, 0x3d,
  0xde, 0xab, 0x8b, 0x3c, 0xeb, 0x0c, 0x17, 0x3e, 0x14, 0x5c, 0x3a, 0xbe,
  0x60, 0x4f, 0x9d, 0xbe, 0xa1, 0xfa, 0x69, 0x3e, 0xa4, 0xcf, 0x99, 0xbe,
  0x37, 0x2d, 0x49, 0x3e, 0x33, 0xbe, 0x91, 0xbe, 0x8d, 0xb9, 0x49, 0x3e,
  0xab, 0x93, 0x6a, 0x3e, 0x3a, 0x99, 0x1f, 0x3e, 0xee, 0x4c, 0xc0, 0x3e,
  0x80, 0xb9, 0x09, 0xbe, 0x76, 0x43, 0xaa, 0xbe, 0xff, 0x7f, 0xc6, 0xbd,
  0x15, 0x08, 0xe2, 0x3d, 0x42, 0x86, 0x92, 0x3d, 0x8b, 0xbb, 0x2a, 0x3e,
  0xb6, 0x64, 0xa1, 0xbe, 0x68, 0x07, 0xe8, 0xbe, 0xa0, 0x6f, 0x43, 0x3e,
  0xc0, 0xc4, 0x89, 0xbd, 0x23, 0xad, 0xfa, 0x3d, 0xc4, 0x44, 0xab, 0xbe,
  0xde, 0xd1, 0x33, 0x3e, 0x71, 0x41, 0x85, 0x3e, 0x64, 0xa3, 0x1d, 0x3d,
  0xa9, 0x4a, 0xdb, 0x3e, 0x6b, 0xa8, 0x83, 0x3d, 0x95, 0xb7, 0x04, 0xbf,
  0x02, 0xda, 0x04, 0xbd, 0x79, 0xf9, 0xf1, 0xbe, 0x39, 0x23, 0xa0, 0x3d,
  0x16, 0xe1, 0xff, 0xff, 0x10, 0x00, 0x00, 0x00, 0x08, 0x00, 0x00, 0x00,
  0x14, 0x00, 0x00, 0x00, 0x30, 0x00, 0x00, 0x00, 0x02, 0x00, 0x00, 0x00,
  0x03, 0x00, 0x00, 0x00, 0x10, 0x00, 0x00, 0x00, 0x19, 0x00, 0x00, 0x00,
  0x73, 0x65, 0x71, 0x75, 0x65, 0x6e, 0x74, 0x69, 0x61, 0x6c, 0x2f, 0x64,
  0x65, 0x6e, 0x73, 0x65, 0x5f, 0x31, 0x2f, 0x4d, 0x61, 0x74, 0x4d, 0x75,
  0x6c, 0x00, 0x00, 0x00, 0x84, 0xe0, 0xff, 0xff, 0x8e, 0xe1, 0xff, 0xff,
  0x04, 0x00, 0x00, 0x00, 0x00, 0x1c, 0x00, 0x00, 0x34, 0xa5, 0x13, 0xbe,
  0x5f, 0xaa, 0x17, 0x3d, 0x24, 0x6c, 0x80, 0xbc, 0xbc, 0x05, 0x4b, 0x3e,
  0x4a, 0x2a, 0x54, 0xbe, 0x2f, 0x59, 0x4d, 0xbe, 0x98, 0xce, 0x6f, 0xbd,
  0xfb, 0x1a, 0x60, 0xbe, 0x50, 0x0a, 0x80, 0xbe, 0x1e, 0xd3, 0x49, 0xbd,
  0xee, 0x16, 0x08, 0x3e, 0x70, 0xcf, 0x12, 0xbe, 0x5c, 0x39, 0x39, 0x3d,
  0x6f, 0xd2, 0x3f, 0x3d, 0xd6, 0x3c, 0xcf, 0xbc, 0xa5, 0x51, 0x46, 0xbd,
  0xa3, 0x89, 0x6a, 0xbd, 0x9a, 0xd4, 0x60, 0x3e, 0xb8, 0x45, 0xab, 0x3e,
  0x8a, 0x4f, 0xae, 0x3d, 0x33, 0x15, 0x66, 0x3d, 0xf5, 0x1c, 0x52, 0xbe,
  0xd0, 0x53, 0xb1, 0xbe, 0x3e, 0xbd, 0x9c, 0xbd, 0x29, 0xd8, 0xfa, 0x3d,
  0xe9, 0x22, 0xc3, 0xbd, 0x5c, 0xb8, 0x18, 0xbd, 0x2c, 0x3c, 0x31, 0xbe,
  0x5f, 0x0e, 0x88, 0x3d, 0x4c, 0xbd, 0x39, 0x3e, 0x24, 0x62, 0x37, 0x3e,
  0x9e, 0xb3, 0x3d, 0x3d, 0x8a, 0x04, 0xef, 0x3c, 0xce, 0xd9, 0x08, 0x3f,
  0xa2, 0xbc, 0x15, 0x3e, 0xc8, 0x9a, 0x11, 0x3e, 0xdc, 0x77, 0x8d, 0xbe,
  0xe2, 0x56, 0x32, 0x3e, 0x54, 0x61, 0x24, 0xbe, 0xc8, 0x02, 0x98, 0x3e,
  0x31, 0xae, 0x8b, 0xbd, 0xba, 0x95, 0x19, 0x3e, 0xf5, 0xb2, 0x57, 0x3d,
  0x10, 0x01, 0x65, 0x3e, 0xd9, 0x2d, 0x03, 0xbe, 0xd0, 0x29, 0x2c, 0x3e,
  0xa3, 0x71, 0xcf, 0x3d, 0x82, 0xb4, 0x22, 0x3d, 0x8e, 0xed, 0xaf, 0x3c,
  0x1e, 0x63, 0x9e, 0x3d, 0x1e, 0xbb, 0xef, 0x3c, 0x47, 0x18, 0xb0, 0xbd,
  0x42, 0x54, 0xdf, 0xbd, 0xb3, 0x81, 0x61, 0xbe, 0x65, 0x6e, 0xd2, 0xbd,
  0xce, 0xdb, 0xf3, 0x3d, 0x00, 0x53, 0x93, 0x3e, 0xe7, 0x7e, 0x44, 0x3b,
  0x0c, 0x1c, 0x46, 0xbd, 0xe3, 0x89, 0x9e, 0x3e, 0x0b, 0xec, 0x63, 0xbd,
  0xcb, 0xe3, 0x2f, 0x3d, 0xa7, 0x07, 0x58, 0x3e, 0xb2, 0x7a, 0x34, 0xbe,
  0x47, 0xf9, 0xcc, 0x3d, 0x28, 0x2d, 0x87, 0x3e, 0x1a, 0xef, 0x0f, 0x3e,
  0x58, 0x57, 0x55, 0x3e, 0xf2, 0x69, 0x58, 0xbd, 0xaa, 0x5b, 0x43, 0x3c,
  0xb3, 0xcd, 0x01, 0xbf, 0x92, 0x21, 0x85, 0x3d, 0x3c, 0x9a, 0x5f, 0x3e,
  0x2e, 0x0d, 0xf0, 0xbd, 0x1c, 0x31, 0xa4, 0xbe, 0x2a, 0x03, 0xa2, 0xbd,
  0x29, 0xed, 0x37, 0x3d, 0x3d, 0x33, 0x9c, 0xbd, 0x42, 0x85, 0xf8, 0x3b,
  0xe8, 0xec, 0x74, 0x3d, 0x9f, 0x66, 0xc3, 0x3c, 0x67, 0xb4, 0xd8, 0x3e,
  0x00, 0xd4, 0xc0, 0x3d, 0x9c, 0x2e, 0x2e, 0x3e, 0x93, 0xd5, 0x7b, 0xbd,
  0xf7, 0x2d, 0x5a, 0xbe, 0x8b, 0x1a, 0x40, 0xbe, 0x4f, 0x1b, 0x24, 0x3e,
  0x01, 0xd3, 0x88, 0x3c, 0x71, 0xbf, 0xdf, 0xbc, 0x8f, 0x5b, 0xaa, 0xbd,
  0x4e, 0xf9, 0x19, 0x3d, 0xcd, 0x98, 0xfe, 0xbd, 0x8e, 0x36, 0xee, 0x3d,
  0x85, 0xa0, 0xee, 0xbd, 0x55, 0x82, 0xcd, 0xbd, 0xca, 0xd3, 0xbc, 0xbd,
  0xa1, 0x8e, 0x30, 0x3c, 0xc5, 0x31, 0x8c, 0x3c, 0x2d, 0x03, 0x91, 0xbd,
  0xcd, 0x79, 0x91, 0xbe, 0xf0, 0x2f, 0x95, 0xbe, 0x5a, 0x9f, 0x80, 0xbc,
  0x1a, 0x5f, 0x84, 0xbe, 0xdc, 0x60, 0xb4, 0x3c, 0xc8, 0xcd, 0x13, 0xbe,
  0x93, 0x7c, 0xbf, 0xbe, 0x5d, 0x17, 0x8e, 0xbe, 0x7b, 0xbe, 0x0d, 0xbb,
  0x09, 0x3e, 0xc7, 0x3c, 0x36, 0x14, 0x25, 0x3d, 0xd0, 0x3e, 0x5d, 0xbe,
  0xdc, 0x92, 0x71, 0x3d, 0x6f, 0xa7, 0x63, 0xbd, 0x18, 0xf1, 0xac, 0x3c,
  0xeb, 0xe8, 0x9b, 0xbd, 0x3d, 0x06, 0x49, 0x3e, 0x5d, 0x37, 0x5b, 0x3e,
  0x2b, 0x7e, 0xbf, 0xbd, 0x7c, 0x1d, 0x92, 0x3d, 0xbf, 0xb5, 0xa5, 0x3e,
  0xed, 0x74, 0xc9, 0x3e, 0x9f, 0x59, 0x20, 0xbd, 0xd5, 0x85, 0x1c, 0xbe,
  0x5a, 0xb8, 0xa2, 0x3d, 0x48, 0x4b, 0x82, 0xbe, 0x4b, 0xff, 0x80, 0x3e,
  0xc1, 0x7b, 0xba, 0x3d, 0xe7, 0x0b, 0x27, 0xbd, 0xac, 0xbc, 0xb2, 0xbc,
  0xcc, 0x18, 0x0f, 0xbe, 0x46, 0xc8, 0x9c, 0xbd, 0x2f, 0xcb, 0x31, 0xbe,
  0xf4, 0x55, 0x11, 0x3d, 0x55, 0x8c, 0xe8, 0xbc, 0x22, 0x1d, 0xa9, 0x3c,
  0x6f, 0xc3, 0xfd, 0x3d, 0x0d, 0xb5, 0xaa, 0x3d, 0x27, 0x4b, 0x5f, 0x3e,
  0x92, 0x79, 0x67, 0xbe, 0x16, 0xe8, 0xb9, 0x3c, 0x80, 0xbc, 0xb5, 0x3c,
  0xe3, 0xb9, 0x14, 0xbe, 0x7b, 0x6a, 0x03, 0x3d, 0xbc, 0x0c, 0xce, 0xbd,
  0xeb, 0xd6, 0x8f, 0x3d, 0x34, 0xc6, 0xb8, 0xbd, 0x48, 0x4d, 0xaa, 0xb9,
  0x63, 0xf0, 0x79, 0xbe, 0xc0, 0xf8, 0x2e, 0xbe, 0x6c, 0xe9, 0x9d, 0xbc,
  0x9c, 0x79, 0xb5, 0xbd, 0xa4, 0x45, 0xd7, 0xbb, 0x7c, 0x16, 0x68, 0x3c,
  0xcf, 0xff, 0x00, 0x3e, 0x04, 0x3b, 0xf9, 0xbd, 0xe4, 0xd2, 0x14, 0x3d,
  0x7e, 0x27, 0x1c, 0xbe, 0xd1, 0xea, 0xa4, 0xbe, 0xf6, 0x0c, 0xc4, 0xbc,
  0xf2, 0xd3, 0xd5, 0xbc, 0xd6, 0xab, 0x99, 0xbc, 0xf4, 0x9c, 0xe4, 0x3d,
  0x54, 0xe8, 0x11, 0xbd, 0x17, 0xb1, 0xf1, 0xbd, 0x40, 0x9e, 0x7a, 0xbe,
  0x8f, 0xa6, 0x51, 0xbd, 0x7f, 0x65, 0x3e, 0x3d, 0xfe, 0xc0, 0x97, 0x3c,
  0x95, 0xe6, 0x77, 0xbe, 0x7d, 0x24, 0x5f, 0x3e, 0xb6, 0xd3, 0xe2, 0xbe,
  0x25, 0x05, 0x38, 0xbe, 0xf5, 0x28, 0x8e, 0xbe, 0x93, 0x3c, 0x92, 0xbe,
  0xa4, 0x55, 0x98, 0xbc, 0xb1, 0x27, 0x77, 0xbd, 0xf8, 0x84, 0x9c, 0x3c,
  0x32, 0x2f, 0x71, 0x3c, 0x40, 0x03, 0xe0, 0xbc, 0xf7, 0x6a, 0xa1, 0xba,
  0x77, 0xb7, 0x36, 0x3d, 0x69, 0x52, 0x99, 0xbc, 0xf6, 0xe8, 0xd1, 0x3c,
  0x44, 0xbf, 0x97, 0xbb, 0x57, 0x1f, 0x81, 0x3c, 0x3a, 0x3e, 0xb0, 0x3e,
  0x0d, 0x57, 0xa4, 0xbd, 0xce, 0x83, 0x2a, 0xbe, 0x19, 0x62, 0xd8, 0x3e,
  0xef, 0xf0, 0xe6, 0x3d, 0xf6, 0x20, 0xf6, 0x3b, 0x17, 0x19, 0x0e, 0xbd,
  0x15, 0x9e, 0xfa, 0x3c, 0x82, 0x83, 0x02, 0xbd, 0xd4, 0x0e, 0xbb, 0xbd,
  0x34, 0x9c, 0x4a, 0x3e, 0xf2, 0x7b, 0xb6, 0x3d, 0x20, 0x74, 0x87, 0x3c,
  0x41, 0x65, 0x79, 0x3d, 0xa7, 0x17, 0xca, 0x3d, 0x3f, 0xec, 0x5a, 0x3e,
  0xb7, 0x4a, 0x8c, 0x3e, 0xd7, 0x9d, 0xb3, 0xbd, 0xd3, 0xc7, 0x20, 0x3e,
  0x1a, 0x43, 0x87, 0x3e, 0x6b, 0x2b, 0x33, 0x3e, 0x1f, 0x36, 0x73, 0x3d,
  0x42, 0xe3, 0x75, 0xbc, 0xcb, 0xad, 0x38, 0xbe, 0x46, 0xa3, 0xa9, 0x3d,
  0x69, 0x23, 0x84, 0x3d, 0xbe, 0xe3, 0xd5, 0x3c, 0x78, 0x8c, 0xa6, 0x3d,
  0xa2, 0x29, 0x5f, 0xbb, 0x9b, 0x89, 0x31, 0x3d, 0xc1, 0x96, 0xcc, 0xbc,
  0x6c, 0x08, 0x62, 0x3d, 0x56, 0x6e, 0x66, 0x3e, 0x99, 0x2f, 0x19, 0xbd,
  0x22, 0x2b, 0xa0, 0x3d, 0x70, 0xac, 0x2d, 0x3d, 0x45, 0xea, 0x94, 0x3d,
  0xa0, 0x64, 0x02, 0x3e, 0x5e, 0xdf, 0x30, 0xbe, 0x4d, 0x30, 0x30, 0x3c,
  0xdb, 0x76, 0xf7, 0xbd, 0xfa, 0xfb, 0x86, 0xbd, 0xd8, 0xab, 0xb1, 0xbd,
  0xcc, 0xb2, 0x0a, 0xbd, 0xcd, 0xa2, 0xb8, 0xbd, 0x2f, 0x59, 0x6f, 0xbd,
  0x17, 0xf8, 0x28, 0xbe, 0x43, 0x1a, 0xa9, 0xbd, 0xcb, 0x71, 0x1e, 0xbe,
  0x12, 0xa2, 0xb2, 0xbd, 0x37, 0x8c, 0x42, 0xbe, 0xf0, 0x34, 0x9e, 0x3d,
  0x78, 0x4e, 0x8f, 0xbd, 0xe8, 0x91, 0xe4, 0x3d, 0x4c, 0xa5, 0x35, 0xbd,
  0x6e, 0xd1, 0x6b, 0xbe, 0x78, 0xc4, 0xbf, 0x3d, 0x24, 0xe8, 0xd4, 0x3d,
  0x1f, 0xd1, 0x0f, 0xbe, 0x92, 0x0d, 0x70, 0x3c, 0xd2, 0x7b, 0x98, 0xbe,
  0xfc, 0x43, 0x69, 0x3d, 0x20, 0xeb, 0x61, 0xbe, 0x77, 0xdc, 0x61, 0xbd,
  0x79, 0x9b, 0x78, 0xbd, 0x09, 0x73, 0xe7, 0xbc, 0x92, 0x29, 0x34, 0x3e,
  0x56, 0x04, 0x31, 0x3e, 0x35, 0x80, 0xfe, 0xbd, 0xda, 0x73, 0x5b, 0xbe,
  0xef, 0x5b, 0x7d, 0xbe, 0x70, 0x9f, 0x3b, 0xbd, 0x8a, 0x47, 0x31, 0x3c,
  0x63, 0x80, 0x65, 0xbd, 0x63, 0xe6, 0x38, 0x3b, 0xba, 0x59, 0x5c, 0xbe,
  0xd5, 0xc4, 0x8b, 0xbd, 0x9a, 0xa6, 0x5c, 0xbd, 0x35, 0x63, 0x80, 0xba,
  0x0a, 0x79, 0x0a, 0x3e, 0xcf, 0x7c, 0xec, 0xbb, 0xd1, 0x48, 0x86, 0x3d,
  0x95, 0x61, 0xa7, 0xbb, 0x0a, 0x3c, 0x2f, 0xbe, 0xce, 0x6f, 0x00, 0xbe,
  0x56, 0x9a, 0x4f, 0x3e, 0x29, 0xbc, 0xb2, 0xbd, 0x22, 0x50, 0xb8, 0x3d,
  0xe1, 0x79, 0xd3, 0xbd, 0xbe, 0xe4, 0x18, 0xbe, 0x38, 0xca, 0x2c, 0x3e,
  0x03, 0x17, 0x50, 0xbe, 0x49, 0x3d, 0x6f, 0xbe, 0x31, 0xda, 0x3a, 0x3e,
  0xa1, 0x48, 0x98, 0x3d, 0xa8, 0x68, 0x01, 0x3d, 0x03, 0x96, 0xe8, 0x3c,
  0x3f, 0x18, 0x33, 0xbe, 0x9d, 0xe7, 0x45, 0xbe, 0xfc, 0x2b, 0x46, 0xbe,
  0xb7, 0x2c, 0x0c, 0xbe, 0x4b, 0x2b, 0x8a, 0xbd, 0xed, 0xd1, 0x0f, 0xbd,
  0xc3, 0x9b, 0x08, 0x3e, 0x8b, 0x93, 0xbb, 0xbd, 0xc1, 0xe7, 0x5d, 0xbe,
  0x6a, 0xe7, 0x8a, 0xbd, 0xd1, 0xb7, 0x75, 0x3d, 0xaf, 0x61, 0x03, 0xbe,
  0xfc, 0xc6, 0x3f, 0x3e, 0x7d, 0x6c, 0xac, 0xbd, 0x1a, 0xc7, 0x2d, 0x3e,
  0x9c, 0x05, 0xbe, 0xbd, 0x65, 0xd7, 0x12, 0xbe, 0xa3, 0xd0, 0xc4, 0x3d,
  0xa9, 0x6e, 0xcd, 0xbd, 0x6a, 0xb2, 0xba, 0x3d, 0x7a, 0x94, 0x6a, 0xbd,
  0xf8, 0xde, 0xe4, 0xbc, 0xf1, 0xa9, 0x87, 0x3d, 0x85, 0x94, 0x6e, 0xbd,
  0xb9, 0x35, 0xef, 0xbd, 0x6c, 0xe7, 0x9c, 0x3d, 0xda, 0x10, 0x20, 0x3d,
  0x99, 0xd9, 0x88, 0xbe, 0x62, 0x38, 0x74, 0x3c, 0xb4, 0x20, 0xed, 0xbd,
  0x8a, 0x4c, 0xfc, 0x3c, 0x8b, 0xc3, 0x2f, 0xbc, 0x89, 0x17, 0x09, 0x3e,
  0x54, 0x6a, 0x7c, 0xbd, 0x98, 0x11, 0x44, 0xbe, 0x2c, 0x5c, 0x81, 0x3d,
  0x82, 0x38, 0xed, 0xbd, 0x39, 0x3c, 0xcc, 0xbd, 0x77, 0xfa, 0x7d, 0xbd,
  0xb2, 0x20, 0x19, 0x3e, 0x07, 0x9f, 0x1a, 0xbe, 0xcd, 0x09, 0xb3, 0xbd,
  0x8e, 0xfa, 0x3d, 0xbe, 0x65, 0x12, 0xe5, 0x39, 0x20, 0xcb, 0x61, 0xbe,
  0xa2, 0x9b, 0x13, 0xbe, 0x81, 0x09, 0x80, 0xbe, 0x63, 0x04, 0x11, 0xbd,
  0xb9, 0x40, 0x90, 0x3d, 0xbd, 0x4a, 0x45, 0x3d, 0x78, 0xc7, 0x3b, 0x3d,
  0x97, 0xf8, 0x32, 0x3e, 0xcf, 0x14, 0x7e, 0xbd, 0xf5, 0x06, 0x38, 0xbe,
  0x8d, 0xa9, 0x01, 0xbe, 0x46, 0xca, 0x80, 0x3e, 0x7b, 0xc8, 0x30, 0xbc,
  0xda, 0x11, 0xa1, 0x3e, 0x97, 0x01, 0x4d, 0x3e, 0xd8, 0x94, 0x64, 0xbc,
  0x59, 0x1a, 0x8e, 0x3e, 0x0f, 0xa7, 0x6a, 0xbe, 0xab, 0x9d, 0xb4, 0x3c,
  0x38, 0x34, 0x99, 0xbd, 0x2a, 0x0a, 0x12, 0xbe, 0x64, 0xac, 0x57, 0xbe,
  0x7e, 0x7e, 0x22, 0xbe, 0x40, 0xc9, 0xeb, 0xbe, 0x54, 0x6e, 0x99, 0x3e,
  0x9d, 0x8f, 0x1f, 0xbc, 0xf2, 0x8c, 0x13, 0xbd, 0xb7, 0x3f, 0x8d, 0xbd,
  0x41, 0x3e, 0xa7, 0xbd, 0xf3, 0x28, 0xef, 0xbd, 0x83, 0xb5, 0x52, 0x3d,
  0x78, 0xb2, 0x0f, 0xbd, 0x11, 0xf1, 0x9e, 0x3e, 0x15, 0x51, 0xb9, 0xbd,
  0x14, 0x6d, 0x0d, 0x3d, 0xa3, 0x9c, 0xb9, 0x3e, 0xc4, 0x4e, 0xc5, 0xbe,
  0xac, 0xf4, 0x9a, 0xbe, 0x5e, 0x06, 0x6b, 0x3e, 0xbd, 0xca, 0x6d, 0xbe,
  0x3f, 0x6f, 0x0a, 0x3e, 0xb1, 0xc2, 0xfb, 0xbd, 0x33, 0x5b, 0xaf, 0xbc,
  0x29, 0x77, 0x5c, 0x3d, 0xb3, 0x10, 0xa8, 0xbd, 0x7c, 0x77, 0xec, 0x3d,
  0xb8, 0xac, 0x88, 0x3e, 0xe2, 0x5d, 0x10, 0xbd, 0x91, 0x0e, 0x92, 0x3d,
  0xd4, 0xc9, 0x6b, 0x3e, 0xd5, 0xe2, 0xd6, 0x3e, 0xf1, 0x87, 0x27, 0x3f,
  0x21, 0xd1, 0x48, 0xbe, 0x6d, 0x15, 0x5b, 0xbd, 0x95, 0xc0, 0x99, 0xbd,
  0xc6, 0x9a, 0xc7, 0xbd, 0x0b, 0x63, 0x00, 0x3e, 0x31, 0x74, 0x8e, 0x3c,
  0xee, 0xfb, 0x28, 0xbd, 0x15, 0xde, 0xcf, 0x3c, 0xbd, 0xe0, 0x19, 0x3c,
  0x0f, 0xb6, 0xeb, 0x3d, 0xe9, 0x50, 0x90, 0x3e, 0x14, 0xdf, 0x6b, 0x3c,
  0x89, 0xc7, 0x80, 0x3e, 0x2b, 0x21, 0xaf, 0x3d, 0x42, 0xe6, 0xc2, 0x3e,
  0x60, 0xd9, 0xf2, 0x3e, 0xfc, 0x81, 0x48, 0xbe, 0x10, 0x14, 0x93, 0xbb,
  0x40, 0xd3, 0x72, 0xbe, 0x8d, 0x59, 0x75, 0x3d, 0x03, 0x07, 0xa2, 0x3e,
  0xac, 0x2d, 0x04, 0xbe, 0x7f, 0x7d, 0xba, 0xbd, 0xa2, 0x8d, 0x5c, 0xbc,
  0x12, 0x63, 0x5a, 0xbc, 0xc0, 0xa6, 0x82, 0x3e, 0x68, 0x3b, 0x90, 0x3d,
  0x9c, 0x77, 0x93, 0xbc, 0xcc, 0xa9, 0x6d, 0x3e, 0x71, 0x7d, 0xfb, 0x3c,
  0x0d, 0xfd, 0xb5, 0x3e, 0x8e, 0x4f, 0xf0, 0x3d, 0xe8, 0x17, 0xc7, 0xbe,
  0x12, 0x5e, 0x1f, 0xbd, 0x9a, 0xff, 0x72, 0xbe, 0xcd, 0xe1, 0x57, 0xbe,
  0xda, 0xea, 0xe1, 0x3e, 0x7a, 0xa7, 0x8d, 0xbe, 0x1a, 0x95, 0xf8, 0xbd,
  0x8c, 0x20, 0x85, 0x3e, 0x56, 0x7e, 0x76, 0xbd, 0xda, 0x4a, 0xc2, 0x3e,
  0xc1, 0x7f, 0xa0, 0x3d, 0xb9, 0xf6, 0x78, 0xbc, 0xa9, 0x00, 0x0a, 0x3e,
  0xdb, 0xa6, 0xaf, 0xbe, 0xe1, 0x9a, 0xfe, 0x3c, 0x57, 0x64, 0x44, 0x3e,
  0xb8, 0x5f, 0xe9, 0xbe, 0x39, 0xf7, 0x3a, 0xbe, 0xba, 0xbc, 0x78, 0xbe,
  0xeb, 0xf2, 0x3a, 0xbe, 0x40, 0x2e, 0x32, 0x3e, 0xf7, 0x52, 0x88, 0x3b,
  0x0a, 0x84, 0xd4, 0xbe, 0xb4, 0xd5, 0x9e, 0x3e, 0x4a, 0x3f, 0x58, 0x3d,
  0x5f, 0xa7, 0x8e, 0x3d, 0x51, 0x4d, 0x9e, 0x3d, 0x98, 0x20, 0x40, 0xbd,
  0x36, 0x98, 0x9d, 0x3d, 0xd9, 0x0d, 0x00, 0xbe, 0xd9, 0x1e, 0x81, 0x3d,
  0xc9, 0x3f, 0xdd, 0x3d, 0xf2, 0x91, 0x78, 0xbe, 0x42, 0x85, 0xa3, 0xbe,
  0x63, 0xc4, 0x9c, 0xbe, 0x19, 0x5e, 0x16, 0xbe, 0x7c, 0x27, 0xfa, 0x3d,
  0x05, 0x63, 0x8f, 0xbe, 0x03, 0xff, 0x54, 0x3e, 0x93, 0x8a, 0xce, 0xbd,
  0xdb, 0xc5, 0x8e, 0xbd, 0x65, 0x69, 0xa2, 0xbd, 0x6f, 0xe1, 0x0e, 0xbc,
  0x77, 0x69, 0x4a, 0x3d, 0x62, 0xef, 0x02, 0xbe, 0xc2, 0xe0, 0x19, 0xbe,
  0x9a, 0x38, 0x1f, 0x3e, 0xe9, 0x0e, 0x80, 0xbe, 0x6c, 0xd1, 0x16, 0xbe,
  0x0d, 0xb5, 0xcc, 0xbd, 0x0a, 0x27, 0x44, 0x3d, 0xcc, 0x0e, 0x2b, 0x3e,
  0x94, 0xec, 0x1a, 0xbe, 0x53, 0x39, 0x96, 0xbd, 0x69, 0x5a, 0x27, 0xbe,
  0xb7, 0x2c, 0x5c, 0xbe, 0x86, 0x5b, 0xc5, 0xbd, 0x57, 0x59, 0x98, 0x3d,
  0x50, 0x89, 0x46, 0xbd, 0x05, 0xec, 0xd7, 0xbe, 0xa8, 0xa9, 0x1b, 0xbe,
  0x24, 0x0b, 0x1c, 0xbe, 0xba, 0x19, 0x84, 0xbe, 0x67, 0x82, 0x95, 0xbe,
  0x51, 0x23, 0xf8, 0x3d, 0x5e, 0xca, 0xd8, 0xbd, 0xc9, 0xb9, 0xc9, 0x3d,
  0x82, 0xec, 0x11, 0x3d, 0x33, 0x4a, 0x22, 0xbe, 0xbd, 0x57, 0x4b, 0x3d,
  0x75, 0x2b, 0xa2, 0x3e, 0x42, 0x0c, 0x2e, 0x3e, 0x84, 0x14, 0x6e, 0xbe,
  0x21, 0x42, 0x1d, 0xbe, 0x02, 0xe9, 0x45, 0xbe, 0x09, 0x40, 0x5b, 0xbe,
  0x79, 0xcb, 0x0a, 0x3d, 0xab, 0x2c, 0x6d, 0xbd, 0xa5, 0xb4, 0x21, 0xbb,
  0x89, 0xdc, 0x91, 0xbd, 0x9b, 0xc2, 0x63, 0xbe, 0xb0, 0x59, 0x3c, 0xbe,
  0xa3, 0x72, 0xfe, 0xbd, 0xfa, 0x85, 0x30, 0x3e, 0x11, 0x8c, 0x15, 0xbe,
  0x68, 0x87, 0x7d, 0xbe, 0x79, 0xca, 0x3a, 0xbd, 0xae, 0xcd, 0x4a, 0xbe,
  0xf3, 0xe9, 0x6b, 0xbd, 0xc0, 0x25, 0x7b, 0xbe, 0x99, 0x02, 0x83, 0xbe,
  0x49, 0x6e, 0x27, 0xbe, 0x04, 0x6d, 0x3f, 0xbd, 0xcd, 0x07, 0x66, 0x3d,
  0x83, 0x98, 0x5f, 0xbd, 0xc0, 0x2d, 0x9b, 0x3d, 0x9b, 0x58, 0x78, 0xbe,
  0x40, 0xa1, 0x07, 0xbe, 0x1d, 0x35, 0x34, 0xbe, 0xa2, 0x03, 0x14, 0xbe,
  0xbb, 0x61, 0xe5, 0x3d, 0xf5, 0x58, 0x0c, 0x3d, 0x05, 0x71, 0xa6, 0x3e,
  0x62, 0x2f, 0x5a, 0x3d, 0x7f, 0x8d, 0x54, 0xbe, 0xb1, 0x3f, 0x45, 0x3b,
  0x20, 0x79, 0xe4, 0xbd, 0x7c, 0xd3, 0x37, 0xbe, 0x19, 0x6c, 0x7a, 0x3c,
  0x55, 0x95, 0xed, 0xbc, 0x1d, 0x4a, 0xad, 0x3d, 0xbf, 0x38, 0x67, 0xbe,
  0x1e, 0xc8, 0x8c, 0xbd, 0x8f, 0xbc, 0x8d, 0xbd, 0x51, 0x6a, 0xa7, 0x3d,
  0xa0, 0x15, 0x80, 0xbd, 0xd6, 0xd4, 0x72, 0x3c, 0x2b, 0x5d, 0x9f, 0x3d,
  0xf0, 0x42, 0x69, 0x3e, 0x16, 0x74, 0x64, 0xbe, 0x7e, 0xe5, 0xed, 0x3d,
  0xe2, 0x31, 0x8a, 0x3d, 0xfd, 0xae, 0x80, 0xbe, 0x83, 0xd4, 0x0e, 0xbd,
  0x75, 0xb3, 0x7d, 0x3d, 0x2b, 0x24, 0x42, 0x3c, 0x8f, 0xd7, 0x1b, 0x3d,
  0x97, 0x06, 0x4b, 0xbe, 0x58, 0xdd, 0x05, 0xbe, 0x58, 0xba, 0xb0, 0x3c,
  0x91, 0x26, 0xda, 0xbb, 0x1a, 0x3c, 0x2d, 0x3e, 0x76, 0x91, 0x06, 0xbd,
  0x17, 0xea, 0x50, 0xbe, 0x67, 0x20, 0x90, 0x3d, 0xca, 0xee, 0x69, 0xbe,
  0xf0, 0x08, 0xff, 0xbe, 0xa0, 0x25, 0x4b, 0x3e, 0x21, 0xf8, 0x0b, 0xbe,
  0xf0, 0xbc, 0xbb, 0x3d, 0x00, 0xf5, 0x9c, 0xbe, 0xec, 0xf7, 0x00, 0xbe,
  0xc7, 0x63, 0x09, 0xbe, 0xe1, 0x3b, 0x49, 0xbe, 0x77, 0xfd, 0x11, 0xbe,
  0x31, 0x53, 0xd2, 0xbc, 0xa2, 0xa5, 0xcf, 0x3d, 0xd9, 0x8d, 0xa4, 0x3d,
  0x21, 0x89, 0xfe, 0xbd, 0x6f, 0x67, 0x90, 0xbe, 0x6f, 0x83, 0x33, 0xbe,
  0x25, 0xb7, 0x31, 0xbe, 0x77, 0x55, 0x3a, 0xbe, 0xa5, 0xf7, 0xc7, 0xbd,
  0xdb, 0xac, 0xd3, 0xbe, 0x37, 0xf4, 0x8d, 0xbd, 0xda, 0x28, 0x13, 0xbe,
  0xe2, 0x9f, 0x3f, 0xbe, 0x0c, 0x84, 0xd6, 0xbd, 0x07, 0xe1, 0x30, 0xbd,
  0x3b, 0x1a, 0x27, 0x3c, 0x45, 0x5e, 0x58, 0xbe, 0xc5, 0x1b, 0x62, 0xbe,
  0x8c, 0xfa, 0x3e, 0xbd, 0x5c, 0x17, 0x33, 0xbe, 0xd7, 0xd7, 0xef, 0xbd,
  0x16, 0xb5, 0xbe, 0x3d, 0xa3, 0x8d, 0x7a, 0xbe, 0xf0, 0xc3, 0xb3, 0xbe,
  0x00, 0xf4, 0xc8, 0x3b, 0x94, 0xcf, 0x6a, 0xbe, 0x6b, 0x42, 0x6d, 0xbd,
  0xcd, 0x27, 0xa2, 0xbe, 0xbd, 0x90, 0x0c, 0x3d, 0xc1, 0x36, 0x42, 0x3d,
  0x69, 0xbf, 0xa0, 0xbd, 0x11, 0x6a, 0x18, 0xbd, 0x7c, 0x0c, 0xfe, 0x3d,
  0x02, 0xc3, 0xd3, 0xbd, 0x66, 0x1f, 0x0c, 0x3e, 0x1a, 0xc3, 0x7f, 0xbe,
  0x80, 0x95, 0x01, 0xbe, 0x2d, 0xd8, 0x80, 0xbe, 0xd3, 0xcb, 0x6b, 0xbe,
  0x0b, 0x21, 0x5c, 0xbe, 0xc6, 0xe3, 0xb9, 0xbd, 0x0b, 0xbf, 0xc7, 0x3d,
  0xa0, 0x05, 0xd2, 0xbd, 0x80, 0x11, 0x80, 0xbe, 0x42, 0xe3, 0x99, 0xbd,
  0xc6, 0x87, 0x8f, 0xbd, 0xbb, 0xa0, 0x39, 0xbe, 0x28, 0x52, 0xc3, 0x3d,
  0x17, 0xfb, 0xa7, 0x3d, 0xc0, 0x6e, 0x90, 0xbe, 0xb4, 0x31, 0xb8, 0xbe,
  0xa3, 0xc1, 0x01, 0xbc, 0x64, 0xe3, 0xcf, 0xbd, 0x42, 0x29, 0x4a, 0xbe,
  0x09, 0x65, 0x18, 0xbe, 0x0e, 0x56, 0xef, 0xbe, 0xdf, 0x9c, 0x08, 0x3d,
  0x41, 0x47, 0x80, 0xbe, 0x92, 0x7b, 0x09, 0xbe, 0x41, 0xeb, 0x3a, 0xbd,
  0x3b, 0x56, 0x37, 0x3d, 0x41, 0xa9, 0x3d, 0xbe, 0x93, 0x57, 0x16, 0xbe,
  0x44, 0x8d, 0xae, 0x3d, 0x5c, 0x5f, 0xde, 0xbc, 0xf3, 0xca, 0xa4, 0x3d,
  0x18, 0xd1, 0x6a, 0x3d, 0x75, 0xb7, 0x78, 0xbe, 0x85, 0xc5, 0x2f, 0xbe,
  0x09, 0x3f, 0x9a, 0xbc, 0xbd, 0x8f, 0x95, 0xbe, 0xbe, 0xf2, 0xb7, 0xbe,
  0x68, 0x88, 0xe3, 0xbe, 0x22, 0x07, 0xb0, 0xbe, 0x90, 0xa2, 0x9e, 0xbd,
  0x85, 0x8d, 0xb3, 0xbe, 0x5d, 0x5e, 0xa3, 0x3b, 0x90, 0xaf, 0x27, 0xbe,
  0x79, 0x99, 0x6a, 0xbe, 0xfd, 0xe3, 0x80, 0xbd, 0x2e, 0x03, 0xa3, 0xbd,
  0x2c, 0x3d, 0x63, 0xbe, 0x4a, 0xd5, 0x37, 0x3c, 0x91, 0xaf, 0xc1, 0xbd,
  0x70, 0xe2, 0x8b, 0xbe, 0xc2, 0x23, 0x8a, 0xbd, 0xdb, 0xae, 0xad, 0xbe,
  0x57, 0x0c, 0x63, 0xbe, 0xab, 0x59, 0x95, 0xbe, 0x8d, 0x7b, 0x11, 0xbe,
  0x7f, 0xce, 0xc2, 0xbb, 0xd3, 0x56, 0xa8, 0xbe, 0x86, 0x25, 0x00, 0xbf,
  0xcb, 0x1d, 0x56, 0xbe, 0x04, 0x2f, 0x4a, 0x3d, 0x2c, 0x8f, 0x81, 0xbe,
  0x58, 0x55, 0x94, 0xbe, 0x29, 0x2b, 0x9c, 0x3d, 0x48, 0x79, 0x9f, 0xbd,
  0x20, 0xcc, 0x8e, 0xbe, 0x33, 0x5f, 0x1f, 0x3d, 0x67, 0x27, 0x34, 0xbd,
  0x1e, 0x9c, 0x59, 0xbe, 0xa8, 0x9f, 0x71, 0x3e, 0x36, 0x17, 0x44, 0x3e,
  0x31, 0xad, 0x5d, 0x3e, 0x3c, 0x25, 0x2d, 0x3e, 0x0d, 0xb4, 0x7a, 0xbe,
  0x78, 0x77, 0x21, 0xbd, 0xe6, 0x60, 0xb7, 0x3c, 0xbb, 0x98, 0xe4, 0x3e,
  0x88, 0xaf, 0x29, 0xbc, 0x8d, 0xa1, 0x2b, 0xbd, 0xdf, 0x76, 0x7c, 0x3e,
  0xa3, 0xdb, 0x6d, 0x3e, 0x69, 0x75, 0x64, 0xbe, 0x58, 0x86, 0x08, 0x3e,
  0x50, 0x54, 0x53, 0xbd, 0x98, 0x32, 0x18, 0xbf, 0x98, 0x2e, 0x9f, 0xbe,
  0xa5, 0xf0, 0xbe, 0xbe, 0xdd, 0x17, 0x9c, 0x3e, 0x02, 0x12, 0x5d, 0xbd,
  0x16, 0x36, 0x0a, 0xbf, 0x57, 0xea, 0xd5, 0x3e, 0xe3, 0x66, 0xf1, 0x3d,
  0x23, 0x8a, 0xa5, 0xbd, 0x9a, 0x53, 0x3f, 0x3d, 0x2c, 0x7b, 0x55, 0x3e,
  0xb6, 0xdc, 0x27, 0x3d, 0x00, 0xc9, 0xb8, 0x3e, 0x7d, 0x9e, 0x55, 0xbe,
  0x18, 0x6e, 0xce, 0xbd, 0x1d, 0x9e, 0x07, 0x3d, 0xad, 0x6c, 0x6e, 0xbe,
  0x50, 0xcc, 0xa4, 0xbe, 0xe7, 0x9b, 0xac, 0xbd, 0x20, 0x4f, 0x1e, 0xbe,
  0xc0, 0x8a, 0xaa, 0xbc, 0xa4, 0x00, 0x81, 0xbe, 0x08, 0x04, 0x49, 0x3d,
  0x07, 0x9d, 0x3c, 0x3e, 0x71, 0xcc, 0xee, 0xbe, 0x7c, 0x29, 0x87, 0xbe,
  0x3c, 0x27, 0x7c, 0x3e, 0x20, 0x80, 0x25, 0xbf, 0xe1, 0x16, 0xa4, 0xbc,
  0x4b, 0xbf, 0x1a, 0xbd, 0x46, 0xc7, 0xa4, 0xbc, 0x20, 0x18, 0xbf, 0xbc,
  0xac, 0x3b, 0x23, 0xbe, 0xb7, 0x42, 0x05, 0xbe, 0x6a, 0x01, 0x90, 0x3d,
  0xd5, 0x45, 0xa2, 0xbe, 0xd1, 0x1c, 0xd5, 0x3c, 0xa4, 0x64, 0xba, 0xbe,
  0xa4, 0x0a, 0x85, 0xbb, 0xe4, 0x50, 0x05, 0xbe, 0x48, 0x30, 0x13, 0xbf,
  0x24, 0xa1, 0xa6, 0xbe, 0xc6, 0x13, 0xe2, 0xbd, 0x1a, 0x21, 0xe6, 0xbd,
  0xac, 0xd6, 0x79, 0xbe, 0xf6, 0xe7, 0xa7, 0xbe, 0x5e, 0x6d, 0x27, 0xbd,
  0x00, 0x7e, 0x2e, 0xbe, 0x94, 0xb3, 0xe0, 0xbe, 0x42, 0x9f, 0x12, 0xbe,
  0x51, 0xfa, 0x62, 0xbe, 0xe2, 0xcf, 0x86, 0xbe, 0x5d, 0xad, 0xd2, 0xbb,
  0x5a, 0x2f, 0xc1, 0xbe, 0x92, 0x1b, 0x27, 0xbe, 0x98, 0xe9, 0x3d, 0xbf,
  0x9d, 0x83, 0xb1, 0xbb, 0x8b, 0x9f, 0x92, 0xbe, 0x4d, 0xc9, 0xad, 0xbe,
  0x58, 0x87, 0x48, 0xbe, 0x16, 0xca, 0x55, 0xbe, 0x2e, 0x5b, 0xd1, 0xbe,
  0x05, 0x73, 0x7c, 0xbd, 0xcb, 0xc2, 0x0c, 0xbd, 0xa0, 0x4d, 0xbe, 0xbe,
  0x4e, 0xf0, 0xb9, 0xbe, 0x99, 0x71, 0x98, 0xbe, 0x9f, 0xe8, 0xa7, 0xbd,
  0x13, 0x55, 0x2d, 0xbc, 0xa8, 0xa8, 0xa7, 0xbe, 0x99, 0x51, 0xad, 0x3d,
  0x90, 0x59, 0x39, 0xbe, 0xdd, 0x3e, 0x58, 0x3e, 0x6a, 0x76, 0xd6, 0xbd,
  0x1b, 0x43, 0xb2, 0x3c, 0xe1, 0x51, 0x7b, 0x3e, 0x93, 0xed, 0x76, 0x3e,
  0x0f, 0x22, 0xbb, 0xbe, 0x34, 0x46, 0xb8, 0xbd, 0x55, 0x03, 0x6b, 0xbd,
  0xfe, 0x75, 0x00, 0xbf, 0x94, 0x5a, 0x51, 0xbe, 0x2c, 0xb9, 0x68, 0xbe,
  0xca, 0x58, 0x12, 0x3e, 0xdd, 0xbd, 0x2d, 0x3c, 0xd4, 0x40, 0xd9, 0xbe,
  0x14, 0x47, 0xc5, 0x3d, 0x15, 0x98, 0x7e, 0x3e, 0xb6, 0x18, 0x72, 0x3e,
  0xe9, 0x2e, 0x5d, 0x3d, 0xcb, 0x43, 0x78, 0x3e, 0xf8, 0xae, 0x87, 0x3e,
  0xd1, 0xc8, 0xc4, 0x3e, 0x49, 0x98, 0x23, 0xbe, 0x44, 0xa2, 0xa7, 0x3c,
  0xee, 0xf7, 0x2c, 0xbe, 0x80, 0x18, 0x9f, 0xbe, 0xc1, 0x18, 0x93, 0x3d,
  0x3d, 0x37, 0x8c, 0x3d, 0xb7, 0xf9, 0x14, 0x3d, 0x1f, 0x61, 0xd4, 0x3c,
  0xd6, 0xf1, 0x29, 0xbe, 0xcf, 0x8b, 0x2a, 0x3d, 0xb4, 0xf3, 0x11, 0x3c,
  0xda, 0x32, 0xed, 0x3e, 0x36, 0xd5, 0x7e, 0xbc, 0x8f, 0x51, 0x18, 0x3e,
  0x8d, 0x15, 0xe6, 0x3c, 0x77, 0x46, 0x05, 0x3e, 0x10, 0xc2, 0xb3, 0x3d,
  0xa1, 0x38, 0xa9, 0xbe, 0x50, 0x5c, 0x8b, 0xbd, 0x42, 0xd4, 0x8a, 0x3e,
  0x4d, 0x70, 0x16, 0xbe, 0xc8, 0xf6, 0x4f, 0x3e, 0xab, 0xe5, 0xd9, 0x3c,
  0xf1, 0x3a, 0x87, 0x3b, 0xa4, 0x92, 0x27, 0x3e, 0xd1, 0x1b, 0xac, 0xbe,
  0x84, 0x33, 0xae, 0xbd, 0x73, 0xfe, 0xd5, 0xbb, 0x04, 0x1a, 0x90, 0xbe,
  0xcd, 0x68, 0xb1, 0xbe, 0xd9, 0xb6, 0x3a, 0xbe, 0x91, 0x81, 0xc2, 0xbe,
  0x8d, 0xa2, 0x49, 0x3e, 0xa0, 0x81, 0x98, 0xbe, 0x60, 0x01, 0x6c, 0x3c,
  0x62, 0x6e, 0x37, 0xbe, 0x2f, 0x2d, 0xd7, 0xbd, 0xb4, 0xa3, 0x61, 0xbe,
  0x83, 0x2c, 0xfd, 0xbd, 0x50, 0x71, 0x73, 0xbc, 0xea, 0x14, 0x63, 0x3e,
  0x40, 0xc9, 0xbd, 0xbe, 0x93, 0xd5, 0xce, 0x3d, 0x96, 0x9e, 0xee, 0x3e,
  0x84, 0xb7, 0x8b, 0xbe, 0xdb, 0xae, 0xfc, 0xbe, 0x7a, 0xc3, 0xbc, 0x3d,
  0x39, 0xc3, 0xdf, 0x3c, 0x5d, 0x70, 0x34, 0x3e, 0x90, 0xac, 0xa6, 0xbe,
  0x94, 0xc3, 0x18, 0xbe, 0x03, 0xc0, 0x68, 0xbd, 0xfa, 0x95, 0x2f, 0xbd,
  0xdf, 0x67, 0x06, 0xbd, 0x28, 0xf7, 0x3b, 0xbd, 0xe4, 0xc6, 0x88, 0xbb,
  0x4d, 0xf3, 0xd0, 0x3d, 0x0a, 0x1d, 0x58, 0x3d, 0x76, 0xba, 0xd2, 0x3e,
  0x09, 0x4d, 0x20, 0x3f, 0xc8, 0xf5, 0x98, 0xbe, 0x45, 0xe2, 0xd1, 0xbe,
  0xab, 0x3d, 0xcd, 0x3d, 0x9a, 0x2f, 0xe2, 0x3b, 0xef, 0xa7, 0x84, 0x3e,
  0x96, 0x62, 0x84, 0xbd, 0x70, 0xc2, 0x91, 0xbd, 0x7d, 0x5c, 0xa9, 0x3d,
  0xbb, 0xe0, 0x98, 0x3d, 0xe7, 0x5f, 0x3b, 0x3e, 0xcd, 0x2f, 0x1d, 0x3e,
  0x3c, 0x0e, 0x0e, 0xbd, 0x6e, 0x49, 0x29, 0x3e, 0x54, 0x1e, 0xc2, 0xbd,
  0x64, 0x22, 0xed, 0x3e, 0x25, 0x22, 0x8c, 0x3e, 0xd1, 0x41, 0xb1, 0xbe,
  0xe2, 0x56, 0x5e, 0xbe, 0x39, 0xe3, 0xa6, 0xbb, 0xa7, 0x47, 0xe7, 0xbc,
  0xab, 0xb8, 0x65, 0x3e, 0x11, 0x54, 0x5e, 0xbe, 0x18, 0x92, 0xe6, 0xbd,
  0x66, 0x06, 0xba, 0x3c, 0x91, 0x4f, 0x9d, 0x3c, 0x24, 0xb6, 0xb8, 0x3e,
  0x36, 0x78, 0x1b, 0x3e, 0x5e, 0xfa, 0x48, 0xbd, 0xb4, 0x4f, 0x15, 0x3e,
  0x25, 0x98, 0xf1, 0x3c, 0x7a, 0xeb, 0x91, 0x3e, 0xdb, 0x0c, 0xa0, 0x3e,
  0xaa, 0x4f, 0x7c, 0xbe, 0xac, 0xcc, 0x9a, 0xbe, 0x72, 0xf9, 0x72, 0xbd,
  0x63, 0x17, 0x42, 0x3d, 0x46, 0xa5, 0xab, 0x3e, 0x4e, 0x2c, 0x8b, 0xbe,
  0x76, 0x86, 0x9c, 0xbe, 0xbc, 0xf3, 0x99, 0x3e, 0xdb, 0x71, 0x94, 0xbc,
  0x4e, 0x3c, 0x42, 0x3e, 0x8f, 0xa2, 0x8d, 0x3d, 0x17, 0x38, 0x86, 0xbc,
  0x6c, 0xb5, 0x8e, 0x3e, 0xc0, 0xa8, 0xd8, 0xbe, 0x90, 0xe3, 0x85, 0xbe,
  0x18, 0xc2, 0x33, 0x3e, 0x6a, 0xf2, 0x91, 0xbe, 0x5e, 0x9b, 0xaf, 0xbe,
  0x98, 0xad, 0x24, 0xbd, 0xdc, 0xc5, 0x77, 0xbd, 0x67, 0xca, 0x4d, 0x3e,
  0xae, 0x4a, 0x71, 0xbd, 0xb4, 0x36, 0xe2, 0xbe, 0x98, 0x0b, 0x96, 0xbd,
  0x1b, 0x2b, 0x2c, 0xbd, 0x80, 0x18, 0xee, 0xbd, 0x7c, 0x89, 0xc1, 0x3d,
  0xa5, 0xa5, 0xb6, 0xbd, 0x33, 0x0e, 0xbb, 0x3d, 0x97, 0x9b, 0x1c, 0xbe,
  0x45, 0xf7, 0x39, 0xbc, 0xbe, 0x34, 0x06, 0x3e, 0x17, 0x5b, 0x95, 0xbe,
  0xf7, 0xf2, 0x24, 0xbe, 0x37, 0xf7, 0x7a, 0xbe, 0x8e, 0x0b, 0xff, 0xbd,
  0x72, 0xc4, 0x99, 0x3d, 0x5e, 0xeb, 0xd3, 0x3c, 0x58, 0x4c, 0xb1, 0xbd,
  0x1d, 0xc7, 0xde, 0xbc, 0xdd, 0x09, 0x6a, 0xbe, 0xbe, 0x99, 0xe8, 0x3c,
  0x1b, 0x58, 0x92, 0x3d, 0xa4, 0x06, 0x0e, 0xbf, 0xf6, 0x35, 0x6c, 0xbe,
  0xa2, 0x8f, 0x8b, 0x3b, 0xd0, 0xc6, 0xa4, 0xbd, 0x65, 0xdc, 0xaf, 0xbd,
  0xdc, 0xff, 0xba, 0x3d, 0xa7, 0x7b, 0x92, 0x3c, 0xf2, 0xf0, 0xeb, 0xbc,
  0x76, 0x47, 0x1a, 0x3e, 0x33, 0x18, 0x55, 0xbd, 0xb8, 0x21, 0xdb, 0xbc,
  0x60, 0xf2, 0xac, 0x3e, 0xc2, 0xc6, 0x83, 0xbd, 0x0b, 0xe4, 0xb9, 0x3d,
  0x94, 0xdb, 0x49, 0x3d, 0x08, 0x62, 0xb6, 0x3e, 0xe7, 0x8e, 0x9a, 0xbe,
  0x64, 0xcb, 0xbb, 0xbe, 0x5d, 0x5a, 0xd2, 0x3d, 0x86, 0xe3, 0xd8, 0xbd,
  0x96, 0xa3, 0x8f, 0x3d, 0x23, 0x08, 0x80, 0x3e, 0x60, 0xf8, 0x80, 0xbb,
  0xbc, 0xe3, 0xd4, 0x3d, 0xb8, 0x6a, 0x3f, 0x3e, 0x7a, 0x9b, 0xbd, 0xbc,
  0x2a, 0x02, 0x93, 0x3d, 0x07, 0x92, 0x37, 0x3e, 0xfd, 0xbf, 0x30, 0xbd,
  0x39, 0x15, 0xaf, 0x3d, 0x68, 0x14, 0x4a, 0xbe, 0xd2, 0x99, 0x09, 0x3f,
  0x63, 0x09, 0xb5, 0xbe, 0x9e, 0x52, 0x0e, 0xbe, 0xca, 0xc8, 0x90, 0x3d,
  0x0f, 0x04, 0x1a, 0x3e, 0x41, 0xef, 0xca, 0x3d, 0xdc, 0xc7, 0xc3, 0x3e,
  0xce, 0x87, 0xb5, 0xbd, 0xe6, 0xa3, 0xc3, 0x3e, 0x22, 0xaf, 0xa5, 0x3e,
  0xf5, 0xfd, 0x8a, 0xbd, 0x88, 0x26, 0xc9, 0x3c, 0x27, 0xaa, 0x05, 0x3e,
  0xb3, 0x9b, 0xbb, 0xbd, 0x55, 0x5d, 0xec, 0xbd, 0x48, 0x0e, 0x6d, 0xbd,
  0xf0, 0x7b, 0xa3, 0x3d, 0x82, 0x31, 0x11, 0xbf, 0x33, 0x0e, 0x86, 0xba,
  0x08, 0xe2, 0x3f, 0x3e, 0x65, 0x99, 0x42, 0x3e, 0xa5, 0xd4, 0xb1, 0xbd,
  0x0a, 0x67, 0xc9, 0x3e, 0xb7, 0x4b, 0xd7, 0x3c, 0x8e, 0x36, 0x07, 0x3f,
  0x43, 0x49, 0x8f, 0x3e, 0x0f, 0x88, 0x0f, 0xbe, 0x42, 0x06, 0x0d, 0x3e,
  0x30, 0xc3, 0x20, 0xbe, 0xf6, 0x97, 0xee, 0x3c, 0xad, 0x56, 0x11, 0xbd,
  0x57, 0xd7, 0xd3, 0xbc, 0xb9, 0x52, 0x27, 0x3e, 0x5d, 0xf2, 0xa6, 0xbe,
  0x65, 0x8f, 0x90, 0x3b, 0x06, 0x6f, 0xb8, 0x3c, 0xea, 0x9d, 0x1e, 0x3d,
  0x1e, 0xb2, 0x81, 0xbd, 0x06, 0x3d, 0x5e, 0x3e, 0x2c, 0x70, 0x2c, 0xbd,
  0xa5, 0xf5, 0x2e, 0xbd, 0x17, 0x2f, 0xa0, 0xbd, 0x17, 0x69, 0x87, 0xbd,
  0xe0, 0xd3, 0xda, 0xbd, 0x12, 0x54, 0x15, 0x3d, 0xc4, 0x7c, 0x97, 0x3d,
  0x2b, 0xed, 0x85, 0xbd, 0x58, 0x8d, 0x11, 0xbd, 0x2f, 0xf7, 0x07, 0x3e,
  0xc6, 0x20, 0xc5, 0xbe, 0x70, 0x70, 0xdd, 0xbd, 0x79, 0xbe, 0x92, 0xbd,
  0xe9, 0x58, 0xfb, 0xbd, 0x80, 0xe5, 0x09, 0x3e, 0xd4, 0x48, 0x58, 0x3d,
  0x5f, 0x4c, 0x54, 0x3c, 0x41, 0xc6, 0xcb, 0xbc, 0x56, 0x8d, 0x8b, 0x3c,
  0xa3, 0xf1, 0xe4, 0xbd, 0xdf, 0x52, 0x01, 0xbe, 0x9a, 0x5b, 0xc1, 0xbe,
  0xae, 0xbc, 0x88, 0xbb, 0xf7, 0xc3, 0x56, 0xbc, 0x15, 0xdf, 0x97, 0xbe,
  0x13, 0x83, 0xc9, 0xbd, 0x43, 0x0e, 0xd4, 0xbe, 0x89, 0x6a, 0x59, 0xbe,
  0x61, 0x54, 0x04, 0xbd, 0x86, 0x4b, 0x1b, 0xbd, 0x05, 0x58, 0x64, 0xbe,
  0xfc, 0x7a, 0x14, 0xbd, 0xf1, 0x0c, 0x6d, 0xbd, 0x27, 0x00, 0x6a, 0xbe,
  0xfa, 0x06, 0xab, 0x3d, 0x4e, 0x25, 0x76, 0xbe, 0x9b, 0x16, 0x3d, 0x3e,
  0xbd, 0xb8, 0x85, 0xbd, 0x58, 0x64, 0xa1, 0xbe, 0x95, 0x97, 0xbe, 0xbe,
  0xe7, 0x3e, 0x91, 0xbe, 0x77, 0xc3, 0xf9, 0x3b, 0x04, 0x00, 0x01, 0xbe,
  0x1c, 0x1a, 0x8c, 0xbd, 0xe3, 0x9d, 0xca, 0x3e, 0xb4, 0x5b, 0xee, 0x3d,
  0x4d, 0x9d, 0x2f, 0x3a, 0x0e, 0xf2, 0x99, 0xbc, 0x76, 0xa8, 0x2f, 0x3e,
  0xb0, 0xb4, 0x6c, 0x3e, 0x17, 0x3e, 0x87, 0x3e, 0x66, 0x74, 0x4a, 0xbd,
  0x15, 0xf1, 0xb6, 0xbd, 0x6c, 0xde, 0x5f, 0xbd, 0xc8, 0x00, 0x53, 0xbd,
  0x33, 0x16, 0x30, 0xbe, 0x52, 0x97, 0xba, 0xbd, 0xb8, 0xbd, 0xf3, 0xbd,
  0x11, 0x08, 0x72, 0xbe, 0x1c, 0x30, 0x44, 0xbd, 0x4f, 0x74, 0x18, 0x3e,
  0x38, 0x0a, 0xc0, 0x3d, 0xa0, 0x90, 0xb8, 0x3d, 0x20, 0x93, 0x8b, 0x3d,
  0x8b, 0x28, 0x73, 0x3e, 0xc4, 0x6a, 0xe8, 0xbd, 0xaf, 0x10, 0x11, 0xbe,
  0x7c, 0x16, 0xe7, 0x3d, 0x31, 0x6c, 0x26, 0xbe, 0xb3, 0x8e, 0x2c, 0x3c,
  0xd8, 0x5a, 0x7f, 0xbd, 0x25, 0xe8, 0x20, 0xbd, 0xa1, 0x82, 0x0b, 0xbe,
  0x5f, 0x77, 0x6a, 0xbe, 0x08, 0xf7, 0x05, 0xbd, 0x21, 0xe9, 0xaf, 0xbd,
  0x95, 0x27, 0x82, 0xbe, 0x42, 0xd3, 0xa9, 0x3c, 0x38, 0x66, 0x60, 0xbe,
  0xbb, 0xdd, 0x26, 0xbe, 0x27, 0xed, 0x04, 0xbe, 0x4c, 0xfa, 0x5a, 0xbe,
  0xa1, 0x5a, 0x8f, 0xbe, 0x29, 0xf3, 0x7e, 0xbe, 0x62, 0xee, 0xa2, 0xbe,
  0xd4, 0xfe, 0xb7, 0x3c, 0xb3, 0x77, 0x0a, 0xbe, 0x15, 0xa4, 0x7d, 0xbe,
  0xa4, 0x01, 0x43, 0xbe, 0x33, 0xc5, 0xbc, 0xbe, 0xd0, 0xae, 0xdd, 0xbd,
  0xd4, 0x7e, 0x2a, 0xbe, 0x8e, 0x7f, 0xf1, 0xbd, 0x86, 0xae, 0xc6, 0xbe,
  0x9c, 0x84, 0x81, 0xbe, 0x6f, 0xb4, 0x4e, 0xbe, 0x09, 0xdc, 0x7d, 0xbe,
  0x87, 0x07, 0x47, 0xbd, 0x1d, 0xd9, 0xb7, 0xbb, 0x39, 0xb2, 0xca, 0xbe,
  0xff, 0x64, 0x31, 0xbe, 0x85, 0xd6, 0xc7, 0xbd, 0x37, 0x5c, 0xc1, 0xbd,
  0x04, 0xf6, 0x47, 0xbe, 0xb6, 0xa9, 0x7d, 0xbe, 0x86, 0x59, 0x4f, 0xbe,
  0xcd, 0x72, 0xdd, 0x3d, 0x5b, 0x26, 0x82, 0xbe, 0x89, 0x2c, 0xba, 0xbb,
  0x19, 0xed, 0x6f, 0xbe, 0x26, 0xa7, 0x63, 0x3e, 0x83, 0x13, 0x2b, 0xbe,
  0xe4, 0x69, 0x3f, 0xbe, 0x24, 0x26, 0xb0, 0x3e, 0xe1, 0x3e, 0x6f, 0x3e,
  0x4f, 0xc1, 0x3e, 0xbe, 0x24, 0x33, 0xb1, 0x3d, 0x96, 0x50, 0x67, 0x3c,
  0xdb, 0x59, 0x5a, 0xbe, 0xdb, 0x9f, 0x6d, 0xbe, 0x2f, 0x0a, 0xaa, 0xbd,
  0x3e, 0x36, 0x3d, 0x3e, 0x45, 0x8b, 0x7a, 0xbd, 0x93, 0x9d, 0x3a, 0xbe,
  0xf6, 0x28, 0x8e, 0x3e, 0x85, 0x4d, 0x87, 0x3e, 0x96, 0xbc, 0x8c, 0x3c,
  0x75, 0xfd, 0x08, 0x3c, 0x31, 0xb4, 0x89, 0x3d, 0xe1, 0xb2, 0x9a, 0x3e,
  0x17, 0x34, 0xb1, 0x3d, 0xfd, 0x92, 0xdd, 0xbb, 0xdb, 0x14, 0xe8, 0xbd,
  0xe7, 0xc4, 0x76, 0xbd, 0xd8, 0xd9, 0x95, 0xbd, 0xeb, 0x19, 0x35, 0xbe,
  0x73, 0x84, 0xef, 0xbd, 0xab, 0xd5, 0xc9, 0xbd, 0xcc, 0x1f, 0x79, 0x3d,
  0x5d, 0x97, 0xb8, 0xbc, 0x44, 0x6d, 0x6b, 0x3c, 0x24, 0xe9, 0x22, 0xbc,
  0xc2, 0xfb, 0xcd, 0xbd, 0x63, 0x3b, 0x07, 0x3e, 0x9a, 0x83, 0xaa, 0x3e,
  0x3f, 0xe5, 0x3d, 0xbe, 0x88, 0xa0, 0x31, 0x3e, 0x32, 0x85, 0xae, 0xbc,
  0x2e, 0x6c, 0xbd, 0x3d, 0x39, 0x79, 0xb3, 0x3e, 0xb3, 0x2d, 0x14, 0xbe,
  0x42, 0x49, 0x57, 0xbe, 0x9e, 0x74, 0x93, 0xbd, 0x2d, 0xa7, 0xa8, 0xbb,
  0xfe, 0x27, 0x5b, 0xbe, 0x57, 0xc3, 0x6d, 0x3d, 0xb2, 0x0a, 0xdf, 0xbd,
  0x07, 0xf0, 0xc1, 0xbd, 0x70, 0x21, 0xeb, 0xbc, 0xa8, 0x66, 0xc8, 0x3d,
  0xa6, 0xe0, 0xbe, 0x3c, 0xf6, 0xb9, 0x2c, 0xbd, 0x05, 0xdf, 0x31, 0x3e,
  0x82, 0x89, 0x16, 0xbe, 0x6d, 0x96, 0x82, 0x3d, 0xb3, 0x72, 0x18, 0x3e,
  0x4e, 0x94, 0x63, 0xbe, 0x68, 0x2b, 0xee, 0x3d, 0x3d, 0x1f, 0x68, 0xbd,
  0xee, 0x28, 0xb2, 0xbd, 0x62, 0x77, 0xb5, 0xbe, 0x65, 0x58, 0xbc, 0xbe,
  0x6a, 0x11, 0x31, 0x3e, 0xe4, 0x6c, 0x12, 0x3c, 0x35, 0x84, 0x1f, 0xbd,
  0xf0, 0x72, 0x3c, 0x3e, 0xb4, 0x87, 0x32, 0xbd, 0x90, 0x16, 0xe0, 0x3e,
  0x65, 0x48, 0x36, 0x3e, 0x49, 0x61, 0x85, 0xbd, 0x9c, 0x72, 0x42, 0x3d,
  0xaf, 0x97, 0x99, 0xbd, 0x36, 0x48, 0x9a, 0x3d, 0xd9, 0x29, 0x46, 0x3e,
  0xe6, 0x0f, 0x1c, 0x3d, 0xd3, 0xcc, 0x59, 0x3c, 0x45, 0x4b, 0xa6, 0xbe,
  0x25, 0x65, 0x6a, 0x3c, 0x13, 0x8e, 0x3e, 0x3e, 0x97, 0x56, 0x92, 0x3e,
  0xa8, 0x1b, 0x05, 0x3e, 0x25, 0xab, 0x10, 0x3e, 0x25, 0x70, 0x0f, 0xbe,
  0x0f, 0x39, 0xaf, 0x3e, 0xaf, 0x6e, 0xb9, 0x3d, 0x46, 0x49, 0x29, 0xbd,
  0xc8, 0x9d, 0x24, 0xbe, 0xe3, 0x05, 0xe1, 0xbd, 0x38, 0xc0, 0x0f, 0xbe,
  0x62, 0x2c, 0x9a, 0xbe, 0x8d, 0x82, 0xc6, 0x3d, 0x28, 0x3b, 0x4e, 0x3d,
  0x92, 0x91, 0x20, 0xbe, 0x9d, 0x46, 0xcd, 0xbd, 0x42, 0xbc, 0x67, 0x3e,
  0x60, 0x99, 0xed, 0x3d, 0x24, 0xb6, 0x2a, 0xbe, 0xe5, 0xb9, 0x89, 0x3e,
  0x2b, 0x0d, 0x47, 0x3e, 0xa7, 0x05, 0xd0, 0x3e, 0x65, 0xa8, 0xee, 0x3d,
  0xec, 0x4b, 0x02, 0x3e, 0xaf, 0x0e, 0x8b, 0x3d, 0xf7, 0xdf, 0x31, 0xbd,
  0x3b, 0x60, 0xbf, 0xbd, 0x34, 0xf6, 0xb0, 0xbc, 0xb3, 0x73, 0x6f, 0xbd,
  0x06, 0x59, 0x14, 0xbe, 0x3c, 0xb5, 0xc8, 0xbe, 0x6e, 0x0d, 0x90, 0xbd,
  0xb7, 0xff, 0xb9, 0x3d, 0xfa, 0x8f, 0x0c, 0x3e, 0x28, 0xeb, 0x6f, 0xbe,
  0xa2, 0xdd, 0xbd, 0x3e, 0x87, 0xb6, 0x01, 0xbe, 0xf5, 0xca, 0xca, 0x3d,
  0x7d, 0x86, 0x16, 0x3e, 0xc8, 0x72, 0xa4, 0xbd, 0x93, 0xb3, 0x75, 0x3d,
  0x3b, 0xbc, 0x01, 0x3e, 0x66, 0x1b, 0x62, 0xbe, 0x86, 0xef, 0xd2, 0xbd,
  0x24, 0xfa, 0x88, 0x3e, 0xee, 0x77, 0x8f, 0x39, 0xba, 0xb5, 0x50, 0xbe,
  0x5f, 0x71, 0xe5, 0x3c, 0xa4, 0x8f, 0x3f, 0xbe, 0x1b, 0x1f, 0x6b, 0x3d,
  0x16, 0x27, 0x34, 0x3e, 0x3d, 0xd6, 0x45, 0x3e, 0xa8, 0xeb, 0x49, 0xbe,
  0x45, 0xf9, 0xe3, 0xbd, 0xcb, 0x19, 0x09, 0x3e, 0xb7, 0x3e, 0xc9, 0xbd,
  0x24, 0x51, 0x41, 0xbd, 0x27, 0x95, 0xd6, 0xbc, 0x6b, 0x22, 0xd5, 0xbd,
  0x30, 0xfd, 0x77, 0xbe, 0x5b, 0x6c, 0xa8, 0xbe, 0x87, 0x44, 0x28, 0xbe,
  0xa7, 0x61, 0xaa, 0xbe, 0xd3, 0x5b, 0x1f, 0xbe, 0x57, 0xda, 0x4c, 0xbe,
  0x65, 0xff, 0x05, 0xbe, 0x7c, 0x7c, 0x21, 0xbe, 0x21, 0xec, 0x22, 0x3e,
  0x4b, 0x7f, 0x18, 0x3e, 0x09, 0xbd, 0x3b, 0x3d, 0x99, 0x50, 0xac, 0xbc,
  0xd9, 0x36, 0xf2, 0xbd, 0x10, 0x7b, 0xcf, 0xbb, 0x61, 0x4b, 0x39, 0xbd,
  0x89, 0xea, 0x75, 0xbd, 0xb2, 0x67, 0x10, 0xbe, 0xf2, 0x61, 0x7b, 0xbd,
  0x9b, 0x86, 0x6d, 0xbe, 0x89, 0xa0, 0x83, 0xbe, 0x67, 0xbc, 0xc7, 0xbc,
  0x1e, 0xdf, 0x99, 0xbd, 0x1e, 0xe5, 0x9d, 0xbd, 0x63, 0x91, 0xe6, 0xbd,
  0x37, 0xab, 0xed, 0xbb, 0x28, 0x12, 0x00, 0x3e, 0x0e, 0xd9, 0xc6, 0xbd,
  0x52, 0x28, 0x3f, 0x3d, 0x93, 0xcb, 0x7d, 0x3d, 0xca, 0xa7, 0x42, 0x3e,
  0xdc, 0x22, 0x70, 0x3e, 0xd1, 0xb8, 0x91, 0x3d, 0x8a, 0x35, 0xe5, 0x3c,
  0x45, 0xea, 0x9a, 0x3a, 0xfd, 0xee, 0xa3, 0xbc, 0xf1, 0xf2, 0x56, 0xbe,
  0x16, 0x98, 0xb4, 0xbc, 0xdb, 0x9a, 0xa8, 0x3d, 0x76, 0x9c, 0xce, 0x3d,
  0xd1, 0x57, 0xbb, 0xbd, 0x92, 0x83, 0x28, 0x3e, 0x25, 0x8b, 0x78, 0xbd,
  0x02, 0x13, 0x94, 0xbd, 0x28, 0x0d, 0xa4, 0xbd, 0x9d, 0x73, 0x86, 0x3d,
  0x7a, 0xaa, 0x6f, 0x3e, 0xf8, 0xf5, 0x24, 0x3e, 0xc4, 0x19, 0xe0, 0x3d,
  0xba, 0x5d, 0xf7, 0xbc, 0x31, 0x19, 0xff, 0x3d, 0x6b, 0xef, 0x43, 0xbe,
  0xe8, 0xbb, 0xc3, 0xbd, 0xda, 0xe5, 0x80, 0xbe, 0x2b, 0x81, 0x16, 0x3e,
  0xba, 0x58, 0x72, 0xbe, 0x4b, 0x96, 0x44, 0x3e, 0xbb, 0xdf, 0xe8, 0x3d,
  0x75, 0x90, 0x86, 0x3d, 0x42, 0x5c, 0xb2, 0x3e, 0x9b, 0xb4, 0x1c, 0x3e,
  0xc2, 0x37, 0x15, 0x3d, 0x86, 0x7d, 0x3b, 0xbe, 0x79, 0x8c, 0xa6, 0x3e,
  0x8e, 0x01, 0x51, 0x3c, 0xb1, 0xe0, 0x89, 0xbe, 0xbf, 0xad, 0x01, 0xbe,
  0x79, 0x6b, 0x16, 0xbe, 0x55, 0x53, 0x7e, 0xbe, 0x74, 0x38, 0x15, 0x3e,
  0x3f, 0xfd, 0x09, 0x3d, 0x50, 0xec, 0xce, 0x3d, 0xa3, 0xc9, 0xc6, 0x3c,
  0x67, 0x70, 0x9f, 0xbd, 0x6b, 0x2b, 0x6c, 0xbc, 0xb5, 0x79, 0x46, 0x3e,
  0x66, 0xf7, 0x53, 0x3e, 0xf9, 0x44, 0xdb, 0x3c, 0x47, 0x79, 0x2f, 0x3e,
  0x28, 0x60, 0xf3, 0x3e, 0x6e, 0xba, 0xd2, 0xbd, 0x6b, 0x16, 0xad, 0x3c,
  0x83, 0xf4, 0x6d, 0xbd, 0x69, 0xdf, 0x0c, 0xbe, 0x6a, 0x49, 0x91, 0xbe,
  0x89, 0x54, 0x9a, 0x3c, 0x56, 0x61, 0x1e, 0xbe, 0xef, 0x7c, 0x9d, 0xbc,
  0xe3, 0xf9, 0xbc, 0xbd, 0xfb, 0xfc, 0x8f, 0x3e, 0x29, 0x18, 0x2f, 0x3d,
  0xec, 0xb5, 0x20, 0xbe, 0xd3, 0x63, 0x37, 0x3e, 0xf9, 0x21, 0x9a, 0x3d,
  0xc6, 0xb3, 0x41, 0xbe, 0xf5, 0x66, 0xa5, 0x3e, 0xee, 0xdc, 0x67, 0xbb,
  0xd1, 0x95, 0x2c, 0x3b, 0xe7, 0x58, 0x45, 0xbd, 0x44, 0xb9, 0x73, 0xbe,
  0x09, 0x42, 0x58, 0xbe, 0x47, 0xf8, 0x43, 0xbe, 0xa3, 0x20, 0xf0, 0x3d,
  0x3d, 0x2a, 0x0b, 0x3d, 0x95, 0xf7, 0xee, 0xbd, 0xda, 0x09, 0x88, 0xbd,
  0x18, 0xb8, 0xf5, 0xbd, 0x27, 0xee, 0xa4, 0x3d, 0xe0, 0xdc, 0xc0, 0xbc,
  0xc4, 0x79, 0xbd, 0xbd, 0x87, 0xd6, 0x5f, 0xbe, 0x4e, 0x98, 0x06, 0xbd,
  0x64, 0x6b, 0xd7, 0x3d, 0x3f, 0x31, 0x83, 0xbe, 0x43, 0x60, 0x7d, 0xbd,
  0xbc, 0x39, 0x82, 0xbe, 0x75, 0xdf, 0xa1, 0xbe, 0x5d, 0x9f, 0x95, 0xbe,
  0x2e, 0x03, 0x4c, 0x3c, 0x0b, 0xe1, 0xa9, 0xbe, 0xc8, 0x07, 0x83, 0xbe,
  0x4a, 0x0f, 0x89, 0x3e, 0xb3, 0x0d, 0x62, 0xbd, 0x47, 0x99, 0xde, 0xbd,
  0xdd, 0xcb, 0xf7, 0xbc, 0x6b, 0x92, 0x8a, 0xbe, 0x3d, 0x75, 0xb8, 0xbe,
  0xee, 0x63, 0xb8, 0xbd, 0x50, 0x72, 0x6c, 0x3e, 0x98, 0xb5, 0x3a, 0xbe,
  0xf2, 0x64, 0x8a, 0x3d, 0xb8, 0xcc, 0x67, 0xbe, 0x0a, 0xe4, 0xaa, 0xbd,
  0x1b, 0xc4, 0x0a, 0x3e, 0xbd, 0x88, 0xe4, 0xbd, 0x58, 0x47, 0x92, 0xbc,
  0x80, 0x98, 0x08, 0x3c, 0xd1, 0x7d, 0x45, 0xbe, 0x85, 0xdc, 0x8a, 0xbd,
  0xf3, 0xf4, 0x04, 0xbe, 0xfe, 0x99, 0x2b, 0xbe, 0xac, 0x9e, 0x47, 0x3e,
  0xdf, 0x08, 0x29, 0xbe, 0x9b, 0xfa, 0x15, 0xbe, 0xa1, 0x76, 0xa2, 0xbe,
  0xa2, 0x5c, 0xa9, 0xbd, 0x15, 0xd3, 0x09, 0xbe, 0x53, 0x7e, 0x1f, 0x3b,
  0xce, 0xeb, 0x8f, 0x3d, 0xcb, 0xcd, 0x37, 0x3e, 0xc1, 0x76, 0x15, 0xbe,
  0x78, 0x10, 0x72, 0xbe, 0x88, 0x32, 0xc0, 0x3e, 0xbe, 0x9e, 0x4e, 0xbe,
  0xf4, 0xb3, 0x73, 0xbe, 0x53, 0xa1, 0x5e, 0xbd, 0xc3, 0x0a, 0x8b, 0xbe,
  0xf4, 0xba, 0x26, 0x3e, 0x90, 0x21, 0x8f, 0xbe, 0xe5, 0xb0, 0xf7, 0xbc,
  0x4d, 0xae, 0x28, 0xbe, 0xcd, 0x2c, 0x12, 0xbe, 0xe6, 0x06, 0xc2, 0xbd,
  0x5d, 0x99, 0x10, 0x3e, 0x01, 0x81, 0xaa, 0xbc, 0x02, 0xf0, 0xa6, 0xbd,
  0x92, 0x8a, 0x2a, 0xbd, 0x05, 0x53, 0x66, 0x3e, 0x12, 0x69, 0x13, 0x3f,
  0xb9, 0xb5, 0x70, 0xbe, 0x58, 0xd0, 0x41, 0x3d, 0xcf, 0xd4, 0x9f, 0xbd,
  0xd3, 0x7e, 0x12, 0x3e, 0x9b, 0xcb, 0xdf, 0xbd, 0xe1, 0x41, 0x12, 0xbe,
  0x03, 0xde, 0xca, 0xbd, 0x1a, 0xed, 0x5d, 0x3e, 0x39, 0x83, 0x0a, 0x3e,
  0x69, 0x98, 0x29, 0x3e, 0xcb, 0x4e, 0xbb, 0x3d, 0xdc, 0x67, 0x2d, 0xbe,
  0x69, 0x37, 0x74, 0x3e, 0xb1, 0x17, 0x44, 0xbc, 0xd9, 0x57, 0xb8, 0x3e,
  0xfd, 0x13, 0x0d, 0x3f, 0xaa, 0xa4, 0x9f, 0xbd, 0x14, 0xf8, 0x32, 0xbe,
  0x34, 0xed, 0x8d, 0xbe, 0xd9, 0x51, 0x8d, 0xbe, 0x44, 0xbb, 0xac, 0x3c,
  0x42, 0xaa, 0x2b, 0xbe, 0xb0, 0xf8, 0x07, 0xbe, 0x4e, 0xa1, 0x5b, 0x3d,
  0x66, 0xcc, 0xa4, 0x3d, 0xb6, 0xc1, 0xfa, 0x3d, 0xad, 0xed, 0xe6, 0x3d,
  0x8b, 0xe1, 0xba, 0xbd, 0x00, 0x43, 0xfe, 0x3d, 0x65, 0x04, 0x89, 0xbc,
  0x62, 0xe2, 0x88, 0x3e, 0x76, 0xba, 0x84, 0x3e, 0xad, 0xc1, 0x53, 0xbc,
  0x4d, 0x34, 0x57, 0xbe, 0xa9, 0x20, 0x52, 0xbc, 0xfc, 0xa7, 0x75, 0xbe,
  0xda, 0x26, 0xcb, 0x3e, 0xda, 0x12, 0x37, 0xbe, 0x10, 0x80, 0x6c, 0xbd,
  0x42, 0xd2, 0xcd, 0x3c, 0x5b, 0x75, 0xa6, 0xbd, 0xb7, 0x99, 0x5e, 0xbe,
  0x76, 0xbb, 0x10, 0xbe, 0xfe, 0x5c, 0x60, 0xbd, 0xd5, 0xeb, 0x8e, 0x3e,
  0xcf, 0x4a, 0x81, 0xbe, 0xc6, 0x95, 0x0c, 0xbe, 0xc0, 0x2d, 0xdf, 0x3e,
  0x3c, 0x12, 0xe8, 0xbe, 0xf7, 0x56, 0x8b, 0xbd, 0x5f, 0x4f, 0xc5, 0x3c,
  0xbe, 0xfd, 0x7d, 0xbd, 0x44, 0x40, 0x44, 0x3e, 0xd8, 0x5c, 0xdd, 0xbe,
  0x3f, 0xf2, 0xb7, 0x3c, 0xa5, 0x8b, 0x13, 0xbd, 0xde, 0x06, 0xc5, 0xbd,
  0x63, 0x8a, 0x81, 0xbc, 0x03, 0xe5, 0x2e, 0xbe, 0xb0, 0xcf, 0x2a, 0xbe,
  0x67, 0x49, 0x51, 0xbc, 0x88, 0x34, 0xa9, 0xbe, 0xd6, 0x35, 0x35, 0xbe,
  0x5d, 0xa7, 0x7b, 0x3e, 0x8d, 0xf3, 0xdb, 0xbe, 0x88, 0x38, 0xe5, 0xbe,
  0x1a, 0x8b, 0x30, 0x3d, 0x6f, 0x93, 0x9f, 0xbd, 0xba, 0xb1, 0x23, 0xbe,
  0x43, 0x2e, 0x80, 0xbd, 0xe0, 0xad, 0x96, 0x3e, 0x21, 0x89, 0xd6, 0xbd,
  0x8a, 0xbc, 0x7b, 0x3e, 0x35, 0x67, 0x5c, 0x3d, 0xac, 0x30, 0x9e, 0xbe,
  0x00, 0xdc, 0xac, 0x3d, 0x5d, 0x14, 0x9b, 0xbe, 0xdc, 0x35, 0xc1, 0xbe,
  0xad, 0x89, 0xcb, 0xbe, 0xc7, 0x48, 0x03, 0xbd, 0x35, 0x45, 0x41, 0x3e,
  0x1d, 0x51, 0x30, 0xbc, 0x27, 0xcb, 0x28, 0xbb, 0xe9, 0x86, 0xa2, 0xbd,
  0xba, 0x39, 0xb2, 0xbe, 0x8d, 0x72, 0x96, 0x3b, 0x96, 0x73, 0x48, 0x3e,
  0x75, 0xe9, 0xc5, 0x3e, 0x91, 0xf2, 0x5d, 0x3c, 0x0a, 0x7e, 0xd6, 0x3d,
  0x91, 0xf2, 0x4d, 0xbe, 0xbc, 0x40, 0xca, 0x3c, 0xf2, 0x38, 0x77, 0xbd,
  0xd5, 0x40, 0x9a, 0x3c, 0xd3, 0xf5, 0x67, 0xbe, 0xdc, 0x45, 0x71, 0xbf,
  0xf4, 0xf0, 0x4f, 0x3e, 0x6b, 0x8b, 0xe8, 0xbd, 0x25, 0x16, 0x36, 0xbd,
  0x44, 0xf8, 0x90, 0x3e, 0xb7, 0x58, 0x65, 0xbe, 0x38, 0x8a, 0xa4, 0xbc,
  0x0c, 0xfa, 0x7e, 0x3d, 0x7b, 0xfb, 0xb1, 0x3c, 0xa9, 0x18, 0x2c, 0xbc,
  0x8f, 0x32, 0xee, 0x3d, 0x9a, 0x75, 0x68, 0xbe, 0x2e, 0x13, 0x87, 0x3d,
  0x26, 0xc7, 0xcd, 0xba, 0x83, 0x21, 0xad, 0x3e, 0xc6, 0x5a, 0x8b, 0xbe,
  0xb8, 0xbe, 0x6b, 0xbf, 0x71, 0x28, 0x1a, 0x3f, 0x0a, 0x07, 0x66, 0xbd,
  0x4d, 0xc9, 0x0b, 0x3c, 0xb5, 0xe0, 0x2b, 0x3f, 0xc5, 0x41, 0xc3, 0xbd,
  0xa6, 0xad, 0xa3, 0xbb, 0xcf, 0x82, 0x10, 0x3d, 0x83, 0xf7, 0x95, 0x3b,
  0x83, 0x18, 0xee, 0x3d, 0xfd, 0xd2, 0x06, 0x3e, 0x8e, 0x75, 0x3d, 0xbe,
  0x47, 0x9f, 0x8a, 0x3d, 0x9a, 0xa7, 0x02, 0x3d, 0xee, 0x5f, 0x9c, 0x3e,
  0x6e, 0xc2, 0x0e, 0xbe, 0x3d, 0x98, 0x48, 0xbf, 0x3d, 0xcd, 0x43, 0x3c,
  0x27, 0x0c, 0xa3, 0x3d, 0xdf, 0x66, 0x4b, 0x3d, 0x71, 0x5b, 0xce, 0x3e,
  0x69, 0xf2, 0xcf, 0xbd, 0x37, 0x4e, 0x22, 0x3e, 0xd5, 0x99, 0x3c, 0x3e,
  0xf5, 0x91, 0x03, 0x3e, 0xd6, 0x75, 0x18, 0x3d, 0x67, 0x0a, 0x20, 0x3e,
  0xd7, 0x92, 0x72, 0xbe, 0x79, 0x84, 0x16, 0x3d, 0x38, 0x07, 0xf6, 0x3d,
  0x5f, 0x70, 0x5f, 0x3e, 0xf8, 0x39, 0x1a, 0xbe, 0x4e, 0x47, 0x89, 0xbf,
  0xa9, 0xba, 0x28, 0xbe, 0x46, 0xbf, 0x84, 0xbd, 0x10, 0x81, 0xea, 0xbd,
  0x76, 0x38, 0xd3, 0x3e, 0x90, 0x79, 0xcd, 0xbd, 0x07, 0xe6, 0x40, 0xbe,
  0x90, 0xa7, 0xa0, 0x3e, 0xb9, 0xcc, 0x2f, 0x3d, 0x38, 0x4c, 0x51, 0x3d,
  0xa7, 0xe0, 0x9f, 0xbe, 0x4e, 0x34, 0x03, 0xbf, 0x4c, 0xff, 0x94, 0xb9,
  0xaa, 0xe4, 0x21, 0x3e, 0xff, 0x1f, 0x7f, 0x3c, 0xbe, 0x85, 0x86, 0xbe,
  0xcf, 0x26, 0x72, 0xbf, 0x13, 0x8f, 0x05, 0xbe, 0x6b, 0xf0, 0x34, 0xbd,
  0xd6, 0x31, 0xc0, 0xbe, 0x75, 0xdf, 0xfa, 0x3d, 0x49, 0x4c, 0xf7, 0xbd,
  0x6a, 0x11, 0x59, 0xbe, 0x53, 0xa4, 0xe3, 0x3e, 0xdb, 0x23, 0x85, 0xbe,
  0xb0, 0x41, 0xc6, 0xbc, 0x35, 0x46, 0x81, 0x3d, 0x3f, 0x21, 0x08, 0xbe,
  0xc9, 0xf8, 0xdc, 0xbc, 0x2d, 0x28, 0x04, 0x3d, 0x94, 0x00, 0xa0, 0xbd,
  0x9f, 0xad, 0x04, 0xbf, 0x09, 0xa8, 0xb8, 0xbc, 0x14, 0xd4, 0x82, 0xbd,
  0xa0, 0x5e, 0xad, 0x3e, 0xa0, 0x1a, 0x01, 0x3f, 0x67, 0x68, 0xb3, 0x3d,
  0xd5, 0xe6, 0x8e, 0xbd, 0x0e, 0x39, 0xb6, 0x3d, 0xbb, 0xb9, 0x30, 0xbe,
  0x71, 0xae, 0xc6, 0xbe, 0x44, 0x4f, 0xda, 0xbd, 0x89, 0xd5, 0x2a, 0xbe,
  0x25, 0x33, 0xe0, 0x3d, 0xcf, 0x42, 0x7f, 0xbd, 0xd7, 0xbd, 0xa8, 0xbd,
  0x3d, 0x47, 0xff, 0xbc, 0x41, 0x01, 0x9a, 0x3e, 0x23, 0x0c, 0x8c, 0x3c,
  0x27, 0xb8, 0x7c, 0x3b, 0xef, 0x4a, 0x76, 0x3e, 0xab, 0x8e, 0x8e, 0x3e,
  0x1e, 0x8d, 0xa6, 0x3e, 0x60, 0x2b, 0x7b, 0xbd, 0xdb, 0xd1, 0x48, 0xbe,
  0xcf, 0x15, 0xa3, 0xbd, 0xba, 0x48, 0x6f, 0xbe, 0x91, 0xb5, 0xc2, 0xbd,
  0xd4, 0xfe, 0xe7, 0xbd, 0xce, 0x14, 0xbb, 0xbc, 0x29, 0xc5, 0xb7, 0xbd,
  0xb7, 0xc3, 0x48, 0xbe, 0x28, 0x16, 0x34, 0x3e, 0x47, 0xf2, 0x2c, 0x3e,
  0xce, 0x26, 0xbb, 0x3e, 0xb9, 0xcf, 0xc0, 0x3d, 0xe8, 0x3a, 0x88, 0x3e,
  0xf7, 0xa6, 0xba, 0x3d, 0x61, 0x89, 0x3f, 0xbd, 0x3f, 0x0e, 0x08, 0x3e,
  0xf2, 0x63, 0x3a, 0xbe, 0x23, 0x0d, 0x78, 0x3d, 0x79, 0xa0, 0x5f, 0x3c,
  0x55, 0x06, 0x86, 0xbd, 0xdb, 0xab, 0x2e, 0xbe, 0xf7, 0x00, 0xae, 0xbe,
  0xc9, 0x7d, 0x3c, 0x3c, 0x85, 0x0c, 0x83, 0xbe, 0xc8, 0x88, 0x55, 0xbe,
  0xdd, 0x58, 0x72, 0x3a, 0x03, 0xfe, 0xd3, 0x3c, 0x55, 0xf0, 0x2d, 0xbe,
  0x6b, 0x7d, 0xbf, 0x3d, 0xc9, 0x25, 0x9a, 0xbe, 0x38, 0xa4, 0x49, 0xbe,
  0x6d, 0x05, 0xe1, 0x3d, 0x01, 0x6d, 0xac, 0xbe, 0x9c, 0xae, 0xdc, 0xbc,
  0x91, 0x92, 0x08, 0x3c, 0x86, 0x8d, 0x7c, 0x3d, 0x58, 0x6c, 0xbc, 0xbd,
  0x2f, 0x71, 0x96, 0xbe, 0x11, 0x17, 0x0b, 0xbd, 0xce, 0xb6, 0x20, 0xbe,
  0xd7, 0x2a, 0x78, 0xbe, 0x1e, 0x52, 0x00, 0xbf, 0xe2, 0xb0, 0x8a, 0x3e,
  0xf0, 0xf8, 0x4e, 0xbd, 0x2d, 0xb5, 0x54, 0xbd, 0x79, 0x5d, 0x85, 0xbe,
  0x22, 0xfc, 0x72, 0xbc, 0x60, 0x63, 0x18, 0xbe, 0xab, 0x0f, 0xba, 0xbe,
  0x46, 0xa7, 0x91, 0xbd, 0x14, 0xb9, 0xca, 0x3d, 0x4d, 0x2d, 0x76, 0xbd,
  0x2a, 0x0e, 0xec, 0xbd, 0xe1, 0xb0, 0x80, 0xbe, 0xb5, 0x61, 0xc8, 0xbc,
  0x08, 0xd8, 0x0a, 0xbe, 0xe6, 0x89, 0x48, 0xbd, 0xee, 0xd1, 0xd7, 0xbe,
  0x27, 0xed, 0x0c, 0x3f, 0x87, 0xc7, 0x06, 0xbe, 0x04, 0x70, 0x09, 0x3c,
  0x96, 0x97, 0xc1, 0xbd, 0x3e, 0xe7, 0x00, 0xbe, 0x65, 0x30, 0x30, 0xbd,
  0x1d, 0x9e, 0xd0, 0xbd, 0xcf, 0xa6, 0xc5, 0xbd, 0xbf, 0x85, 0xcb, 0xbd,
  0x69, 0x63, 0x86, 0xbe, 0x59, 0xd7, 0xca, 0xbd, 0x9c, 0xe4, 0xf1, 0xbd,
  0xd2, 0xbe, 0x9d, 0xbb, 0x2b, 0x2f, 0x88, 0xbd, 0x64, 0x34, 0x60, 0xbe,
  0xa8, 0x2c, 0x5a, 0xbe, 0xd0, 0xf8, 0x9c, 0x3e, 0x1d, 0xd0, 0x8d, 0xbd,
  0x13, 0xe5, 0xdf, 0xbd, 0xfa, 0x73, 0xd8, 0xbd, 0xed, 0xb2, 0x87, 0xbe,
  0x2a, 0x6b, 0x19, 0xbe, 0x56, 0x01, 0x49, 0xbe, 0x92, 0x36, 0x9f, 0xbe,
  0xf6, 0x4b, 0x60, 0xbc, 0xc6, 0x05, 0x36, 0xbe, 0x27, 0x51, 0x9a, 0xbd,
  0xdb, 0x1e, 0xa7, 0x3d, 0xa5, 0x4b, 0xf8, 0xbd, 0x0a, 0xd6, 0x52, 0xbd,
  0x4b, 0x00, 0x1c, 0xbe, 0xd3, 0xbb, 0x1f, 0xbe, 0x9a, 0x77, 0xc0, 0x3e,
  0x1c, 0x93, 0xa8, 0xbe, 0xf0, 0xeb, 0xa5, 0xbd, 0xb3, 0x7d, 0x77, 0x3d,
  0x50, 0x8e, 0x0f, 0xbc, 0xe9, 0x41, 0x70, 0x3d, 0xbc, 0xdc, 0x42, 0x3c,
  0x6e, 0xe1, 0xa7, 0x3e, 0x22, 0x02, 0x56, 0xbe, 0xed, 0x7c, 0xc2, 0x3e,
  0xf5, 0xa2, 0x29, 0xbe, 0x56, 0x78, 0x93, 0xbe, 0x20, 0x1a, 0x45, 0xbd,
  0x8d, 0xb3, 0x93, 0xbe, 0x46, 0x00, 0x89, 0xbe, 0x26, 0x9f, 0x0b, 0xbe,
  0x74, 0xa6, 0x12, 0x3e, 0x47, 0x82, 0x2a, 0x3e, 0x3d, 0xe1, 0x0d, 0x3e,
  0x79, 0x33, 0xea, 0xbd, 0x80, 0x0a, 0x15, 0xbe, 0x36, 0x7b, 0x2b, 0xbe,
  0x05, 0x2b, 0x48, 0x3e, 0xf5, 0xfd, 0x03, 0x3f, 0xb2, 0x91, 0x59, 0x3c,
  0xfb, 0x16, 0x94, 0x3e, 0x8a, 0xa6, 0x0e, 0xbc, 0x22, 0x62, 0x07, 0x3e,
  0x91, 0x3d, 0x62, 0xbe, 0x7f, 0x77, 0x04, 0xbe, 0x46, 0xa5, 0x25, 0xbd,
  0x30, 0x3e, 0x10, 0xbd, 0x45, 0x22, 0x1e, 0xbe, 0xf9, 0x8e, 0x11, 0x3e,
  0x35, 0xdc, 0x1f, 0x3e, 0x40, 0x54, 0xde, 0x3e, 0x7f, 0x92, 0x71, 0x3e,
  0x6a, 0x7a, 0xb9, 0xbe, 0x45, 0x56, 0x78, 0x3d, 0x59, 0xf0, 0xb6, 0x3e,
  0x60, 0x2c, 0x5e, 0x3d, 0x3a, 0x9c, 0xa9, 0x3e, 0xad, 0xab, 0xf1, 0xbd,
  0x24, 0x9e, 0x22, 0x3e, 0x7d, 0xe2, 0xcf, 0xbd, 0x83, 0xae, 0x1c, 0xbd,
  0x4d, 0x17, 0x7d, 0x3e, 0x58, 0x64, 0x51, 0xbc, 0x05, 0x7f, 0x9e, 0x3d,
  0x30, 0x91, 0x0a, 0x3e, 0x69, 0x1f, 0x29, 0x3e, 0xfb, 0xff, 0x9a, 0x3e,
  0x3b, 0xe9, 0xda, 0x3d, 0x7a, 0x45, 0xdb, 0x3d, 0x95, 0x97, 0xc7, 0xbc,
  0xd2, 0x29, 0xc1, 0x3e, 0x5d, 0xd0, 0xd7, 0xbc, 0x3d, 0x9d, 0x16, 0x3e,
  0xda, 0x3b, 0xf0, 0xbc, 0xf0, 0xb8, 0x2b, 0x3e, 0xeb, 0x9d, 0xb9, 0xbd,
  0xac, 0x1d, 0x46, 0x3d, 0x82, 0x5b, 0x57, 0x3e, 0x2f, 0x96, 0x56, 0x3e,
  0x9a, 0xaf, 0xaa, 0x3d, 0xa8, 0xe0, 0x43, 0x3e, 0x50, 0xa1, 0xfc, 0x3d,
  0xa7, 0x67, 0x89, 0xbd, 0xa5, 0xae, 0x09, 0x3e, 0xbd, 0xf2, 0x4e, 0xbe,
  0xd6, 0xf2, 0x06, 0x3d, 0xbc, 0x38, 0x3a, 0x3f, 0xeb, 0x07, 0x71, 0x3d,
  0x4d, 0xf0, 0xea, 0x3d, 0x93, 0x0f, 0xf9, 0xbd, 0xc2, 0x76, 0x4d, 0x3d,
  0xdb, 0xbf, 0x5b, 0xbe, 0x7b, 0x4f, 0x33, 0xbe, 0x07, 0xcc, 0xcd, 0x3c,
  0xb7, 0x4e, 0x45, 0x3e, 0xb1, 0x66, 0xa0, 0xbd, 0xee, 0x2c, 0x8e, 0x3e,
  0x57, 0x36, 0xaa, 0x3e, 0xbf, 0x86, 0xd4, 0x3d, 0xba, 0x6c, 0x01, 0x3e,
  0x06, 0x99, 0x71, 0xbe, 0x16, 0x35, 0x88, 0x3d, 0x58, 0x25, 0x55, 0x3e,
  0xf2, 0x0f, 0xf0, 0x3d, 0x3f, 0xc9, 0x41, 0x3e, 0x11, 0xf5, 0x68, 0xbe,
  0x1b, 0x15, 0x88, 0x3c, 0x28, 0x2a, 0x20, 0xbe, 0x08, 0xf3, 0x36, 0xbe,
  0x84, 0x25, 0x0c, 0xbe, 0xc5, 0x0b, 0xc0, 0xbe, 0x28, 0x10, 0xa9, 0xbe,
  0xa8, 0x77, 0x4e, 0x3d, 0xe9, 0x6a, 0x39, 0x3d, 0xe2, 0xf9, 0x7f, 0x3d,
  0xa6, 0x42, 0xb6, 0x3b, 0xff, 0x6c, 0x43, 0xbe, 0xb8, 0x3f, 0x0b, 0xbd,
  0x5a, 0xee, 0x1e, 0x3f, 0x1e, 0x81, 0xf5, 0x3d, 0xcb, 0x28, 0x23, 0xbe,
  0x7e, 0xee, 0x93, 0xbd, 0x42, 0x7f, 0x04, 0xbe, 0x48, 0x6a, 0x85, 0xbd,
  0x8d, 0xff, 0xa6, 0xbe, 0x4f, 0x27, 0x89, 0xbd, 0x4c, 0x5e, 0xa8, 0xbd,
  0xcd, 0xa6, 0xa4, 0xbe, 0xc5, 0x0e, 0x6a, 0x3d, 0x41, 0x70, 0xae, 0x3d,
  0x85, 0x37, 0xc4, 0x3c, 0xc7, 0x0c, 0x5f, 0xbe, 0xc2, 0x9a, 0x21, 0xbe,
  0x66, 0xfd, 0xff, 0xff, 0x10, 0x00, 0x00, 0x00, 0x07, 0x00, 0x00, 0x00,
  0x14, 0x00, 0x00, 0x00, 0x2c, 0x00, 0x00, 0x00, 0x02, 0x00, 0x00, 0x00,
  0x10, 0x00, 0x00, 0x00, 0x70, 0x00, 0x00, 0x00, 0x17, 0x00, 0x00, 0x00,
  0x73, 0x65, 0x71, 0x75, 0x65, 0x6e, 0x74, 0x69, 0x61, 0x6c, 0x2f, 0x64,
  0x65, 0x6e, 0x73, 0x65, 0x2f, 0x4d, 0x61, 0x74, 0x4d, 0x75, 0x6c, 0x00,
  0xd0, 0xfc, 0xff, 0xff, 0xda, 0xfd, 0xff, 0xff, 0x04, 0x00, 0x00, 0x00,
  0x08, 0x00, 0x00, 0x00, 0xff, 0xff, 0xff, 0xff, 0x70, 0x00, 0x00, 0x00,
  0x00, 0x00, 0x0e, 0x00, 0x18, 0x00, 0x08, 0x00, 0x07, 0x00, 0x0c, 0x00,
  0x10, 0x00, 0x14, 0x00, 0x0e, 0x00, 0x00, 0x00, 0x00, 0x00, 0x00, 0x02,
  0x10, 0x00, 0x00, 0x00, 0x06, 0x00, 0x00, 0x00, 0x10, 0x00, 0x00, 0x00,
  0x2c, 0x00, 0x00, 0x00, 0x01, 0x00, 0x00, 0x00, 0x02, 0x00, 0x00, 0x00,
  0x18, 0x00, 0x00, 0x00, 0x73, 0x65, 0x71, 0x75, 0x65, 0x6e, 0x74, 0x69,
  0x61, 0x6c, 0x2f, 0x66, 0x6c, 0x61, 0x74, 0x74, 0x65, 0x6e, 0x2f, 0x43,
  0x6f, 0x6e, 0x73, 0x74, 0x00, 0x00, 0x00, 0x00, 0x38, 0xfd, 0xff, 0xff,
  0x42, 0xfe, 0xff, 0xff, 0x04, 0x00, 0x00, 0x00, 0x0c, 0x00, 0x00, 0x00,
  0x0c, 0x41, 0x06, 0xc0, 0xbd, 0xcf, 0x30, 0xc0, 0x1f, 0xb7, 0x5d, 0x40,
  0x26, 0xfe, 0xff, 0xff, 0x10, 0x00, 0x00, 0x00, 0x05, 0x00, 0x00, 0x00,
  0x10, 0x00, 0x00, 0x00, 0x44, 0x00, 0x00, 0x00, 0x01, 0x00, 0x00, 0x00,
  0x03, 0x00, 0x00, 0x00, 0x32, 0x00, 0x00, 0x00, 0x73, 0x65, 0x71, 0x75,
  0x65, 0x6e, 0x74, 0x69, 0x61, 0x6c, 0x2f, 0x64, 0x65, 0x6e, 0x73, 0x65,
  0x5f, 0x31, 0x2f, 0x42, 0x69, 0x61, 0x73, 0x41, 0x64, 0x64, 0x2f, 0x52,
  0x65, 0x61, 0x64, 0x56, 0x61, 0x72, 0x69, 0x61, 0x62, 0x6c, 0x65, 0x4f,
  0x70, 0x2f, 0x72, 0x65, 0x73, 0x6f, 0x75, 0x72, 0x63, 0x65, 0x00, 0x00,
  0xa8, 0xfd, 0xff, 0xff, 0xb2, 0xfe, 0xff, 0xff, 0x04, 0x00, 0x00, 0x00,
  0x40, 0x00, 0x00, 0x00, 0xca, 0x07, 0x80, 0xbe, 0xd0, 0xc8, 0xc5, 0xbe,
  0x9e, 0x4a, 0x93, 0xbe, 0xa2, 0x84, 0xae, 0x3f, 0x82, 0x59, 0x84, 0xbe,
  0x32, 0xbc, 0xe2, 0xbe, 0x20, 0x9c, 0x18, 0xbf, 0x90, 0x56, 0x13, 0x40,
  0x0c, 0x46, 0xe6, 0xbe, 0x6e, 0xd6, 0x50, 0xbf, 0x07, 0xd5, 0xe7, 0xbe,
  0x11, 0xa3, 0xa5, 0xbe, 0xf3, 0x6e, 0xc2, 0x3f, 0x63, 0x8a, 0x32, 0x40,
  0x81, 0x36, 0xa9, 0x3e, 0x8b, 0xe7, 0xc6, 0x3e, 0xca, 0xfe, 0xff, 0xff,
  0x10, 0x00, 0x00, 0x00, 0x04, 0x00, 0x00, 0x00, 0x10, 0x00, 0x00, 0x00,
  0x44, 0x00, 0x00, 0x00, 0x01, 0x00, 0x00, 0x00, 0x10, 0x00, 0x00, 0x00,
  0x30, 0x00, 0x00, 0x00, 0x73, 0x65, 0x71, 0x75, 0x65, 0x6e, 0x74, 0x69,
  0x61, 0x6c, 0x2f, 0x64, 0x65, 0x6e, 0x73, 0x65, 0x2f, 0x42, 0x69, 0x61,
  0x73, 0x41, 0x64, 0x64, 0x2f, 0x52, 0x65, 0x61, 0x64, 0x56, 0x61, 0x72,
  0x69, 0x61, 0x62, 0x6c, 0x65, 0x4f, 0x70, 0x2f, 0x72, 0x65, 0x73, 0x6f,
  0x75, 0x72, 0x63, 0x65, 0x00, 0x00, 0x00, 0x00, 0x4c, 0xfe, 0xff, 0xff,
  0x56, 0xff, 0xff, 0xff, 0x04, 0x00, 0x00, 0x00, 0x40, 0x00, 0x00, 0x00,
  0x97, 0x24, 0xb9, 0xbc, 0xd2, 0xcf, 0xb9, 0xbc, 0x58, 0xc0, 0xce, 0xbf,
  0x21, 0xbb, 0x3e, 0xbc, 0x40, 0x30, 0x19, 0xbf, 0x83, 0x60, 0xda, 0xbf,
  0xbb, 0xa1, 0x3d, 0xbc, 0x32, 0xe9, 0xa3, 0xbf, 0x57, 0xe3, 0x17, 0xbf,
  0xed, 0xd7, 0xd8, 0xbf, 0xfa, 0xa8, 0xc0, 0x40, 0x46, 0x0d, 0x59, 0xbc,
  0x3d, 0x7f, 0x02, 0xbd, 0xb0, 0x3d, 0x3a, 0xbf, 0xae, 0xf4, 0xb9, 0xbe,
  0x44, 0x80, 0xb0, 0xbf, 0x6e, 0xff, 0xff, 0xff, 0x10, 0x00, 0x00, 0x00,
  0x03, 0x00, 0x00, 0x00, 0x10, 0x00, 0x00, 0x00, 0x48, 0x00, 0x00, 0x00,
  0x01, 0x00, 0x00, 0x00, 0x10, 0x00, 0x00, 0x00, 0x33, 0x00, 0x00, 0x00,
  0x73, 0x65, 0x71, 0x75, 0x65, 0x6e, 0x74, 0x69, 0x61, 0x6c, 0x2f, 0x63,
  0x6f, 0x6e, 0x76, 0x32, 0x64, 0x5f, 0x31, 0x2f, 0x42, 0x69, 0x61, 0x73,
  0x41, 0x64, 0x64, 0x2f, 0x52, 0x65, 0x61, 0x64, 0x56, 0x61, 0x72, 0x69,
  0x61, 0x62, 0x6c, 0x65, 0x4f, 0x70, 0x2f, 0x72, 0x65, 0x73, 0x6f, 0x75,
  0x72, 0x63, 0x65, 0x00, 0x04, 0x00, 0x06, 0x00, 0x04, 0x00, 0x00, 0x00,
  0x00, 0x00, 0x06, 0x00, 0x08, 0x00, 0x04, 0x00, 0x06, 0x00, 0x00, 0x00,
  0x04, 0x00, 0x00, 0x00, 0x20, 0x00, 0x00, 0x00, 0xdc, 0xf8, 0xcf, 0xbf,
  0x43, 0x6c, 0x77, 0xbf, 0xf3, 0xaf, 0x82, 0xbf, 0xd8, 0x05, 0xde, 0xbf,
  0x81, 0xcc, 0x4c, 0xbf, 0x62, 0x7c, 0xdb, 0xbe, 0x7d, 0xa6, 0xc6, 0xbf,
  0xb2, 0x60, 0x27, 0xbd, 0x00, 0x00, 0x0e, 0x00, 0x14, 0x00, 0x04, 0x00,
  0x00, 0x00, 0x08, 0x00, 0x0c, 0x00, 0x10, 0x00, 0x0e, 0x00, 0x00, 0x00,
  0x10, 0x00, 0x00, 0x00, 0x02, 0x00, 0x00, 0x00, 0x10, 0x00, 0x00, 0x00,
  0x44, 0x00, 0x00, 0x00, 0x01, 0x00, 0x00, 0x00, 0x08, 0x00, 0x00, 0x00,
  0x31, 0x00, 0x00, 0x00, 0x73, 0x65, 0x71, 0x75, 0x65, 0x6e, 0x74, 0x69,
  0x61, 0x6c, 0x2f, 0x63, 0x6f, 0x6e, 0x76, 0x32, 0x64, 0x2f, 0x42, 0x69,
  0x61, 0x73, 0x41, 0x64, 0x64, 0x2f, 0x52, 0x65, 0x61, 0x64, 0x56, 0x61,
  0x72, 0x69, 0x61, 0x62, 0x6c, 0x65, 0x4f, 0x70, 0x2f, 0x72, 0x65, 0x73,
  0x6f, 0x75, 0x72, 0x63, 0x65, 0x00, 0x00, 0x00, 0x90, 0xff, 0xff, 0xff,
  0x14, 0x00, 0x18, 0x00, 0x04, 0x00, 0x00, 0x00, 0x08, 0x00, 0x0c, 0x00,
  0x10, 0x00, 0x00, 0x00, 0x00, 0x00, 0x14, 0x00, 0x14, 0x00, 0x00, 0x00,
  0x14, 0x00, 0x00, 0x00, 0x01, 0x00, 0x00, 0x00, 0x20, 0x00, 0x00, 0x00,
  0x44, 0x00, 0x00, 0x00, 0x2c, 0x00, 0x00, 0x00, 0x04, 0x00, 0x00, 0x00,
  0x01, 0x00, 0x00, 0x00, 0x40, 0x00, 0x00, 0x00, 0x03, 0x00, 0x00, 0x00,
  0x01, 0x00, 0x00, 0x00, 0x0c, 0x00, 0x00, 0x00, 0x63, 0x6f, 0x6e, 0x76,
  0x32, 0x64, 0x5f, 0x69, 0x6e, 0x70, 0x75, 0x74, 0x00, 0x00, 0x00, 0x00,
  0x04, 0x00, 0x00, 0x00, 0xff, 0xff, 0xff, 0xff, 0x40, 0x00, 0x00, 0x00,
  0x03, 0x00, 0x00, 0x00, 0x01, 0x00, 0x00, 0x00, 0xfc, 0xff, 0xff, 0xff,
  0x04, 0x00, 0x04, 0x00, 0x04, 0x00, 0x00, 0x00

};


unsigned int model_tflite_len = 13052;// Fill the int in `src/model.cc` here
