#include "magic_wand_model_data.h"


// We need to keep the data array aligned on some architectures.

#ifdef __has_attribute

#define HAVE_ATTRIBUTE(x) __has_attribute(x)

#else

#define HAVE_ATTRIBUTE(x) 0

#endif

#if HAVE_ATTRIBUTE(aligned) || (defined(__GNUC__) && !defined(__clang__))

#define DATA_ALIGN_ATTRIBUTE __attribute__((aligned(4)))

#else

#define DATA_ALIGN_ATTRIBUTE

#endif


const unsigned char g_magic_wand_model_data[] DATA_ALIGN_ATTRIBUTE = {
  // Paste the data of the char array in `src/model.cc` here
    0x1c, 0x00, 0x00, 0x00, 0x54, 0x46, 0x4c, 0x33, 0x14, 0x00, 0x20, 0x00,
  0x04, 0x00, 0x08, 0x00, 0x0c, 0x00, 0x10, 0x00, 0x14, 0x00, 0x00, 0x00,
  0x18, 0x00, 0x1c, 0x00, 0x14, 0x00, 0x00, 0x00, 0x03, 0x00, 0x00, 0x00,
  0x18, 0x00, 0x00, 0x00, 0x2c, 0x00, 0x00, 0x00, 0xd8, 0x00, 0x00, 0x00,
  0x2c, 0x00, 0x00, 0x00, 0x80, 0x00, 0x00, 0x00, 0x78, 0x00, 0x00, 0x00,
  0x05, 0x00, 0x00, 0x00, 0x28, 0x07, 0x00, 0x00, 0x44, 0x06, 0x00, 0x00,
  0xbc, 0x03, 0x00, 0x00, 0xf8, 0x02, 0x00, 0x00, 0xac, 0x01, 0x00, 0x00,
  0x01, 0x00, 0x00, 0x00, 0xd0, 0x00, 0x00, 0x00, 0x14, 0x00, 0x00, 0x00,
  0x98, 0x32, 0x00, 0x00, 0x94, 0x32, 0x00, 0x00, 0x8c, 0x31, 0x00, 0x00,
  0xd8, 0x30, 0x00, 0x00, 0x30, 0x30, 0x00, 0x00, 0xbc, 0x2f, 0x00, 0x00,
  0x50, 0x2f, 0x00, 0x00, 0x00, 0x13, 0x00, 0x00, 0xec, 0x11, 0x00, 0x00,
  0x10, 0x10, 0x00, 0x00, 0xb4, 0x07, 0x00, 0x00, 0x6c, 0x32, 0x00, 0x00,
  0x68, 0x32, 0x00, 0x00, 0x64, 0x32, 0x00, 0x00, 0x60, 0x32, 0x00, 0x00,
  0x5c, 0x32, 0x00, 0x00, 0x58, 0x32, 0x00, 0x00, 0x54, 0x32, 0x00, 0x00,
  0x50, 0x32, 0x00, 0x00, 0x3c, 0x00, 0x00, 0x00, 0x00, 0x00, 0x00, 0x00,
  0x01, 0x00, 0x00, 0x00, 0x0c, 0x00, 0x00, 0x00, 0x08, 0x00, 0x0c, 0x00,
  0x04, 0x00, 0x08, 0x00, 0x08, 0x00, 0x00, 0x00, 0x08, 0x00, 0x00, 0x00,
  0x13, 0x00, 0x00, 0x00, 0x13, 0x00, 0x00, 0x00, 0x6d, 0x69, 0x6e, 0x5f,
  0x72, 0x75, 0x6e, 0x74, 0x69, 0x6d, 0x65, 0x5f, 0x76, 0x65, 0x72, 0x73,
  0x69, 0x6f, 0x6e, 0x00, 0xfa, 0xce, 0xff, 0xff, 0x04, 0x00, 0x00, 0x00,
  0x10, 0x00, 0x00, 0x00, 0x31, 0x2e, 0x35, 0x2e, 0x30, 0x00, 0x00, 0x00,
  0x00, 0x00, 0x00, 0x00, 0x00, 0x00, 0x00, 0x00, 0x0f, 0x00, 0x00, 0x00,
  0x4d, 0x4c, 0x49, 0x52, 0x20, 0x43, 0x6f, 0x6e, 0x76, 0x65, 0x72, 0x74,
  0x65, 0x64, 0x2e, 0x00, 0x00, 0x00, 0x0e, 0x00, 0x18, 0x00, 0x04, 0x00,
  0x08, 0x00, 0x0c, 0x00, 0x10, 0x00, 0x14, 0x00, 0x0e, 0x00, 0x00, 0x00,
  0x14, 0x00, 0x00, 0x00, 0x5c, 0x00, 0x00, 0x00, 0x60, 0x00, 0x00, 0x00,
  0x64, 0x00, 0x00, 0x00, 0x84, 0x00, 0x00, 0x00, 0x12, 0x00, 0x00, 0x00,
  0x58, 0x31, 0x00, 0x00, 0xe8, 0x30, 0x00, 0x00, 0x44, 0x30, 0x00, 0x00,
  0x9c, 0x2f, 0x00, 0x00, 0xf4, 0x2e, 0x00, 0x00, 0x94, 0x2e, 0x00, 0x00,
  0x2c, 0x2e, 0x00, 0x00, 0xd8, 0x11, 0x00, 0x00, 0xbc, 0x10, 0x00, 0x00,
  0xe0, 0x0e, 0x00, 0x00, 0x0c, 0x06, 0x00, 0x00, 0x28, 0x05, 0x00, 0x00,
  0xe8, 0x03, 0x00, 0x00, 0x3c, 0x03, 0x00, 0x00, 0x98, 0x02, 0x00, 0x00,
  0xd4, 0x01, 0x00, 0x00, 0x10, 0x01, 0x00, 0x00, 0x84, 0x00, 0x00, 0x00,
  0x01, 0x00, 0x00, 0x00, 0x00, 0x00, 0x00, 0x00, 0x01, 0x00, 0x00, 0x00,
  0x11, 0x00, 0x00, 0x00, 0x08, 0x00, 0x00, 0x00, 0x74, 0x05, 0x00, 0x00,
  0x94, 0x04, 0x00, 0x00, 0x78, 0x03, 0x00, 0x00, 0xbc, 0x02, 0x00, 0x00,
  0x30, 0x02, 0x00, 0x00, 0x50, 0x01, 0x00, 0x00, 0xa8, 0x00, 0x00, 0x00,
  0x10, 0x00, 0x00, 0x00, 0x04, 0x00, 0x00, 0x00, 0x6d, 0x61, 0x69, 0x6e,
  0x00, 0x00, 0x00, 0x00, 0x7a, 0xff, 0xff, 0xff, 0x00, 0x00, 0x00, 0x09,
  0x04, 0x00, 0x00, 0x00, 0x1c, 0x00, 0x00, 0x00, 0x10, 0x00, 0x00, 0x00,
  0x04, 0x00, 0x00, 0x00, 0xf6, 0xcf, 0xff, 0xff, 0x00, 0x00, 0x80, 0x3f,
  0x01, 0x00, 0x00, 0x00, 0x11, 0x00, 0x00, 0x00, 0x01, 0x00, 0x00, 0x00,
  0x10, 0x00, 0x00, 0x00, 0xa0, 0xfa, 0xff, 0xff, 0x19, 0x00, 0x00, 0x00,
  0x00, 0x00, 0x00, 0x19, 0x01, 0x00, 0x00, 0x00, 0x84, 0xcf, 0xff, 0xff,
  0x14, 0x00, 0x00, 0x00, 0x12, 0x00, 0x00, 0x00, 0x18, 0x00, 0x00, 0x00,
  0x30, 0x00, 0x00, 0x00, 0x20, 0x00, 0x00, 0x00, 0x02, 0x00, 0x00, 0x00,
  0x01, 0x00, 0x00, 0x00, 0x03, 0x00, 0x00, 0x00, 0x08, 0x00, 0x00, 0x00,
  0x49, 0x64, 0x65, 0x6e, 0x74, 0x69, 0x74, 0x79, 0x00, 0x00, 0x00, 0x00,
  0x02, 0x00, 0x00, 0x00, 0xff, 0xff, 0xff, 0xff, 0x03, 0x00, 0x00, 0x00,
  0x68, 0xd0, 0xff, 0xff, 0x00, 0x00, 0x0e, 0x00, 0x18, 0x00, 0x08, 0x00,
  0x0c, 0x00, 0x10, 0x00, 0x07, 0x00, 0x14, 0x00, 0x0e, 0x00, 0x00, 0x00,
  0x00, 0x00, 0x00, 0x08, 0x03, 0x00, 0x00, 0x00, 0x18, 0x00, 0x00, 0x00,
  0x0c, 0x00, 0x00, 0x00, 0x04, 0x00, 0x00, 0x00, 0x84, 0xcf, 0xff, 0xff,
  0x01, 0x00, 0x00, 0x00, 0x10, 0x00, 0x00, 0x00, 0x03, 0x00, 0x00, 0x00,
  0x0f, 0x00, 0x00, 0x00, 0x07, 0x00, 0x00, 0x00, 0x04, 0x00, 0x00, 0x00,
  0x0c, 0xd0, 0xff, 0xff, 0x14, 0x00, 0x00, 0x00, 0x11, 0x00, 0x00, 0x00,
  0x18, 0x00, 0x00, 0x00, 0x5c, 0x00, 0x00, 0x00, 0x4c, 0x00, 0x00, 0x00,
  0x02, 0x00, 0x00, 0x00, 0x01, 0x00, 0x00, 0x00, 0x03, 0x00, 0x00, 0x00,
  0x34, 0x00, 0x00, 0x00, 0x73, 0x65, 0x71, 0x75, 0x65, 0x6e, 0x74, 0x69,
  0x61, 0x6c, 0x2f, 0x64, 0x65, 0x6e, 0x73, 0x65, 0x5f, 0x31, 0x2f, 0x4d,
  0x61, 0x74, 0x4d, 0x75, 0x6c, 0x3b, 0x73, 0x65, 0x71, 0x75, 0x65, 0x6e,
  0x74, 0x69, 0x61, 0x6c, 0x2f, 0x64, 0x65, 0x6e, 0x73, 0x65, 0x5f, 0x31,
  0x2f, 0x42, 0x69, 0x61, 0x73, 0x41, 0x64, 0x64, 0x00, 0x00, 0x00, 0x00,
  0x02, 0x00, 0x00, 0x00, 0xff, 0xff, 0xff, 0xff, 0x03, 0x00, 0x00, 0x00,
  0x0c, 0xd0, 0xff, 0xff, 0xda, 0xfc, 0xff, 0xff, 0x00, 0x00, 0x00, 0x08,
  0x03, 0x00, 0x00, 0x00, 0x24, 0x00, 0x00, 0x00, 0x18, 0x00, 0x00, 0x00,
  0x0c, 0x00, 0x00, 0x00, 0x00, 0x00, 0x06, 0x00, 0x08, 0x00, 0x07, 0x00,
  0x06, 0x00, 0x00, 0x00, 0x00, 0x00, 0x00, 0x01, 0x01, 0x00, 0x00, 0x00,
  0x0f, 0x00, 0x00, 0x00, 0x03, 0x00, 0x00, 0x00, 0x0e, 0x00, 0x00, 0x00,
  0x06, 0x00, 0x00, 0x00, 0x03, 0x00, 0x00, 0x00, 0xe8, 0xfb, 0xff, 0xff,
  0x09, 0x00, 0x00, 0x00, 0x00, 0x00, 0x00, 0x09, 0x01, 0x00, 0x00, 0x00,
  0xcc, 0xd0, 0xff, 0xff, 0x14, 0x00, 0x00, 0x00, 0x10, 0x00, 0x00, 0x00,
  0x18, 0x00, 0x00, 0x00, 0x6c, 0x00, 0x00, 0x00, 0x5c, 0x00, 0x00, 0x00,
  0x02, 0x00, 0x00, 0x00, 0x01, 0x00, 0x00, 0x00, 0x10, 0x00, 0x00, 0x00,
  0x46, 0x00, 0x00, 0x00, 0x73, 0x65, 0x71, 0x75, 0x65, 0x6e, 0x74, 0x69,
  0x61, 0x6c, 0x2f, 0x64, 0x65, 0x6e, 0x73, 0x65, 0x2f, 0x4d, 0x61, 0x74,
  0x4d, 0x75, 0x6c, 0x3b, 0x73, 0x65, 0x71, 0x75, 0x65, 0x6e, 0x74, 0x69,
  0x61, 0x6c, 0x2f, 0x64, 0x65, 0x6e, 0x73, 0x65, 0x2f, 0x52, 0x65, 0x6c,
  0x75, 0x3b, 0x73, 0x65, 0x71, 0x75, 0x65, 0x6e, 0x74, 0x69, 0x61, 0x6c,
  0x2f, 0x64, 0x65, 0x6e, 0x73, 0x65, 0x2f, 0x42, 0x69, 0x61, 0x73, 0x41,
  0x64, 0x64, 0x00, 0x00, 0x02, 0x00, 0x00, 0x00, 0xff, 0xff, 0xff, 0xff,
  0x10, 0x00, 0x00, 0x00, 0xec, 0xd1, 0xff, 0xff, 0x00, 0x00, 0x0a, 0x00,
  0x10, 0x00, 0x04, 0x00, 0x08, 0x00, 0x0c, 0x00, 0x0a, 0x00, 0x00, 0x00,
  0x02, 0x00, 0x00, 0x00, 0x10, 0x00, 0x00, 0x00, 0x04, 0x00, 0x00, 0x00,
  0x01, 0x00, 0x00, 0x00, 0x0e, 0x00, 0x00, 0x00, 0x02, 0x00, 0x00, 0x00,
  0x0d, 0x00, 0x00, 0x00, 0x05, 0x00, 0x00, 0x00, 0xa8, 0xfc, 0xff, 0xff,
  0x16, 0x00, 0x00, 0x00, 0x00, 0x00, 0x00, 0x16, 0x01, 0x00, 0x00, 0x00,
  0x8c, 0xd1, 0xff, 0xff, 0x14, 0x00, 0x00, 0x00, 0x0f, 0x00, 0x00, 0x00,
  0x18, 0x00, 0x00, 0x00, 0x40, 0x00, 0x00, 0x00, 0x30, 0x00, 0x00, 0x00,
  0x02, 0x00, 0x00, 0x00, 0x01, 0x00, 0x00, 0x00, 0x70, 0x00, 0x00, 0x00,
  0x1a, 0x00, 0x00, 0x00, 0x73, 0x65, 0x71, 0x75, 0x65, 0x6e, 0x74, 0x69,
  0x61, 0x6c, 0x2f, 0x66, 0x6c, 0x61, 0x74, 0x74, 0x65, 0x6e, 0x2f, 0x52,
  0x65, 0x73, 0x68, 0x61, 0x70, 0x65, 0x00, 0x00, 0x02, 0x00, 0x00, 0x00,
  0xff, 0xff, 0xff, 0xff, 0x70, 0x00, 0x00, 0x00, 0x70, 0xd1, 0xff, 0xff,
  0x3e, 0xfe, 0xff, 0xff, 0x00, 0x00, 0x00, 0x05, 0x01, 0x00, 0x00, 0x00,
  0x38, 0x00, 0x00, 0x00, 0x2c, 0x00, 0x00, 0x00, 0x14, 0x00, 0x00, 0x00,
  0x00, 0x00, 0x0e, 0x00, 0x14, 0x00, 0x00, 0x00, 0x10, 0x00, 0x0c, 0x00,
  0x08, 0x00, 0x04, 0x00, 0x0e, 0x00, 0x00, 0x00, 0x03, 0x00, 0x00, 0x00,
  0x01, 0x00, 0x00, 0x00, 0x03, 0x00, 0x00, 0x00, 0x01, 0x00, 0x00, 0x00,
  0x01, 0x00, 0x00, 0x00, 0x0d, 0x00, 0x00, 0x00, 0x01, 0x00, 0x00, 0x00,
  0x0c, 0x00, 0x00, 0x00, 0x2c, 0xd2, 0xff, 0xff, 0x14, 0x00, 0x00, 0x00,
  0x0e, 0x00, 0x00, 0x00, 0x20, 0x00, 0x00, 0x00, 0x58, 0x00, 0x00, 0x00,
  0x40, 0x00, 0x00, 0x00, 0x04, 0x00, 0x00, 0x00, 0x01, 0x00, 0x00, 0x00,
  0x07, 0x00, 0x00, 0x00, 0x01, 0x00, 0x00, 0x00, 0x10, 0x00, 0x00, 0x00,
  0x22, 0x00, 0x00, 0x00, 0x73, 0x65, 0x71, 0x75, 0x65, 0x6e, 0x74, 0x69,
  0x61, 0x6c, 0x2f, 0x6d, 0x61, 0x78, 0x5f, 0x70, 0x6f, 0x6f, 0x6c, 0x69,
  0x6e, 0x67, 0x32, 0x64, 0x5f, 0x31, 0x2f, 0x4d, 0x61, 0x78, 0x50, 0x6f,
  0x6f, 0x6c, 0x00, 0x00, 0x04, 0x00, 0x00, 0x00, 0xff, 0xff, 0xff, 0xff,
  0x07, 0x00, 0x00, 0x00, 0x01, 0x00, 0x00, 0x00, 0x10, 0x00, 0x00, 0x00,
  0x28, 0xd2, 0xff, 0xff, 0x1a, 0xfe, 0xff, 0xff, 0x00, 0x00, 0x00, 0x01,
  0x24, 0x00, 0x00, 0x00, 0x18, 0x00, 0x00, 0x00, 0x04, 0x00, 0x00, 0x00,
  0x0c, 0xfe, 0xff, 0xff, 0x01, 0x00, 0x00, 0x00, 0x01, 0x00, 0x00, 0x00,
  0x00, 0x00, 0x00, 0x01, 0x01, 0x00, 0x00, 0x00, 0x0c, 0x00, 0x00, 0x00,
  0x03, 0x00, 0x00, 0x00, 0x0b, 0x00, 0x00, 0x00, 0x09, 0x00, 0x00, 0x00,
  0x02, 0x00, 0x00, 0x00, 0xd4, 0xd2, 0xff, 0xff, 0x14, 0x00, 0x00, 0x00,
  0x0d, 0x00, 0x00, 0x00, 0x20, 0x00, 0x00, 0x00, 0xb8, 0x00, 0x00, 0x00,
  0xa0, 0x00, 0x00, 0x00, 0x04, 0x00, 0x00, 0x00, 0x01, 0x00, 0x00, 0x00,
  0x15, 0x00, 0x00, 0x00, 0x01, 0x00, 0x00, 0x00, 0x10, 0x00, 0x00, 0x00,
  0x83, 0x00, 0x00, 0x00, 0x73, 0x65, 0x71, 0x75, 0x65, 0x6e, 0x74, 0x69,
  0x61, 0x6c, 0x2f, 0x63, 0x6f, 0x6e, 0x76, 0x32, 0x64, 0x5f, 0x31, 0x2f,
  0x52, 0x65, 0x6c, 0x75, 0x3b, 0x73, 0x65, 0x71, 0x75, 0x65, 0x6e, 0x74,
  0x69, 0x61, 0x6c, 0x2f, 0x63, 0x6f, 0x6e, 0x76, 0x32, 0x64, 0x5f, 0x31,
  0x2f, 0x42, 0x69, 0x61, 0x73, 0x41, 0x64, 0x64, 0x3b, 0x73, 0x65, 0x71,
  0x75, 0x65, 0x6e, 0x74, 0x69, 0x61, 0x6c, 0x2f, 0x63, 0x6f, 0x6e, 0x76,
  0x32, 0x64, 0x5f, 0x31, 0x2f, 0x43, 0x6f, 0x6e, 0x76, 0x32, 0x44, 0x3b,
  0x73, 0x65, 0x71, 0x75, 0x65, 0x6e, 0x74, 0x69, 0x61, 0x6c, 0x2f, 0x63,
  0x6f, 0x6e, 0x76, 0x32, 0x64, 0x5f, 0x31, 0x2f, 0x42, 0x69, 0x61, 0x73,
  0x41, 0x64, 0x64, 0x2f, 0x52, 0x65, 0x61, 0x64, 0x56, 0x61, 0x72, 0x69,
  0x61, 0x62, 0x6c, 0x65, 0x4f, 0x70, 0x2f, 0x72, 0x65, 0x73, 0x6f, 0x75,
  0x72, 0x63, 0x65, 0x00, 0x04, 0x00, 0x00, 0x00, 0xff, 0xff, 0xff, 0xff,
  0x15, 0x00, 0x00, 0x00, 0x01, 0x00, 0x00, 0x00, 0x10, 0x00, 0x00, 0x00,
  0x40, 0xd4, 0xff, 0xff, 0x00, 0x00, 0x0e, 0x00, 0x1a, 0x00, 0x08, 0x00,
  0x0c, 0x00, 0x10, 0x00, 0x07, 0x00, 0x14, 0x00, 0x0e, 0x00, 0x00, 0x00,
  0x00, 0x00, 0x00, 0x05, 0x01, 0x00, 0x00, 0x00, 0x3c, 0x00, 0x00, 0x00,
  0x30, 0x00, 0x00, 0x00, 0x14, 0x00, 0x00, 0x00, 0x00, 0x00, 0x0e, 0x00,
  0x18, 0x00, 0x17, 0x00, 0x10, 0x00, 0x0c, 0x00, 0x08, 0x00, 0x04, 0x00,
  0x0e, 0x00, 0x00, 0x00, 0x03, 0x00, 0x00, 0x00, 0x03, 0x00, 0x00, 0x00,
  0x03, 0x00, 0x00, 0x00, 0x03, 0x00, 0x00, 0x00, 0x00, 0x00, 0x00, 0x01,
  0x01, 0x00, 0x00, 0x00, 0x0b, 0x00, 0x00, 0x00, 0x01, 0x00, 0x00, 0x00,
  0x0a, 0x00, 0x00, 0x00, 0x2c, 0xff, 0xff, 0xff, 0x11, 0x00, 0x00, 0x00,
  0x00, 0x00, 0x00, 0x11, 0x01, 0x00, 0x00, 0x00, 0x10, 0xd4, 0xff, 0xff,
  0x14, 0x00, 0x00, 0x00, 0x0c, 0x00, 0x00, 0x00, 0x20, 0x00, 0x00, 0x00,
  0x58, 0x00, 0x00, 0x00, 0x40, 0x00, 0x00, 0x00, 0x04, 0x00, 0x00, 0x00,
  0x01, 0x00, 0x00, 0x00, 0x15, 0x00, 0x00, 0x00, 0x01, 0x00, 0x00, 0x00,
  0x08, 0x00, 0x00, 0x00, 0x20, 0x00, 0x00, 0x00, 0x73, 0x65, 0x71, 0x75,
  0x65, 0x6e, 0x74, 0x69, 0x61, 0x6c, 0x2f, 0x6d, 0x61, 0x78, 0x5f, 0x70,
  0x6f, 0x6f, 0x6c, 0x69, 0x6e, 0x67, 0x32, 0x64, 0x2f, 0x4d, 0x61, 0x78,
  0x50, 0x6f, 0x6f, 0x6c, 0x00, 0x00, 0x00, 0x00, 0x04, 0x00, 0x00, 0x00,
  0xff, 0xff, 0xff, 0xff, 0x15, 0x00, 0x00, 0x00, 0x01, 0x00, 0x00, 0x00,
  0x08, 0x00, 0x00, 0x00, 0x1c, 0xd5, 0xff, 0xff, 0x00, 0x00, 0x0e, 0x00,
  0x14, 0x00, 0x00, 0x00, 0x08, 0x00, 0x0c, 0x00, 0x07, 0x00, 0x10, 0x00,
  0x0e, 0x00, 0x00, 0x00, 0x00, 0x00, 0x00, 0x01, 0x30, 0x00, 0x00, 0x00,
  0x24, 0x00, 0x00, 0x00, 0x10, 0x00, 0x00, 0x00, 0x0c, 0x00, 0x10, 0x00,
  0x00, 0x00, 0x04, 0x00, 0x08, 0x00, 0x0f, 0x00, 0x0c, 0x00, 0x00, 0x00,
  0x01, 0x00, 0x00, 0x00, 0x01, 0x00, 0x00, 0x00, 0x00, 0x00, 0x00, 0x01,
  0x01, 0x00, 0x00, 0x00, 0x0a, 0x00, 0x00, 0x00, 0x03, 0x00, 0x00, 0x00,
  0x00, 0x00, 0x00, 0x00, 0x08, 0x00, 0x00, 0x00, 0x01, 0x00, 0x00, 0x00,
  0x0c, 0x00, 0x10, 0x00, 0x0b, 0x00, 0x00, 0x00, 0x0c, 0x00, 0x04, 0x00,
  0x0c, 0x00, 0x00, 0x00, 0x03, 0x00, 0x00, 0x00, 0x00, 0x00, 0x00, 0x03,
  0x01, 0x00, 0x00, 0x00, 0xf0, 0xd4, 0xff, 0xff, 0x14, 0x00, 0x00, 0x00,
  0x0b, 0x00, 0x00, 0x00, 0x20, 0x00, 0x00, 0x00, 0xb0, 0x00, 0x00, 0x00,
  0x98, 0x00, 0x00, 0x00, 0x04, 0x00, 0x00, 0x00, 0x01, 0x00, 0x00, 0x00,
  0x40, 0x00, 0x00, 0x00, 0x03, 0x00, 0x00, 0x00, 0x08, 0x00, 0x00, 0x00,
  0x7b, 0x00, 0x00, 0x00, 0x73, 0x65, 0x71, 0x75, 0x65, 0x6e, 0x74, 0x69,
  0x61, 0x6c, 0x2f, 0x63, 0x6f, 0x6e, 0x76, 0x32, 0x64, 0x2f, 0x52, 0x65,
  0x6c, 0x75, 0x3b, 0x73, 0x65, 0x71, 0x75, 0x65, 0x6e, 0x74, 0x69, 0x61,
  0x6c, 0x2f, 0x63, 0x6f, 0x6e, 0x76, 0x32, 0x64, 0x2f, 0x42, 0x69, 0x61,
  0x73, 0x41, 0x64, 0x64, 0x3b, 0x73, 0x65, 0x71, 0x75, 0x65, 0x6e, 0x74,
  0x69, 0x61, 0x6c, 0x2f, 0x63, 0x6f, 0x6e, 0x76, 0x32, 0x64, 0x2f, 0x43,
  0x6f, 0x6e, 0x76, 0x32, 0x44, 0x3b, 0x73, 0x65, 0x71, 0x75, 0x65, 0x6e,
  0x74, 0x69, 0x61, 0x6c, 0x2f, 0x63, 0x6f, 0x6e, 0x76, 0x32, 0x64, 0x2f,
  0x42, 0x69, 0x61, 0x73, 0x41, 0x64, 0x64, 0x2f, 0x52, 0x65, 0x61, 0x64,
  0x56, 0x61, 0x72, 0x69, 0x61, 0x62, 0x6c, 0x65, 0x4f, 0x70, 0x2f, 0x72,
  0x65, 0x73, 0x6f, 0x75, 0x72, 0x63, 0x65, 0x00, 0x04, 0x00, 0x00, 0x00,
  0xff, 0xff, 0xff, 0xff, 0x40, 0x00, 0x00, 0x00, 0x03, 0x00, 0x00, 0x00,
  0x08, 0x00, 0x00, 0x00, 0x44, 0xd5, 0xff, 0xff, 0x4e, 0xd6, 0xff, 0xff,
  0x04, 0x00, 0x00, 0x00, 0x00, 0x08, 0x00, 0x00, 0x4d, 0x52, 0xbb, 0xbd,
  0xfa, 0x90, 0x91, 0xbe, 0xa1, 0x5f, 0x5e, 0xbd, 0xcb, 0x97, 0xeb, 0xbe,
  0xec, 0x0f, 0xb6, 0xbd, 0x1a, 0xcf, 0x69, 0xbd, 0x45, 0x27, 0xb9, 0xbe,
  0x4e, 0x81, 0x4d, 0xbe, 0x0e, 0x1e, 0xe3, 0x3d, 0x98, 0xac, 0x41, 0xbe,
  0x14, 0x0d, 0xcc, 0x3d, 0x05, 0xaf, 0x53, 0xbe, 0xb0, 0x39, 0xd6, 0xbd,
  0xaa, 0x71, 0x70, 0x3d, 0x0e, 0xb8, 0xea, 0xbd, 0xb1, 0xa0, 0x41, 0xbe,
  0xd9, 0x56, 0xc2, 0x3d, 0x77, 0x73, 0xc1, 0x3c, 0x20, 0x0f, 0xd9, 0xbd,
  0x3c, 0x3d, 0x83, 0x3e, 0x2b, 0x97, 0xab, 0xbd, 0xab, 0xa0, 0x1f, 0xbd,
  0xcf, 0xe0, 0x0a, 0xbe, 0x92, 0x4c, 0xc0, 0xbd, 0xb8, 0x4e, 0xbd, 0xbd,
  0x94, 0xa5, 0x12, 0x3f, 0x94, 0xeb, 0x76, 0xbd, 0x7c, 0xd5, 0x21, 0x3e,
  0x6c, 0xe7, 0x21, 0x3d, 0xa3, 0xa0, 0xc2, 0xbc, 0x9f, 0x83, 0xde, 0x3d,
  0xa6, 0x43, 0x54, 0x3e, 0xba, 0x8e, 0x03, 0xbf, 0x27, 0x9f, 0x1c, 0xbe,
  0x05, 0x96, 0x5f, 0x3e, 0x73, 0xf1, 0x28, 0x3b, 0xaf, 0xbb, 0x25, 0xbe,
  0x1b, 0xb2, 0x4b, 0xbc, 0x3a, 0x0e, 0x4e, 0xbd, 0x0a, 0xeb, 0x71, 0x3e,
  0x50, 0x82, 0xc7, 0xbe, 0xed, 0x73, 0x4c, 0xbe, 0xad, 0x14, 0xf9, 0xbc,
  0xa8, 0xa9, 0xf5, 0x3b, 0x1c, 0xf3, 0xd3, 0xbd, 0xc2, 0x78, 0xa8, 0x3d,
  0x55, 0x32, 0xc4, 0xbd, 0x54, 0x78, 0xee, 0x3d, 0x31, 0xc4, 0x02, 0xbf,
  0xfc, 0x23, 0xb1, 0xbe, 0x3b, 0x9a, 0xdd, 0x3d, 0xf9, 0x07, 0xfd, 0x3d,
  0x2e, 0x9c, 0x2d, 0x3b, 0x3f, 0x24, 0x16, 0x3e, 0xee, 0x08, 0x37, 0xbe,
  0x65, 0x14, 0xe0, 0xbd, 0xd8, 0x89, 0xfc, 0xbe, 0x1e, 0x8f, 0x9f, 0xbe,
  0xcf, 0x67, 0x85, 0x3e, 0xa4, 0x00, 0x99, 0x3b, 0xfd, 0xdb, 0x56, 0xbe,
  0x0c, 0x42, 0x62, 0xbe, 0xf8, 0xd9, 0x2c, 0xbe, 0x40, 0xe7, 0x6a, 0x3e,
  0x91, 0xa1, 0xd6, 0x3d, 0x5a, 0x1b, 0xd0, 0x3e, 0xfb, 0xfe, 0x0c, 0xbd,
  0x52, 0x96, 0x9d, 0xbc, 0x31, 0x7a, 0x80, 0xbd, 0x74, 0x8c, 0x66, 0x3e,
  0xcc, 0x6a, 0xb3, 0xbe, 0x2b, 0xab, 0xe2, 0xbc, 0x93, 0xf1, 0x02, 0x3e,
  0x42, 0x99, 0x0c, 0x3e, 0x14, 0x2d, 0xc0, 0x3e, 0x3f, 0x75, 0x50, 0xbd,
  0x84, 0x92, 0xe9, 0x3d, 0xdc, 0x5a, 0x93, 0x3d, 0x51, 0x63, 0x64, 0xbe,
  0x89, 0x84, 0xf0, 0xbd, 0x84, 0x15, 0x01, 0xbd, 0xad, 0xc8, 0x0d, 0xbe,
  0x56, 0x43, 0x25, 0xbe, 0xde, 0x69, 0x0d, 0x3e, 0xa8, 0x57, 0xee, 0xbd,
  0xd6, 0x03, 0x20, 0xbe, 0x81, 0xbd, 0x09, 0xbf, 0x34, 0xa4, 0xe3, 0xbd,
  0x08, 0x0a, 0x2e, 0xbe, 0x41, 0x07, 0x04, 0xbe, 0x54, 0xb6, 0x8b, 0xbe,
  0x64, 0x06, 0xc6, 0x3d, 0x47, 0xca, 0x08, 0xbe, 0x7b, 0xac, 0x9d, 0xbe,
  0xd8, 0x1e, 0xd8, 0xbe, 0xf6, 0x29, 0x46, 0xbe, 0x95, 0x32, 0xc2, 0xbe,
  0x5a, 0x90, 0x3e, 0xbe, 0x65, 0xdd, 0xc3, 0xbe, 0x90, 0x9a, 0x1e, 0xbe,
  0x84, 0x85, 0x47, 0x3d, 0xed, 0x71, 0x8c, 0xbe, 0x26, 0xbf, 0x06, 0x3e,
  0xd6, 0x7a, 0xd7, 0xbd, 0x4a, 0x03, 0xa8, 0xbe, 0x3f, 0x2a, 0x10, 0x3f,
  0xd5, 0x1b, 0x93, 0xbe, 0x77, 0x18, 0xbd, 0xbd, 0xbb, 0xc0, 0x19, 0xbd,
  0xa4, 0x0c, 0x0c, 0xbe, 0x69, 0x17, 0x90, 0x3d, 0xe3, 0xb1, 0x9e, 0x3d,
  0x0c, 0xb3, 0x93, 0xbd, 0x51, 0xf1, 0xbe, 0xbe, 0xeb, 0x76, 0x89, 0xbe,
  0xac, 0x75, 0x3e, 0x3c, 0x47, 0xec, 0x2c, 0xbd, 0xae, 0xaa, 0x62, 0x3e,
  0xda, 0x6e, 0xa4, 0x3d, 0xed, 0xd1, 0xce, 0x3c, 0x68, 0xf8, 0x31, 0x3e,
  0x19, 0x34, 0x0f, 0xbe, 0xa4, 0xc3, 0x73, 0x3e, 0x6e, 0x07, 0xfc, 0xbd,
  0xe7, 0xf4, 0xf0, 0xbd, 0xe9, 0xb1, 0xb4, 0x3e, 0xda, 0x83, 0x2a, 0x3e,
  0x09, 0xc8, 0x4a, 0x3d, 0xf0, 0x55, 0x73, 0xbe, 0x45, 0x78, 0x81, 0x3e,
  0x44, 0x06, 0xc1, 0xbe, 0xc7, 0xe5, 0x8d, 0x3c, 0x75, 0x89, 0xa1, 0x3d,
  0xd8, 0xc0, 0x42, 0xbe, 0xe7, 0x04, 0xb5, 0x3e, 0x3d, 0xf7, 0x5b, 0x3d,
  0x53, 0xaa, 0x92, 0xbe, 0x10, 0xd5, 0xe0, 0xbb, 0x0e, 0x45, 0xda, 0xbe,
  0xfe, 0x92, 0x0f, 0xbe, 0x6e, 0xf4, 0x3e, 0xbe, 0xa0, 0xf8, 0x62, 0xbe,
  0x15, 0x2f, 0x83, 0x3d, 0xbb, 0x2b, 0x95, 0xbd, 0xb7, 0xc9, 0x8c, 0xbd,
  0xe1, 0xe6, 0x0d, 0xbf, 0xc2, 0xc8, 0x11, 0xbe, 0x4a, 0x35, 0x8e, 0x3d,
  0x0c, 0x96, 0x9e, 0xbd, 0x53, 0x79, 0xc2, 0x3e, 0xb1, 0xe0, 0xe7, 0x3d,
  0x3a, 0x66, 0x45, 0xbd, 0xf6, 0xd5, 0x7a, 0x3e, 0xfd, 0x39, 0x90, 0xbe,
  0x7b, 0xc6, 0xe0, 0x3c, 0x34, 0x8b, 0xb1, 0xbd, 0x92, 0x24, 0xb3, 0xbd,
  0xb8, 0xab, 0xf1, 0x3d, 0xd6, 0x14, 0x91, 0x3e, 0x63, 0x88, 0xc8, 0xbd,
  0x1a, 0xea, 0xdd, 0x3b, 0xa9, 0xe7, 0xbc, 0xbd, 0x6d, 0x8e, 0x57, 0x3e,
  0xb7, 0xf8, 0xad, 0xbc, 0xeb, 0x98, 0x23, 0xbe, 0x5a, 0xf3, 0x60, 0x3e,
  0x8e, 0xcc, 0x47, 0xbe, 0x6c, 0x37, 0x25, 0x3c, 0xe7, 0xd9, 0xd4, 0x3d,
  0x1f, 0xca, 0xe7, 0xbd, 0xe9, 0x3f, 0xdd, 0xbd, 0xe6, 0xe7, 0xcb, 0xbd,
  0xae, 0xa6, 0x95, 0xbe, 0x21, 0xa8, 0x41, 0xbe, 0x47, 0x13, 0xb0, 0xbe,
  0x39, 0x00, 0xbd, 0xbd, 0x8f, 0x8c, 0xc9, 0x3d, 0xef, 0x17, 0x78, 0xbd,
  0xfb, 0x9b, 0x46, 0xbe, 0x60, 0x17, 0x0d, 0x3f, 0x92, 0x66, 0x74, 0xbe,
  0xe8, 0x20, 0x55, 0xbe, 0xc0, 0xbe, 0xe5, 0xbd, 0xcb, 0x23, 0x72, 0x3b,
  0xc5, 0x19, 0x35, 0xbe, 0x37, 0x78, 0x95, 0x3d, 0xbc, 0x3f, 0xd8, 0xbe,
  0xed, 0x6e, 0x97, 0x3e, 0x6e, 0xc4, 0x78, 0xbe, 0xb4, 0xb4, 0x31, 0xbe,
  0x70, 0x9b, 0x54, 0x3e, 0x0c, 0x92, 0xa5, 0x3e, 0xde, 0x2a, 0xa2, 0xbe,
  0x03, 0xd6, 0xc4, 0xbe, 0x92, 0x74, 0x8a, 0xbe, 0x15, 0x15, 0xad, 0x3c,
  0xb2, 0xf2, 0x69, 0xbe, 0x47, 0xcd, 0xed, 0xbd, 0x8e, 0xb8, 0x31, 0x3e,
  0x9e, 0xe0, 0x3d, 0xbd, 0xd6, 0x04, 0x9f, 0x3c, 0xf9, 0xdf, 0x02, 0xbf,
  0xf8, 0xb0, 0x07, 0xbc, 0xd0, 0xf2, 0x59, 0x3d, 0x5d, 0x3e, 0x39, 0xbe,
  0x1e, 0x1a, 0xa2, 0xbc, 0x23, 0xf4, 0x53, 0x3e, 0x6c, 0x24, 0x2a, 0xbe,
  0x05, 0x75, 0x83, 0x3c, 0x3b, 0xbc, 0x09, 0xbc, 0xb3, 0xfc, 0xe6, 0x3d,
  0x8d, 0xfa, 0x53, 0xbd, 0x65, 0x14, 0xcd, 0xb9, 0x13, 0xbf, 0x1b, 0x3d,
  0xf7, 0x10, 0x9d, 0xbc, 0x35, 0xa8, 0x78, 0xbd, 0xc4, 0x7f, 0x83, 0xbc,
  0x5d, 0xbe, 0xf9, 0xbd, 0xa8, 0xd1, 0x11, 0xbc, 0x0e, 0x2d, 0x68, 0x3c,
  0xdc, 0x46, 0x81, 0xbb, 0xa0, 0xb2, 0x38, 0x3e, 0x73, 0xeb, 0xaf, 0xbd,
  0x3a, 0x22, 0x38, 0x3d, 0x83, 0x0a, 0x72, 0xbe, 0x4d, 0x9d, 0x85, 0xbe,
  0x78, 0xe4, 0xd2, 0xba, 0xdf, 0x3e, 0xe1, 0xbe, 0xc5, 0xfd, 0x13, 0xbd,
  0x5a, 0x22, 0xa5, 0x3d, 0xbc, 0x52, 0xef, 0xbe, 0xd0, 0x66, 0x81, 0xbe,
  0x61, 0x3e, 0x4f, 0xbe, 0x3c, 0x47, 0x20, 0x3f, 0xfd, 0x25, 0xb5, 0xbe,
  0x70, 0x8a, 0xdc, 0xbd, 0x72, 0xa2, 0xbf, 0xbd, 0xfe, 0x04, 0x9b, 0xbd,
  0x0f, 0x5a, 0x1e, 0xbe, 0xbe, 0xba, 0x04, 0x3b, 0xfa, 0xa5, 0x4a, 0xbe,
  0x93, 0x24, 0x09, 0x3d, 0x57, 0xb5, 0x57, 0xbe, 0xaf, 0xb2, 0x41, 0xbe,
  0x90, 0x98, 0x8f, 0xbb, 0xc2, 0x76, 0x26, 0x3e, 0x00, 0x47, 0xc2, 0x3e,
  0xba, 0x7e, 0x81, 0xbe, 0xdb, 0xa4, 0x26, 0x3e, 0x09, 0xd8, 0xd3, 0xbc,
  0x4e, 0x68, 0x33, 0x3d, 0x2f, 0x63, 0x45, 0xbe, 0x55, 0x72, 0x3a, 0x3c,
  0xdd, 0x7d, 0x67, 0x3e, 0x69, 0x64, 0x34, 0xbe, 0x48, 0x7d, 0x5c, 0xbe,
  0x08, 0x91, 0xc2, 0x3d, 0x09, 0xe7, 0x12, 0xbe, 0xe2, 0xda, 0xd3, 0x3c,
  0xb6, 0x77, 0x6e, 0xbc, 0x40, 0x47, 0xef, 0x3d, 0x33, 0xf2, 0x8d, 0xbd,
  0x1e, 0x33, 0x33, 0x3c, 0x6c, 0x6a, 0x90, 0x3e, 0x6a, 0xe8, 0x88, 0xbd,
  0x52, 0x5c, 0xfd, 0x3d, 0xe6, 0xd2, 0x57, 0x3e, 0xbb, 0xbf, 0x88, 0x3e,
  0xe4, 0x71, 0x8e, 0xbd, 0x60, 0x47, 0x35, 0x3e, 0x00, 0x96, 0x41, 0x3e,
  0x57, 0xb6, 0xd7, 0xbc, 0x10, 0x25, 0xca, 0xbd, 0x74, 0x69, 0x51, 0x3d,
  0x40, 0xd2, 0x0b, 0x3e, 0x08, 0x13, 0x6e, 0x3e, 0x2c, 0xf7, 0xa7, 0xbd,
  0x8f, 0x92, 0x8f, 0xbc, 0x9a, 0x70, 0x2d, 0xbd, 0x2a, 0x90, 0x4e, 0x3d,
  0x37, 0x99, 0xe1, 0xbd, 0x38, 0x75, 0x18, 0x3c, 0x1d, 0x75, 0xc4, 0xbd,
  0x33, 0x27, 0xdd, 0xbd, 0x68, 0x8e, 0x20, 0x3d, 0xc9, 0x34, 0x94, 0x3e,
  0xab, 0xcc, 0xbe, 0x3c, 0xde, 0x5b, 0xc0, 0x3d, 0xb6, 0x3d, 0x0f, 0xbe,
  0x23, 0x9c, 0x0f, 0xbe, 0x1a, 0x50, 0xae, 0xbe, 0x5e, 0x81, 0xc3, 0x3e,
  0x90, 0xa9, 0xae, 0x3d, 0x45, 0x2a, 0xac, 0xbd, 0x35, 0x10, 0x51, 0x3f,
  0xdd, 0xba, 0x6a, 0x3e, 0x67, 0xf5, 0xe9, 0xbd, 0x1a, 0x76, 0xce, 0xbe,
  0x1f, 0x58, 0x8e, 0xbe, 0x97, 0x18, 0xc6, 0x3d, 0xbd, 0x75, 0xfc, 0x3c,
  0x7e, 0xea, 0x90, 0x3d, 0xa8, 0x8a, 0x10, 0x3e, 0xb6, 0xaa, 0x3b, 0xbd,
  0x25, 0x4e, 0x43, 0xbd, 0xb0, 0x81, 0x8e, 0xbe, 0x74, 0x19, 0xee, 0xbd,
  0x4f, 0x04, 0x8d, 0xbc, 0x6a, 0x1c, 0x74, 0xbd, 0xb9, 0xb8, 0xac, 0xbc,
  0x07, 0x81, 0x76, 0x3e, 0x5b, 0x3e, 0xd2, 0x3c, 0x73, 0x78, 0x2d, 0xbd,
  0x6c, 0xd3, 0x98, 0xbe, 0x1b, 0x03, 0x3a, 0xbd, 0xbf, 0xf1, 0x80, 0xbe,
  0x5e, 0xa6, 0xdf, 0xbd, 0x54, 0xfd, 0x77, 0x3c, 0x4d, 0x8c, 0xe3, 0xbe,
  0x9e, 0xcb, 0x4f, 0xbd, 0x20, 0xc1, 0x8c, 0xbe, 0x7e, 0x15, 0x84, 0xbd,
  0x86, 0x8e, 0x8e, 0xbe, 0x42, 0x47, 0x97, 0xbe, 0xdd, 0x6d, 0x27, 0xbe,
  0xb8, 0x16, 0x00, 0xbf, 0x85, 0x9d, 0xce, 0x3d, 0x76, 0xd1, 0xb5, 0x3d,
  0x4a, 0x36, 0x1f, 0xbe, 0x62, 0xcf, 0xa6, 0xbe, 0x7b, 0xb3, 0xed, 0xbd,
  0xf1, 0x8d, 0xc1, 0x3d, 0x58, 0x5a, 0xb9, 0xbd, 0x2e, 0xd2, 0x56, 0x3d,
  0x6a, 0xaa, 0x22, 0x3e, 0xb6, 0xab, 0x38, 0x3d, 0x9d, 0x87, 0x79, 0xbb,
  0xfa, 0xd9, 0x3b, 0xbe, 0x98, 0x17, 0xba, 0xbe, 0xe1, 0xe6, 0x02, 0x3f,
  0x20, 0xd7, 0x39, 0x3d, 0x54, 0x88, 0x32, 0x3e, 0x38, 0x2e, 0x26, 0xbe,
  0xfa, 0xa4, 0x86, 0x3d, 0x12, 0x6d, 0x18, 0xbd, 0x1a, 0x31, 0x0f, 0x3d,
  0x8b, 0x27, 0xb5, 0xbe, 0x7f, 0xb5, 0xbe, 0xbb, 0xf8, 0xda, 0x97, 0xbd,
  0xef, 0x0d, 0x80, 0xbe, 0x06, 0xf2, 0x09, 0x3d, 0x2a, 0x3b, 0x78, 0x3d,
  0x28, 0x80, 0xc9, 0xbd, 0xeb, 0x5b, 0x20, 0x3e, 0x55, 0xc8, 0x0d, 0xbc,
  0xba, 0xcb, 0x5d, 0x3d, 0x87, 0xf6, 0xd2, 0xbd, 0x35, 0xbf, 0xbd, 0xbd,
  0xe9, 0xf2, 0x3f, 0x3f, 0x57, 0xdc, 0x66, 0x3c, 0xc3, 0xec, 0x0f, 0xbe,
  0x7d, 0xfc, 0xf6, 0x3e, 0x3b, 0xbe, 0xfc, 0xbb, 0xd7, 0x90, 0xb4, 0x3d,
  0xbe, 0x36, 0xfa, 0xbd, 0x79, 0x6a, 0x3e, 0xbe, 0xc9, 0x5d, 0x56, 0xbe,
  0x9a, 0x2e, 0x8c, 0x3d, 0xcd, 0x6b, 0x45, 0xbe, 0x3b, 0xd3, 0xb5, 0xbe,
  0xb0, 0x8c, 0x35, 0x3d, 0xa3, 0xa8, 0x77, 0x3d, 0x53, 0x24, 0x20, 0xbe,
  0x95, 0x45, 0x3e, 0x3e, 0xeb, 0xcd, 0x4d, 0x3d, 0xae, 0x0f, 0x1d, 0x3d,
  0x2a, 0xd6, 0x23, 0xbe, 0x9a, 0x34, 0xbd, 0xbd, 0x5f, 0x61, 0x90, 0x3b,
  0x5a, 0x59, 0xa9, 0xbc, 0x3c, 0x7c, 0xfc, 0xbd, 0xda, 0xd6, 0x98, 0xbd,
  0xd6, 0xaa, 0x85, 0x3e, 0x9c, 0xf0, 0xd2, 0x3c, 0xb9, 0x20, 0x21, 0x3d,
  0xeb, 0xb0, 0xca, 0x3e, 0x2a, 0xdd, 0x3e, 0xbf, 0xe8, 0x29, 0x54, 0x3e,
  0x73, 0xb3, 0x8d, 0x3c, 0x24, 0x16, 0x31, 0xbf, 0x11, 0xe9, 0xd4, 0xbc,
  0xd7, 0x9f, 0xc5, 0x3d, 0x3a, 0x95, 0xac, 0xbe, 0x69, 0xc6, 0x21, 0xbe,
  0xbf, 0xc1, 0x1f, 0xbf, 0x00, 0x28, 0xa7, 0xbd, 0x61, 0x57, 0x88, 0xbc,
  0x98, 0x96, 0x25, 0xbe, 0xc8, 0x51, 0x4f, 0x3d, 0xa2, 0x42, 0x16, 0xbd,
  0x18, 0xc5, 0xc1, 0xbd, 0x0b, 0x6c, 0x59, 0xbe, 0xcf, 0x00, 0x6b, 0xbe,
  0x0e, 0x0f, 0xb3, 0xbd, 0x0c, 0x41, 0xb0, 0xbd, 0x53, 0x2b, 0xaf, 0xbe,
  0xb2, 0x35, 0xe4, 0x3e, 0xb3, 0x57, 0x86, 0xbd, 0x4b, 0xa9, 0x95, 0x3d,
  0xea, 0x01, 0xd2, 0xbd, 0x22, 0x5e, 0x85, 0x3e, 0xd5, 0x0f, 0xa0, 0xbd,
  0x97, 0x7e, 0x1d, 0xbe, 0xe7, 0x1d, 0x1d, 0x3f, 0x8a, 0x75, 0x1e, 0xbd,
  0x4e, 0x36, 0x86, 0xbd, 0x68, 0xb9, 0x12, 0x3d, 0x17, 0x50, 0x26, 0xbd,
  0xdd, 0xc9, 0x9b, 0xbe, 0x59, 0x59, 0x7e, 0x3e, 0xdc, 0x30, 0x1c, 0xbe,
  0xcc, 0x55, 0xef, 0xbd, 0x48, 0x3e, 0xe8, 0x3e, 0x62, 0xd3, 0x87, 0x3d,
  0x8a, 0x05, 0x46, 0xbd, 0xde, 0xac, 0x5d, 0x3e, 0x53, 0xdf, 0xab, 0xbe,
  0x56, 0xf6, 0x91, 0x3e, 0x3c, 0x2f, 0x1e, 0xbe, 0xe1, 0x60, 0x6f, 0xbe,
  0x00, 0xd2, 0x54, 0xbe, 0x67, 0xb7, 0xc2, 0x3d, 0xf0, 0x8d, 0x93, 0xbd,
  0x15, 0xae, 0x85, 0x3e, 0x51, 0x92, 0x91, 0xbe, 0xcf, 0xb8, 0xb4, 0xbd,
  0x42, 0xca, 0x08, 0xbe, 0x35, 0x81, 0xd4, 0xbd, 0xe5, 0x1b, 0x01, 0xbd,
  0x2a, 0xbe, 0x94, 0xbd, 0xd4, 0x12, 0x09, 0xbd, 0x0a, 0x8f, 0xbb, 0xbd,
  0x18, 0x69, 0xf3, 0xbe, 0xe7, 0xe0, 0x3c, 0x3e, 0xce, 0x2f, 0xd8, 0xbd,
  0x94, 0x18, 0xb5, 0xbe, 0x05, 0x95, 0xde, 0xbd, 0x72, 0xa2, 0x1c, 0xbd,
  0x9f, 0x3d, 0xcf, 0xbe, 0xbb, 0x76, 0x70, 0xbe, 0x33, 0x85, 0xc1, 0x3d,
  0xd7, 0x61, 0x87, 0xbe, 0x1e, 0xdc, 0x7c, 0x3d, 0xa4, 0xf7, 0x14, 0xbd,
  0x94, 0x62, 0xd5, 0xbc, 0xbe, 0xf8, 0xde, 0xbd, 0x4b, 0x66, 0x36, 0xbe,
  0x18, 0x92, 0x9d, 0x3e, 0x10, 0xbe, 0x65, 0x3e, 0x45, 0xb9, 0x13, 0x3d,
  0x0a, 0x2a, 0x75, 0x3e, 0x44, 0x91, 0x41, 0xbe, 0x5d, 0x5b, 0x3f, 0xbd,
  0x08, 0xf1, 0xc6, 0xbd, 0x03, 0xeb, 0xb4, 0xbe, 0x75, 0xb9, 0xa9, 0xbe,
  0x44, 0xe3, 0x2b, 0x3e, 0x4f, 0xc1, 0x05, 0x3d, 0x02, 0x10, 0x2e, 0x3d,
  0x99, 0xed, 0x32, 0xbe, 0x2e, 0xb1, 0x10, 0xbe, 0x99, 0x75, 0x99, 0x3e,
  0xdc, 0xd4, 0x74, 0xbe, 0x14, 0x61, 0x2d, 0xbe, 0x98, 0x0d, 0x0c, 0x3e,
  0xd0, 0x14, 0xc9, 0xbb, 0xf1, 0x5a, 0xdb, 0xbd, 0xb4, 0x49, 0xa7, 0xbe,
  0x3c, 0x4a, 0x65, 0xbe, 0x64, 0x47, 0xd5, 0x3c, 0x5f, 0xea, 0x95, 0xbd,
  0x9b, 0x6a, 0x29, 0x3e, 0x61, 0xf3, 0x6b, 0x3c, 0xb0, 0x79, 0x92, 0xbe,
  0x8f, 0x58, 0x37, 0x3e, 0x71, 0x71, 0xa8, 0xbd, 0x50, 0xef, 0x7f, 0x3e,
  0xfd, 0x53, 0xdf, 0xbe, 0x46, 0x2e, 0x36, 0x3d, 0xe7, 0xa2, 0x2f, 0x3f,
  0x85, 0x8c, 0x1b, 0x3d, 0xaa, 0x3c, 0xf9, 0xbd, 0x0c, 0x66, 0x93, 0x3d,
  0x06, 0x87, 0x50, 0xbe, 0xf7, 0xc6, 0x29, 0xbd, 0x6c, 0x31, 0xa8, 0xbe,
  0x48, 0x05, 0x29, 0x3e, 0xb8, 0x6c, 0x0b, 0xbc, 0xec, 0xf3, 0xc0, 0x3c,
  0xc6, 0x8d, 0x06, 0xbe, 0xe9, 0xa2, 0x40, 0x3e, 0xc0, 0xc5, 0x5c, 0x3e,
  0x80, 0xe4, 0x7f, 0x3b, 0xbe, 0x29, 0xa3, 0xbe, 0x77, 0xa2, 0x36, 0xbd,
  0x3e, 0x46, 0x9e, 0x3e, 0x30, 0x8d, 0x22, 0xbc, 0x90, 0x19, 0xbb, 0xbd,
  0xb8, 0xda, 0x72, 0x3e, 0x46, 0x7c, 0xfb, 0xbc, 0xdc, 0x2a, 0x1c, 0x3e,
  0x83, 0x4d, 0x8d, 0xbe, 0x26, 0xde, 0xff, 0xff, 0x10, 0x00, 0x00, 0x00,
  0x0a, 0x00, 0x00, 0x00, 0x1c, 0x00, 0x00, 0x00, 0x38, 0x00, 0x00, 0x00,
  0x04, 0x00, 0x00, 0x00, 0x10, 0x00, 0x00, 0x00, 0x04, 0x00, 0x00, 0x00,
  0x01, 0x00, 0x00, 0x00, 0x08, 0x00, 0x00, 0x00, 0x1a, 0x00, 0x00, 0x00,
  0x73, 0x65, 0x71, 0x75, 0x65, 0x6e, 0x74, 0x69, 0x61, 0x6c, 0x2f, 0x63,
  0x6f, 0x6e, 0x76, 0x32, 0x64, 0x5f, 0x31, 0x2f, 0x43, 0x6f, 0x6e, 0x76,
  0x32, 0x44, 0x00, 0x00, 0x9c, 0xdd, 0xff, 0xff, 0xa6, 0xde, 0xff, 0xff,
  0x04, 0x00, 0x00, 0x00, 0x80, 0x01, 0x00, 0x00, 0x5e, 0x8f, 0x1c, 0x3e,
  0xdc, 0x73, 0x8a, 0xbd, 0xb1, 0xbf, 0x01, 0xbe, 0x4c, 0xd1, 0xe7, 0xba,
  0xa6, 0x2d, 0x3c, 0xbe, 0x55, 0xde, 0xa1, 0x3c, 0x7b, 0x3d, 0xa1, 0x3d,
  0x72, 0x2e, 0x9a, 0xbd, 0xcd, 0x65, 0xe5, 0xba, 0x9a, 0x02, 0x77, 0xbe,
  0xcb, 0x9f, 0x48, 0x3e, 0x87, 0xf0, 0x8a, 0xbe, 0x46, 0x76, 0x14, 0x3d,
  0xa0, 0xc9, 0x67, 0xbe, 0x35, 0x44, 0xe9, 0xbd, 0x0b, 0x78, 0xbf, 0xbc,
  0x81, 0x2e, 0xd5, 0xbe, 0xe6, 0xef, 0xcf, 0xbe, 0xe1, 0x8d, 0x30, 0x3d,
  0x0b, 0x52, 0xf8, 0x3e, 0xb6, 0x08, 0x97, 0x3e, 0x4f, 0xe2, 0x48, 0x3e,
  0x1b, 0x65, 0xbb, 0x3d, 0xad, 0x9e, 0x16, 0x3e, 0x99, 0xc3, 0xfe, 0xbc,
  0xd7, 0xe9, 0xd6, 0xbe, 0xeb, 0xfc, 0xf6, 0xbd, 0x2d, 0x88, 0x72, 0xbe,
  0x3b, 0xd9, 0x90, 0x3e, 0x38, 0xbb, 0xa1, 0x3d, 0xfd, 0x9e, 0x57, 0x3e,
  0x36, 0xa1, 0x03, 0xbe, 0xf4, 0x82, 0x25, 0xbd, 0xf4, 0x1a, 0x15, 0xbe,
  0xd5, 0x77, 0x8f, 0xbb, 0xec, 0xcc, 0xa0, 0xbd, 0xe4, 0x1f, 0xc0, 0xbe,
  0xe5, 0x68, 0xa0, 0x3e, 0xa3, 0xae, 0xc9, 0xbc, 0x60, 0xaf, 0x52, 0xbe,
  0x63, 0x80, 0xfa, 0x3d, 0x83, 0x82, 0x86, 0xbe, 0x52, 0xc3, 0xa7, 0x3e,
  0x0f, 0x39, 0x3a, 0xbe, 0x7f, 0x03, 0xdb, 0x3d, 0x52, 0x20, 0x88, 0x3e,
  0x78, 0x97, 0x1c, 0xbe, 0x9b, 0x87, 0x96, 0x3e, 0x41, 0x58, 0xc2, 0x3e,
  0xfc, 0x13, 0xca, 0xbc, 0x33, 0x23, 0x0f, 0xbd, 0x51, 0x32, 0x2c, 0xbc,
  0x8e, 0x11, 0xe5, 0x3d, 0x76, 0x71, 0x46, 0xbc, 0x42, 0x6a, 0x2c, 0xbe,
  0xc4, 0x06, 0xca, 0xbd, 0x15, 0x4b, 0xb3, 0xbd, 0xc3, 0x9f, 0x97, 0x3e,
  0xc5, 0xe4, 0x55, 0x3d, 0x31, 0x8a, 0xbf, 0xbd, 0xa9, 0x50, 0x20, 0x3c,
  0xfb, 0x37, 0xa5, 0x3d, 0xd1, 0x14, 0x94, 0x3e, 0x78, 0x2f, 0x89, 0x3d,
  0x5c, 0x3c, 0x32, 0xbd, 0xc8, 0xe6, 0xb4, 0xbd, 0x83, 0x26, 0x55, 0xbe,
  0xc8, 0xdc, 0x51, 0xbe, 0x49, 0x99, 0x03, 0xbe, 0x08, 0xc1, 0x5c, 0xbd,
  0x31, 0xef, 0xee, 0xbd, 0x1d, 0x5b, 0x9f, 0xbe, 0xee, 0xcd, 0x4d, 0xbd,
  0x02, 0x09, 0x3a, 0x3e, 0xda, 0xfe, 0xea, 0x3d, 0x60, 0x8d, 0x01, 0xbe,
  0x67, 0x0b, 0xad, 0x3e, 0x60, 0x01, 0x84, 0x3e, 0x39, 0x68, 0x4a, 0x3d,
  0x62, 0xe1, 0x12, 0xbe, 0xc3, 0xa4, 0xf7, 0xbd, 0x9e, 0xb5, 0x2a, 0x3d,
  0x77, 0x63, 0xc3, 0xbe, 0xec, 0x05, 0x98, 0xbe, 0x12, 0x7a, 0x62, 0xbc,
  0x7d, 0x42, 0xb8, 0x3c, 0x4c, 0xae, 0x21, 0xbc, 0xfe, 0x63, 0xb7, 0x39,
  0xb7, 0x26, 0x50, 0xbd, 0x22, 0xb9, 0x54, 0xbd, 0xc3, 0xf6, 0x30, 0x3d,
  0xdb, 0xbe, 0x63, 0x3d, 0x36, 0xe9, 0x7b, 0x3d, 0xd2, 0x9f, 0x9b, 0x3d,
  0x85, 0xce, 0x33, 0x3e, 0xc8, 0xe2, 0x05, 0x3e, 0xfe, 0xdf, 0xff, 0xff,
  0x10, 0x00, 0x00, 0x00, 0x09, 0x00, 0x00, 0x00, 0x1c, 0x00, 0x00, 0x00,
  0x38, 0x00, 0x00, 0x00, 0x04, 0x00, 0x00, 0x00, 0x08, 0x00, 0x00, 0x00,
  0x04, 0x00, 0x00, 0x00, 0x03, 0x00, 0x00, 0x00, 0x01, 0x00, 0x00, 0x00,
  0x18, 0x00, 0x00, 0x00, 0x73, 0x65, 0x71, 0x75, 0x65, 0x6e, 0x74, 0x69,
  0x61, 0x6c, 0x2f, 0x63, 0x6f, 0x6e, 0x76, 0x32, 0x64, 0x2f, 0x43, 0x6f,
  0x6e, 0x76, 0x32, 0x44, 0x00, 0x00, 0x00, 0x00, 0x74, 0xdf, 0xff, 0xff,
  0x7e, 0xe0, 0xff, 0xff, 0x04, 0x00, 0x00, 0x00, 0xc0, 0x00, 0x00, 0x00,
  0xa9, 0x15, 0x26, 0x3e, 0x63, 0xc9, 0xd8, 0x3e, 0xe2, 0xd5, 0x19, 0x3e,
  0xc7, 0xcd, 0xae, 0x3e, 0x12, 0x2d, 0x0f, 0x3f, 0x12, 0x0d, 0xbc, 0x3e,
  0x8f, 0x8b, 0x04, 0xbf, 0x0c, 0x14, 0x07, 0xbe, 0x86, 0x02, 0xeb, 0xbe,
  0xc7, 0x47, 0xe8, 0x3c, 0x81, 0x3e, 0xab, 0x3c, 0xd7, 0x69, 0x5e, 0x3c,
  0x9e, 0xe8, 0xf8, 0x3c, 0x39, 0xc5, 0xa7, 0x3d, 0x47, 0xf7, 0x25, 0x3f,
  0x8d, 0xba, 0x1f, 0xbe, 0x4c, 0x79, 0x41, 0x3e, 0x49, 0xb1, 0x6a, 0xbe,
  0x9f, 0xa7, 0x59, 0x3e, 0x1f, 0x9f, 0x97, 0x3e, 0x19, 0xb3, 0x08, 0xbe,
  0x6b, 0x9d, 0xc4, 0x3e, 0x89, 0xd4, 0xda, 0xbe, 0xdf, 0xb6, 0xc4, 0xbe,
  0x78, 0x69, 0x65, 0xbd, 0xbd, 0xb3, 0xcb, 0x3e, 0x26, 0x45, 0xe6, 0xbe,
  0xf5, 0xce, 0xf1, 0x3d, 0xdc, 0x50, 0x80, 0xbb, 0x81, 0x7e, 0x91, 0x3d,
  0x5a, 0x53, 0x15, 0xbe, 0x58, 0x16, 0xce, 0xbd, 0x0a, 0x5c, 0xcc, 0x3d,
  0xf6, 0xbf, 0xb4, 0x3c, 0x9d, 0x10, 0x35, 0x3e, 0x17, 0xfa, 0x8c, 0x3e,
  0x97, 0x9a, 0x18, 0xbf, 0xf0, 0xb9, 0xbd, 0x3e, 0xec, 0xf2, 0xcd, 0xbe,
  0xef, 0xee, 0xc4, 0x3e, 0x31, 0xed, 0x0e, 0x3e, 0x1f, 0x1f, 0xa5, 0x3e,
  0x46, 0x57, 0x67, 0xbf, 0x4b, 0x25, 0xe5, 0x3c, 0xfb, 0xc9, 0x9b, 0xbc,
  0xff, 0xe8, 0x01, 0x3d, 0x98, 0x12, 0x54, 0xbf, 0x47, 0x9a, 0xad, 0xbd,
  0x16, 0xe1, 0xff, 0xff, 0x10, 0x00, 0x00, 0x00, 0x08, 0x00, 0x00, 0x00,
  0x14, 0x00, 0x00, 0x00, 0x30, 0x00, 0x00, 0x00, 0x02, 0x00, 0x00, 0x00,
  0x03, 0x00, 0x00, 0x00, 0x10, 0x00, 0x00, 0x00, 0x19, 0x00, 0x00, 0x00,
  0x73, 0x65, 0x71, 0x75, 0x65, 0x6e, 0x74, 0x69, 0x61, 0x6c, 0x2f, 0x64,
  0x65, 0x6e, 0x73, 0x65, 0x5f, 0x31, 0x2f, 0x4d, 0x61, 0x74, 0x4d, 0x75,
  0x6c, 0x00, 0x00, 0x00, 0x84, 0xe0, 0xff, 0xff, 0x8e, 0xe1, 0xff, 0xff,
  0x04, 0x00, 0x00, 0x00, 0x00, 0x1c, 0x00, 0x00, 0x55, 0x03, 0x1f, 0xbe,
  0x40, 0x4c, 0xb9, 0xbd, 0x7a, 0x4c, 0x72, 0xbe, 0x58, 0xb4, 0x23, 0xbe,
  0xae, 0xf0, 0x9f, 0x3e, 0x64, 0xdb, 0x8c, 0xbe, 0x94, 0x19, 0x64, 0xbe,
  0x71, 0x80, 0x77, 0x3e, 0xa6, 0x63, 0x34, 0xbd, 0xac, 0xcd, 0xfa, 0x3d,
  0xcf, 0xc5, 0x6a, 0xbd, 0xce, 0xd5, 0xf7, 0xbd, 0xf4, 0xb9, 0x90, 0x3e,
  0x0c, 0x29, 0x32, 0xbe, 0x6e, 0xa6, 0x3f, 0xbe, 0x44, 0x33, 0xe3, 0x3b,
  0xac, 0x6a, 0xbd, 0xbd, 0x32, 0x1b, 0xa8, 0xbe, 0x80, 0x9d, 0x3c, 0x3e,
  0x4e, 0x28, 0x77, 0xbe, 0x9e, 0x01, 0xb4, 0xbe, 0x4d, 0xa0, 0xe3, 0x3d,
  0x6f, 0xf7, 0x24, 0xbe, 0x18, 0x94, 0x9a, 0xbc, 0xa0, 0xe0, 0x9e, 0x3a,
  0xf9, 0x69, 0x12, 0x3e, 0x06, 0x6f, 0xb8, 0xbe, 0xa8, 0x9a, 0x4d, 0x3e,
  0x9e, 0xc5, 0xe8, 0xbd, 0xae, 0x6e, 0x05, 0xbe, 0x9e, 0x09, 0x1b, 0xbd,
  0x55, 0xe6, 0xeb, 0x3c, 0x62, 0x91, 0x28, 0xbe, 0x32, 0xbf, 0x8f, 0xbe,
  0x1c, 0x6c, 0xac, 0x3c, 0x6f, 0x6d, 0xfa, 0xbe, 0x31, 0x0b, 0xd5, 0xbe,
  0xcb, 0xfd, 0xd5, 0xbd, 0x38, 0x53, 0xa3, 0xbe, 0x18, 0x08, 0x15, 0xbe,
  0x3c, 0x5c, 0x8a, 0xbd, 0x89, 0x2a, 0x2a, 0x3d, 0x3c, 0x8c, 0x91, 0xbe,
  0x6c, 0x48, 0x88, 0xbe, 0x32, 0x97, 0x90, 0xbe, 0xc6, 0xc1, 0x13, 0xbd,
  0xd9, 0x5d, 0xa0, 0xbd, 0x39, 0xb3, 0xe0, 0xbb, 0xb6, 0xaf, 0xce, 0xbd,
  0x37, 0x8c, 0xef, 0xbc, 0xd6, 0x83, 0xe9, 0xbd, 0x79, 0x63, 0xf7, 0xbe,
  0xf6, 0x26, 0x1a, 0xbf, 0x19, 0xd0, 0xa0, 0xbe, 0xd6, 0x67, 0x57, 0xbe,
  0x3e, 0x18, 0xab, 0xbe, 0x00, 0xa9, 0xb8, 0xbd, 0xbd, 0x0a, 0x15, 0xbe,
  0xdb, 0x91, 0x1e, 0xbe, 0xfd, 0xe7, 0xf8, 0xbe, 0x5f, 0xac, 0x71, 0xbe,
  0xe5, 0x86, 0x1e, 0xbd, 0xad, 0xb0, 0x86, 0xbd, 0x9a, 0x3f, 0x11, 0xbd,
  0x4c, 0x0d, 0x52, 0x3e, 0x48, 0xbe, 0x87, 0xbe, 0x4f, 0x44, 0x45, 0xbd,
  0xf5, 0xfb, 0x81, 0x3e, 0xfe, 0xa8, 0x9f, 0x3e, 0xfa, 0x1f, 0x3f, 0x3d,
  0x6c, 0x1e, 0x7e, 0xbd, 0xc4, 0xcc, 0x2c, 0x3e, 0xa3, 0x75, 0x30, 0xbd,
  0xe1, 0x2e, 0x4e, 0xbe, 0xd9, 0xb4, 0xbc, 0xbd, 0x27, 0xde, 0x70, 0xbe,
  0x50, 0xeb, 0x4e, 0x3e, 0xec, 0xc7, 0xba, 0xbd, 0x66, 0x7a, 0xcd, 0xbb,
  0x10, 0xe0, 0xe2, 0xbb, 0x3c, 0xf3, 0xa7, 0x3e, 0x0f, 0xa6, 0xc8, 0xbd,
  0xdd, 0xfc, 0x02, 0xbe, 0xb4, 0xf8, 0x9f, 0x3d, 0x29, 0x79, 0x6c, 0x3e,
  0xce, 0x4c, 0xbe, 0xbd, 0xca, 0x96, 0x1a, 0x3e, 0xf2, 0x45, 0x46, 0x3e,
  0x55, 0x25, 0x20, 0xbd, 0x20, 0x71, 0x1f, 0x3d, 0x60, 0xce, 0x60, 0x3d,
  0x27, 0xf4, 0x08, 0xbe, 0xd0, 0xec, 0x5d, 0x3e, 0x16, 0xb7, 0x6a, 0xbe,
  0x3e, 0x2f, 0x21, 0xbe, 0xe3, 0xcf, 0xe1, 0xbc, 0x6e, 0x94, 0xa0, 0x3e,
  0xd9, 0xa9, 0x9a, 0x3b, 0x5b, 0x94, 0x69, 0xbc, 0xd3, 0x1b, 0x6a, 0x3e,
  0xcc, 0xca, 0x45, 0x3e, 0xd4, 0x9a, 0x38, 0x3e, 0xad, 0xd6, 0xbf, 0x3d,
  0x10, 0x27, 0x17, 0x3e, 0xe4, 0xde, 0x76, 0x3d, 0xd6, 0xaf, 0x1c, 0x3e,
  0x87, 0xf4, 0x9e, 0x3e, 0x09, 0x22, 0x3b, 0x3e, 0x3f, 0xdf, 0xda, 0xbd,
  0x09, 0xec, 0x01, 0x3e, 0x06, 0x3f, 0xbe, 0x3e, 0xf8, 0x41, 0xbb, 0x3a,
  0x96, 0x9b, 0x15, 0xbd, 0x7e, 0x28, 0xdc, 0x3d, 0x19, 0x19, 0x10, 0x3e,
  0xaf, 0xcb, 0x43, 0xbe, 0xd4, 0xe1, 0xd0, 0xbd, 0x6e, 0x7f, 0x1c, 0x3e,
  0x54, 0x4c, 0x77, 0xbc, 0x5e, 0xa8, 0x87, 0x3d, 0xf4, 0xd9, 0x31, 0xbe,
  0xc8, 0x20, 0x1c, 0xbe, 0x78, 0xa8, 0xcf, 0x3c, 0x3a, 0xbb, 0x14, 0xbe,
  0xd6, 0x28, 0xce, 0x3d, 0x87, 0xbc, 0x47, 0x3b, 0x12, 0x94, 0xe2, 0xbc,
  0xef, 0xff, 0x21, 0xbe, 0x99, 0xe1, 0x2e, 0x3e, 0x43, 0xaa, 0x32, 0xbd,
  0x59, 0xab, 0xd2, 0xbd, 0xd6, 0x8f, 0x1f, 0x3c, 0x21, 0x0e, 0x20, 0xbe,
  0x38, 0x18, 0x20, 0xbc, 0x66, 0x42, 0xf4, 0x3d, 0x54, 0x1e, 0x0b, 0x3e,
  0x42, 0xda, 0x74, 0xbe, 0xcb, 0xf5, 0x7f, 0x3c, 0xbc, 0xb0, 0x12, 0x3d,
  0x3b, 0x84, 0x71, 0x3d, 0x2c, 0x53, 0x61, 0xbd, 0x73, 0x29, 0xea, 0xbc,
  0x79, 0x37, 0x14, 0x3c, 0x5b, 0x7f, 0x50, 0xbe, 0x58, 0xe4, 0x4d, 0x3e,
  0x3b, 0x72, 0x20, 0x3d, 0xb0, 0xd2, 0x79, 0xbe, 0x9f, 0xcc, 0xff, 0x3c,
  0xd7, 0x63, 0x7a, 0x3d, 0x0b, 0x54, 0x39, 0x3e, 0x3f, 0x3a, 0x23, 0xbe,
  0x5f, 0xd2, 0xd1, 0xbd, 0x27, 0xe9, 0x49, 0xbd, 0xad, 0x7b, 0x23, 0x3e,
  0x3a, 0x39, 0xd5, 0x3b, 0x34, 0x60, 0x58, 0x3e, 0xc7, 0xec, 0xe0, 0x3b,
  0xbf, 0x47, 0xda, 0x3d, 0xce, 0x97, 0x04, 0xbe, 0xd9, 0x5a, 0x6b, 0x3d,
  0x28, 0xac, 0xe0, 0xbd, 0xfa, 0x25, 0x8c, 0x3d, 0x16, 0xff, 0xe2, 0x3c,
  0xdb, 0xa6, 0xe2, 0x3d, 0x46, 0xf5, 0xbe, 0xbd, 0xde, 0xdb, 0x49, 0xbe,
  0x07, 0x0c, 0x2a, 0x3e, 0xb2, 0xf2, 0x86, 0xbd, 0x71, 0x02, 0x22, 0xbe,
  0x69, 0xb3, 0x32, 0xbc, 0x4e, 0x4e, 0x14, 0xbe, 0x4d, 0x30, 0xc6, 0xbd,
  0xc3, 0x08, 0x68, 0x3e, 0x16, 0x66, 0x88, 0xbe, 0xa5, 0xce, 0xe5, 0x3d,
  0xf8, 0xc9, 0x1a, 0xbe, 0x29, 0xa4, 0xdb, 0xbd, 0xd5, 0x25, 0x6c, 0xbe,
  0xca, 0x4b, 0x07, 0x3e, 0x91, 0x7e, 0x2b, 0x3e, 0x97, 0xd3, 0x3b, 0xbc,
  0xae, 0x06, 0xf7, 0x3d, 0xf7, 0x9a, 0x88, 0xbd, 0xac, 0xc5, 0xe0, 0xbd,
  0xa6, 0x12, 0x00, 0xbe, 0xdb, 0x42, 0x84, 0xbd, 0xd9, 0xa4, 0x66, 0xbe,
  0x12, 0xa7, 0xd9, 0xbd, 0x7e, 0x34, 0xc9, 0xbd, 0x0d, 0xab, 0x4f, 0xbd,
  0xba, 0x2b, 0x92, 0x3d, 0x2b, 0x24, 0xa2, 0xbe, 0x37, 0x86, 0x01, 0x3e,
  0x4d, 0xd4, 0xcd, 0xbd, 0xeb, 0x41, 0x0b, 0x3e, 0x05, 0x49, 0x22, 0x3e,
  0x78, 0xb4, 0x06, 0xbe, 0x39, 0x5e, 0xae, 0xbd, 0x78, 0xcf, 0x3a, 0xbd,
  0xc8, 0x15, 0xa7, 0x3d, 0x2a, 0x83, 0x00, 0xbd, 0x76, 0xac, 0xb5, 0x3d,
  0x40, 0xc5, 0x15, 0x3c, 0x99, 0xd8, 0x29, 0xbe, 0x47, 0x29, 0x52, 0xbe,
  0x9a, 0x37, 0x74, 0xbd, 0x8b, 0x0f, 0x64, 0x3d, 0x68, 0x27, 0x16, 0xbe,
  0x5b, 0x66, 0x08, 0x3e, 0x05, 0x6d, 0x43, 0xbd, 0xe5, 0x98, 0xa0, 0x3b,
  0x39, 0x93, 0x4b, 0xbc, 0xe7, 0xf9, 0x25, 0xbe, 0x33, 0x7f, 0xbb, 0xbd,
  0xc9, 0x13, 0xb9, 0xbd, 0xb4, 0x09, 0x19, 0x3d, 0x0f, 0x7d, 0x48, 0x3d,
  0xe0, 0xc5, 0x9d, 0xbd, 0x8b, 0x4d, 0x5e, 0xbd, 0x1e, 0x8b, 0x52, 0xbe,
  0x94, 0xb7, 0xfd, 0xbd, 0x37, 0xbe, 0xe4, 0x3d, 0xc8, 0x50, 0x91, 0x3c,
  0x61, 0xa3, 0x7c, 0xbe, 0x8e, 0x9a, 0xa9, 0xbe, 0xe1, 0xce, 0x52, 0xbe,
  0x9d, 0xcc, 0x71, 0x3e, 0x79, 0x8c, 0x1a, 0x3e, 0x41, 0x24, 0x22, 0x3e,
  0x30, 0x81, 0x67, 0xbe, 0x20, 0x91, 0x99, 0x3d, 0xb2, 0x3d, 0x6a, 0x3e,
  0x45, 0x3a, 0xc2, 0x3d, 0x53, 0x98, 0xf9, 0x3e, 0xa1, 0x71, 0x9f, 0x3e,
  0xd6, 0xf6, 0x88, 0x3e, 0x2a, 0x76, 0xb9, 0x3d, 0x47, 0x4d, 0x30, 0x3e,
  0xde, 0x84, 0x06, 0xbe, 0xe7, 0x59, 0x06, 0x3d, 0xb3, 0x2b, 0xe5, 0xbe,
  0xca, 0x34, 0xa6, 0x3d, 0xea, 0xdb, 0xa9, 0x3c, 0x4f, 0x25, 0x8e, 0xbe,
  0xdf, 0x46, 0xd2, 0xbe, 0x47, 0x6e, 0x21, 0x3e, 0xdb, 0x6b, 0x35, 0xbe,
  0x3e, 0xef, 0x49, 0xbe, 0x4f, 0xfd, 0xde, 0xbd, 0x32, 0xb8, 0xb3, 0xbe,
  0x6b, 0x3e, 0xc0, 0xbd, 0x06, 0xb2, 0x99, 0xbe, 0x52, 0xff, 0xa9, 0xbd,
  0xaf, 0xc0, 0x81, 0xbd, 0x77, 0x36, 0x45, 0x3d, 0x0e, 0xcd, 0x4c, 0xbc,
  0x4d, 0xb5, 0x04, 0x3e, 0x6d, 0xd0, 0x9a, 0x3d, 0x25, 0x98, 0x71, 0xbd,
  0x74, 0x39, 0x4d, 0xbe, 0xca, 0x85, 0xda, 0xbe, 0x2d, 0x91, 0xc5, 0xbe,
  0xc7, 0x0a, 0x8a, 0xbe, 0xda, 0xa8, 0xf6, 0xbd, 0xfe, 0x84, 0x2e, 0xbd,
  0xaf, 0x42, 0x0c, 0xbe, 0x3a, 0x39, 0xc2, 0x3c, 0x28, 0x53, 0x5c, 0xbe,
  0x45, 0x0f, 0x41, 0xbc, 0x1a, 0x07, 0x14, 0x3d, 0xf4, 0x4e, 0xfc, 0x3c,
  0x0e, 0x44, 0x08, 0xbd, 0x15, 0xb6, 0x76, 0xbd, 0x43, 0x3f, 0xbc, 0xbc,
  0x52, 0xbf, 0xeb, 0xbc, 0xfc, 0x74, 0x1c, 0xbe, 0x89, 0x50, 0xd0, 0xbd,
  0x55, 0xa8, 0x7f, 0xbe, 0x88, 0x8b, 0xb5, 0xbb, 0x5a, 0xe5, 0x5b, 0xbd,
  0x4a, 0x1d, 0x22, 0xbd, 0x23, 0x87, 0x35, 0xbe, 0xe0, 0xdc, 0x84, 0xbd,
  0x1a, 0xe1, 0x9a, 0xbe, 0x65, 0x74, 0xe7, 0xbd, 0x70, 0x24, 0x51, 0xbc,
  0x3e, 0x45, 0x2a, 0x3d, 0x6b, 0x30, 0x42, 0x3c, 0x5b, 0x79, 0xdb, 0xbc,
  0xbf, 0xa9, 0x34, 0xbd, 0x3d, 0x14, 0xe6, 0xbd, 0xc8, 0x6e, 0x78, 0xbe,
  0x2d, 0x86, 0xcb, 0xbe, 0x5c, 0x3b, 0x92, 0xbe, 0xf3, 0xaf, 0xcb, 0x3a,
  0x6c, 0xb1, 0x0e, 0xbe, 0x5e, 0x7e, 0x97, 0xbd, 0x3a, 0x90, 0x94, 0xbc,
  0x8e, 0xba, 0x40, 0x3d, 0x70, 0x66, 0x13, 0xbe, 0x63, 0x94, 0x66, 0xbc,
  0xc0, 0x46, 0xa4, 0x3c, 0xe1, 0x74, 0x16, 0x3d, 0x57, 0x6b, 0xb0, 0xbb,
  0x20, 0xe2, 0xf2, 0x3e, 0xe7, 0x5c, 0xae, 0x3d, 0x0a, 0xe3, 0x99, 0xbe,
  0xa1, 0xec, 0x2b, 0x3d, 0xbf, 0xf8, 0x1d, 0xbe, 0xd7, 0xe7, 0x09, 0xbe,
  0x89, 0x41, 0x91, 0xbe, 0xf9, 0x90, 0x58, 0xbd, 0x40, 0x3e, 0x77, 0xbd,
  0x5f, 0x54, 0x9c, 0xbe, 0x22, 0x9e, 0xea, 0xbd, 0x40, 0x1a, 0x3b, 0xbe,
  0xe0, 0xd4, 0x57, 0xbe, 0x7b, 0x2b, 0x28, 0xbe, 0x06, 0x2e, 0x02, 0xbd,
  0xbd, 0xfa, 0x00, 0xbd, 0xde, 0xbc, 0x12, 0x3f, 0xff, 0x68, 0xe7, 0xbc,
  0x05, 0xe5, 0x08, 0x3c, 0x45, 0x96, 0xaf, 0x3e, 0xc4, 0x6e, 0xd5, 0x3d,
  0xdd, 0xfc, 0xd6, 0xbd, 0x47, 0x3f, 0x5a, 0x3d, 0x9a, 0xcc, 0x87, 0x3e,
  0x21, 0xa0, 0x50, 0xbd, 0x08, 0x52, 0xe7, 0xbc, 0x78, 0xda, 0x09, 0x3e,
  0xd1, 0xdc, 0x3f, 0x3e, 0xb4, 0x3b, 0xb4, 0x3d, 0x9f, 0x72, 0x69, 0x3e,
  0xaf, 0xaf, 0x6b, 0x3e, 0x8d, 0xd2, 0x23, 0xbc, 0xff, 0x40, 0x53, 0x3e,
  0xf5, 0xe4, 0xa3, 0xbe, 0x32, 0x29, 0xeb, 0x3d, 0x4e, 0x5b, 0x37, 0xbe,
  0x23, 0xfb, 0x3b, 0x3e, 0xe9, 0x97, 0x11, 0x3d, 0x3c, 0xa5, 0xa6, 0xbe,
  0xe9, 0x7e, 0x99, 0xbd, 0x78, 0xf8, 0x76, 0x3d, 0x46, 0x6f, 0xe0, 0xbc,
  0x46, 0x8f, 0x8e, 0x3d, 0x46, 0x6b, 0x2b, 0xbe, 0x0a, 0x83, 0xa4, 0x3e,
  0x17, 0xeb, 0xcc, 0x3d, 0xec, 0xc1, 0x93, 0xbe, 0x6b, 0xfa, 0x92, 0xbe,
  0x9c, 0xca, 0xf0, 0x3e, 0xcb, 0x94, 0x95, 0xbe, 0xca, 0x66, 0x7e, 0xbd,
  0xcb, 0x78, 0x84, 0x3e, 0xc8, 0xd1, 0x42, 0x3e, 0xf8, 0x9c, 0x6b, 0xbe,
  0x6e, 0x07, 0x74, 0x3e, 0xe3, 0xb6, 0x0a, 0xbe, 0x99, 0xdf, 0x0f, 0xbb,
  0xc8, 0x79, 0x9f, 0x3d, 0x99, 0x25, 0x2c, 0xbe, 0xae, 0x78, 0xdc, 0x3d,
  0x26, 0x63, 0xc5, 0x3e, 0xcd, 0xfb, 0x0c, 0xbe, 0xd6, 0x13, 0x40, 0xbe,
  0xf4, 0x1a, 0xa1, 0xbe, 0x46, 0xde, 0x25, 0x3f, 0x7b, 0xf5, 0x6c, 0xbe,
  0xcc, 0x63, 0x07, 0xbf, 0xfc, 0xb7, 0x05, 0x3f, 0x56, 0xbd, 0x13, 0x3f,
  0xb6, 0x9f, 0x09, 0xbe, 0xae, 0x5b, 0xf0, 0x3d, 0x60, 0xda, 0x1b, 0xbb,
  0x20, 0xe7, 0xd4, 0xbb, 0xe9, 0x8b, 0xe9, 0xbc, 0x48, 0x9f, 0x19, 0xbe,
  0x3e, 0xf0, 0xb1, 0xbd, 0x4f, 0xa3, 0x34, 0x3f, 0x62, 0x4b, 0xc4, 0xbe,
  0x6e, 0x11, 0xa1, 0xbe, 0x0c, 0x9e, 0xbc, 0xbe, 0x93, 0x63, 0x7f, 0x3d,
  0x0d, 0x15, 0xb7, 0xbe, 0x47, 0xb6, 0x6b, 0xbd, 0xa0, 0xe4, 0xbf, 0x3e,
  0x80, 0x21, 0xed, 0x3e, 0x9c, 0xec, 0x88, 0xbc, 0x61, 0x10, 0x05, 0x3e,
  0x1c, 0xaf, 0xae, 0xbc, 0x9f, 0x4d, 0xa5, 0x3c, 0x12, 0xa3, 0x03, 0xbe,
  0xe8, 0x40, 0xd7, 0xbe, 0x4b, 0xe0, 0xb3, 0xbb, 0x37, 0xc5, 0x03, 0x3f,
  0x9d, 0xef, 0x00, 0xbf, 0x14, 0xaa, 0x22, 0xbf, 0xa6, 0x6f, 0xf2, 0xbe,
  0x76, 0xc0, 0xdb, 0x3d, 0xd7, 0x41, 0x89, 0xbe, 0xbe, 0x1c, 0x3e, 0x3e,
  0x24, 0x2d, 0x68, 0xbb, 0x97, 0xc6, 0xc3, 0x3e, 0x7f, 0x27, 0xe7, 0x3d,
  0x28, 0x31, 0x8f, 0x3d, 0xfc, 0xe7, 0x35, 0xbe, 0x07, 0xef, 0xeb, 0x3c,
  0x01, 0xb5, 0x03, 0xbe, 0x3b, 0xfc, 0xe3, 0xbd, 0x8a, 0x4c, 0xcd, 0xbc,
  0x91, 0x3f, 0x37, 0x3e, 0x75, 0x8a, 0x2c, 0xbe, 0x9a, 0x04, 0x7a, 0xbe,
  0x73, 0x04, 0x22, 0xbf, 0x77, 0x45, 0x55, 0x3e, 0x84, 0x99, 0xab, 0xbe,
  0x65, 0x0e, 0xe9, 0x3d, 0x14, 0x6d, 0xbb, 0xbd, 0x60, 0xfb, 0x93, 0x3d,
  0xf7, 0xed, 0x51, 0x3e, 0x2e, 0xa6, 0x8e, 0x3d, 0x10, 0xe3, 0xac, 0xbe,
  0x50, 0xbf, 0xed, 0x3c, 0x5e, 0x0d, 0xe5, 0xbb, 0xe2, 0x67, 0x23, 0x3e,
  0x84, 0xc3, 0xbc, 0x3b, 0x80, 0x62, 0x56, 0x3d, 0x2a, 0x70, 0xb3, 0x3d,
  0x47, 0x6b, 0xab, 0xbe, 0x82, 0xfc, 0x21, 0xbf, 0xb4, 0x97, 0xc8, 0x3d,
  0x47, 0x0e, 0xf1, 0x3c, 0x59, 0xd7, 0xa9, 0xbe, 0xd9, 0xc6, 0x5a, 0x3c,
  0xf4, 0x84, 0x3a, 0x3d, 0x21, 0xf7, 0x80, 0xbd, 0x17, 0xa3, 0x14, 0xbe,
  0x9a, 0xef, 0xac, 0xbd, 0x29, 0xb4, 0x8f, 0x3d, 0xd9, 0x21, 0x72, 0x3e,
  0xa4, 0xf7, 0xcc, 0xbc, 0x0e, 0xc3, 0xd9, 0x3d, 0xa0, 0x99, 0x30, 0xbe,
  0x8c, 0x8a, 0xb7, 0x3e, 0x90, 0xc3, 0x00, 0xbf, 0x58, 0xb3, 0xa8, 0xbe,
  0x77, 0xa0, 0x9d, 0xbd, 0x41, 0x3b, 0xea, 0x3d, 0x5d, 0x47, 0x9e, 0x3d,
  0xdd, 0xf2, 0x88, 0x3d, 0xf2, 0xcc, 0x2e, 0x3e, 0x02, 0x03, 0x63, 0xbd,
  0x9a, 0x19, 0xd6, 0x3e, 0xc4, 0x7d, 0x19, 0x3d, 0x02, 0x64, 0xd2, 0xbe,
  0xf6, 0x93, 0x28, 0xbe, 0x6e, 0x1d, 0xc9, 0xbd, 0x76, 0x30, 0x21, 0xbe,
  0x9d, 0x35, 0x5a, 0xbe, 0xc6, 0x70, 0xcb, 0xbd, 0x2e, 0x56, 0x28, 0xbd,
  0xe5, 0x2b, 0x9b, 0xbe, 0x7e, 0x0b, 0x84, 0x3d, 0xc1, 0x32, 0x84, 0x3c,
  0xf7, 0x01, 0x94, 0x3b, 0xb2, 0xcf, 0x39, 0xbd, 0x30, 0x7a, 0x01, 0x3f,
  0x21, 0xd7, 0x74, 0x3e, 0x01, 0xd3, 0x61, 0x3e, 0xd5, 0xab, 0xdf, 0x3d,
  0x54, 0xae, 0xa1, 0xbc, 0x0f, 0xdb, 0x71, 0xbe, 0xff, 0x10, 0xd7, 0xbd,
  0x90, 0xdd, 0x97, 0xbe, 0xb2, 0x10, 0x4f, 0xbe, 0x27, 0x9a, 0x1e, 0xbe,
  0x23, 0x33, 0xbf, 0x3d, 0x58, 0x3a, 0xd5, 0xbe, 0x0b, 0x28, 0x85, 0xbc,
  0x00, 0xcc, 0xbe, 0x3d, 0x1e, 0x10, 0xd4, 0x3d, 0x64, 0xf9, 0x6f, 0x3c,
  0x22, 0xb8, 0x8d, 0x3f, 0x5c, 0xc8, 0xb9, 0x3e, 0x66, 0x86, 0x67, 0x3f,
  0x26, 0x14, 0x2c, 0xbc, 0x1f, 0xd7, 0xb0, 0xbe, 0x7d, 0x01, 0xe2, 0x3c,
  0x80, 0x49, 0x0c, 0xbd, 0xa9, 0x59, 0x3f, 0xbe, 0xa0, 0x0f, 0x56, 0xbe,
  0x5e, 0x50, 0xa6, 0xbe, 0xd7, 0xee, 0x2e, 0x3e, 0xd5, 0x1f, 0x32, 0xbe,
  0x7a, 0xa2, 0xb3, 0x3d, 0x3b, 0x8e, 0x9e, 0x3d, 0x5c, 0x29, 0x02, 0xbe,
  0xde, 0x32, 0xd4, 0xbd, 0xe4, 0x55, 0x31, 0x3f, 0x61, 0x66, 0xb3, 0x3b,
  0x6b, 0x58, 0x95, 0x3d, 0x81, 0x73, 0xee, 0x3d, 0x00, 0x1b, 0xa0, 0xbd,
  0xb6, 0x86, 0x54, 0xbe, 0xa6, 0x68, 0x9b, 0x3d, 0x3d, 0xcb, 0xc8, 0xbd,
  0xba, 0xa0, 0x7f, 0xbe, 0xc7, 0x08, 0x87, 0xbe, 0xbe, 0x4d, 0x2d, 0xbd,
  0xbe, 0x88, 0x59, 0xbe, 0xab, 0x4a, 0x69, 0x3d, 0xe6, 0x7d, 0x03, 0xbe,
  0x37, 0x05, 0x9c, 0xbd, 0x9e, 0x8e, 0xb4, 0xbd, 0xa0, 0xd2, 0xe2, 0x3e,
  0x73, 0x83, 0x8e, 0x3d, 0xde, 0x6c, 0xc2, 0x3e, 0xac, 0xd6, 0x82, 0xbc,
  0x67, 0x3b, 0xd6, 0xbe, 0xa6, 0x10, 0x6b, 0x3d, 0xab, 0xd3, 0x50, 0x3b,
  0xef, 0xda, 0x45, 0xbe, 0x46, 0x57, 0xe3, 0xbd, 0xcc, 0x44, 0x81, 0xbe,
  0x61, 0x7c, 0xc2, 0x3c, 0x6d, 0x2a, 0xdf, 0xbe, 0xf8, 0x0a, 0x00, 0xbe,
  0x6d, 0x46, 0x36, 0x3e, 0x8d, 0x63, 0xf8, 0xbd, 0xc8, 0x55, 0x69, 0xbd,
  0x60, 0xf5, 0x6d, 0x3e, 0x64, 0x6c, 0xd2, 0x3d, 0x06, 0x73, 0x9f, 0x3e,
  0x23, 0x80, 0x0a, 0xbe, 0xec, 0xe2, 0xa3, 0xbe, 0x65, 0xd5, 0x3a, 0xbe,
  0x53, 0x13, 0xa7, 0xbe, 0xb4, 0xe0, 0xa9, 0xbd, 0x2b, 0x1d, 0xb9, 0xbd,
  0x5f, 0xc4, 0x8a, 0x3d, 0xc6, 0xf7, 0x04, 0xbe, 0x32, 0xb2, 0x03, 0xbe,
  0x07, 0xea, 0xa8, 0x3d, 0xc1, 0x29, 0x4c, 0xbc, 0xc9, 0x2c, 0x80, 0xbe,
  0x46, 0xb1, 0x29, 0xbd, 0x3c, 0x62, 0xf2, 0x3e, 0x04, 0x4d, 0x1f, 0x3e,
  0x48, 0xa9, 0xd0, 0x3e, 0xc5, 0x59, 0x63, 0xbe, 0x12, 0x15, 0xb2, 0xbe,
  0x1f, 0x5f, 0x44, 0xbe, 0x9b, 0x1e, 0x7e, 0xbe, 0x1c, 0xa6, 0x84, 0xbe,
  0x44, 0xf9, 0x63, 0xbe, 0xf1, 0x4e, 0x92, 0xbd, 0x2c, 0xff, 0x96, 0x3d,
  0x19, 0x9f, 0x78, 0xbd, 0xe5, 0x6d, 0x9b, 0xbd, 0xeb, 0x4c, 0xc2, 0x3b,
  0xe4, 0x83, 0xda, 0x3e, 0x86, 0xaf, 0x45, 0x3e, 0x44, 0x16, 0x05, 0x3e,
  0xed, 0xa7, 0xb8, 0xbe, 0x64, 0xc1, 0x52, 0x3e, 0x54, 0xc4, 0xbf, 0x3e,
  0x04, 0x33, 0x45, 0x3d, 0x5c, 0x8a, 0xb6, 0x3e, 0x4d, 0x7c, 0x27, 0x3e,
  0x0c, 0x79, 0x9d, 0x3e, 0x7c, 0x38, 0x12, 0x3e, 0xe5, 0xe3, 0x5c, 0x3e,
  0xd6, 0xac, 0xba, 0x3d, 0xe2, 0xb6, 0x0c, 0x3e, 0xe1, 0xd3, 0x49, 0xbe,
  0x04, 0x98, 0x21, 0x3d, 0xc1, 0x28, 0x3a, 0x3e, 0x56, 0xf7, 0x8f, 0x3b,
  0xc0, 0x9d, 0x9b, 0x3d, 0x20, 0x77, 0xb0, 0x3e, 0xac, 0x6e, 0x9a, 0xbd,
  0xbb, 0xe8, 0xb6, 0x3e, 0xf6, 0x38, 0x80, 0x3d, 0xcc, 0xe7, 0x2c, 0xbd,
  0x50, 0x37, 0xa9, 0xbd, 0xf4, 0x89, 0xfe, 0xbb, 0x96, 0xa9, 0x85, 0x3e,
  0x12, 0xdb, 0xfc, 0x3c, 0x30, 0xc5, 0x8f, 0xbd, 0xd0, 0xb8, 0x99, 0x3c,
  0xbd, 0xe1, 0x12, 0x3e, 0xf2, 0xea, 0x2b, 0xbd, 0xfa, 0xb2, 0xbd, 0xbc,
  0x55, 0x9d, 0xae, 0xbe, 0x88, 0x00, 0x9b, 0xbe, 0x9b, 0x3a, 0x0c, 0x3a,
  0xf4, 0x7b, 0xa9, 0xbe, 0xa0, 0x99, 0x39, 0xbe, 0xf7, 0x66, 0xe1, 0xbd,
  0xc6, 0x9c, 0xe8, 0xbd, 0x59, 0xa7, 0xe6, 0xbd, 0xc3, 0x65, 0x81, 0xbe,
  0xac, 0xc8, 0x9e, 0xbd, 0xb6, 0x87, 0xca, 0x3d, 0xfc, 0xa6, 0xde, 0x3d,
  0x33, 0xd1, 0xa9, 0xbd, 0x98, 0xe5, 0x36, 0x3d, 0x6a, 0xcf, 0x26, 0x3c,
  0x88, 0xfd, 0x93, 0xbe, 0x1f, 0x9e, 0xd2, 0xbe, 0x30, 0x57, 0x9c, 0xbe,
  0x91, 0xea, 0xab, 0xbd, 0x1c, 0x0e, 0x49, 0xbe, 0xe4, 0x6d, 0x5c, 0xbe,
  0xb5, 0xac, 0x11, 0xbe, 0x7d, 0xde, 0xad, 0xbe, 0xe1, 0x3d, 0x5b, 0x3e,
  0x36, 0xc5, 0xce, 0xbe, 0xbc, 0x1d, 0xe9, 0x3c, 0xfa, 0xcc, 0x30, 0x3d,
  0x06, 0x79, 0x48, 0x3d, 0x48, 0x97, 0x21, 0xbd, 0x53, 0x16, 0x45, 0xbe,
  0x2a, 0x7b, 0x25, 0xbe, 0x1e, 0xe0, 0x96, 0xbe, 0x18, 0x01, 0xb7, 0xbd,
  0x3b, 0x2f, 0xe4, 0xbe, 0x4f, 0xd5, 0x54, 0xbe, 0xfe, 0x20, 0x06, 0xbe,
  0x19, 0x12, 0x1d, 0xbd, 0x4d, 0x2f, 0x42, 0xbd, 0xec, 0xbd, 0xc7, 0xbd,
  0x32, 0x4a, 0x0e, 0x3e, 0x3e, 0xcb, 0x2b, 0xbe, 0xe7, 0xc9, 0x3f, 0xbe,
  0x5d, 0x4d, 0x86, 0xbd, 0x30, 0x6f, 0x02, 0x3c, 0x6c, 0x10, 0xf8, 0x3c,
  0x22, 0x03, 0x12, 0xbe, 0xc2, 0xbe, 0xd5, 0xbd, 0x14, 0xda, 0x2d, 0xbe,
  0xca, 0x70, 0xe1, 0xbd, 0xb7, 0x66, 0x96, 0xbe, 0x4b, 0xac, 0xf7, 0xbd,
  0x52, 0xb7, 0x09, 0xbe, 0x4e, 0xaf, 0x8d, 0xbe, 0x97, 0x88, 0x97, 0xbd,
  0x83, 0xed, 0xf0, 0xbc, 0xd2, 0x3f, 0x30, 0xbc, 0x0e, 0xae, 0x75, 0xbe,
  0x9c, 0x83, 0xd4, 0xbc, 0x0c, 0x34, 0x60, 0x3d, 0x68, 0xf8, 0x2a, 0x3d,
  0x40, 0x2b, 0xae, 0xbc, 0xc9, 0x30, 0x39, 0xbe, 0x7b, 0x2e, 0xd2, 0xbd,
  0x2c, 0x3d, 0xdb, 0xbd, 0x38, 0x25, 0x30, 0xbe, 0xd3, 0xb8, 0x98, 0xbe,
  0xc9, 0x46, 0x64, 0xbe, 0x86, 0xc5, 0x54, 0x3c, 0x56, 0x9a, 0xe5, 0xbd,
  0xa8, 0xfd, 0x1a, 0xbd, 0xc5, 0x0a, 0xe8, 0xbd, 0xd0, 0x9d, 0x91, 0xbd,
  0x6c, 0x5b, 0x38, 0xbe, 0x31, 0xcc, 0xb4, 0x3c, 0x3a, 0x07, 0xd2, 0xbd,
  0xdc, 0x3b, 0xcf, 0xbd, 0x96, 0xef, 0xda, 0xbb, 0xcd, 0x48, 0xd5, 0x3d,
  0x01, 0xa6, 0x84, 0x3c, 0x9a, 0x07, 0xe9, 0x3a, 0x55, 0x21, 0x94, 0xbb,
  0xc1, 0xab, 0x8f, 0x3c, 0xfb, 0x81, 0x9c, 0x3d, 0x3d, 0xf1, 0x18, 0x3d,
  0x6c, 0xdc, 0xfb, 0xbd, 0x91, 0x22, 0xd2, 0xbe, 0x6c, 0x02, 0x26, 0xbe,
  0x27, 0x9b, 0xa5, 0xbe, 0x62, 0xfc, 0x30, 0xbe, 0x7d, 0x0d, 0x3a, 0xbe,
  0xff, 0x86, 0x42, 0xbe, 0xe7, 0xbd, 0x81, 0xbc, 0xa1, 0x82, 0xbb, 0xbd,
  0x1b, 0xb9, 0x52, 0x3e, 0x23, 0xe8, 0xc2, 0x3c, 0x60, 0x51, 0xfd, 0x3d,
  0xd8, 0xb9, 0x48, 0xbc, 0xb2, 0x0b, 0xca, 0xbd, 0x72, 0x78, 0xcb, 0xbc,
  0x31, 0x35, 0x4b, 0x3e, 0x30, 0xa8, 0xb8, 0xbd, 0x28, 0x00, 0xa8, 0xbe,
  0x5b, 0xe4, 0x80, 0x3e, 0xe2, 0x42, 0xb2, 0xbc, 0x82, 0x1c, 0x09, 0xbe,
  0xae, 0x8a, 0x58, 0xbd, 0xb0, 0x6c, 0x08, 0x3e, 0xb7, 0x63, 0xd6, 0x3e,
  0x36, 0x74, 0x51, 0x3e, 0x5a, 0x38, 0xa5, 0x3e, 0x11, 0xad, 0x85, 0x3e,
  0x9e, 0x0c, 0x33, 0x3e, 0x91, 0xce, 0xdc, 0xbd, 0x47, 0x40, 0x0a, 0xbe,
  0xc3, 0xe8, 0xe6, 0xbd, 0xd0, 0x0b, 0x18, 0x3e, 0x56, 0x52, 0x87, 0x3e,
  0xe6, 0x90, 0xee, 0xbe, 0x43, 0x22, 0x2b, 0xbe, 0x93, 0x40, 0x83, 0x3e,
  0x95, 0xff, 0x91, 0xbe, 0x33, 0xeb, 0x2f, 0x3d, 0x79, 0x73, 0xcd, 0x3d,
  0x6b, 0xc4, 0x59, 0x3e, 0x89, 0x58, 0x06, 0x3e, 0x56, 0x03, 0xbb, 0x3c,
  0x6e, 0x18, 0x83, 0x3e, 0x9d, 0x42, 0x84, 0x3e, 0x17, 0xf8, 0xeb, 0x3d,
  0xff, 0xe6, 0x19, 0x3d, 0xda, 0x31, 0x35, 0x3d, 0xfe, 0x4a, 0x1f, 0xbc,
  0x8d, 0x9f, 0x93, 0x3d, 0x6d, 0x94, 0xa4, 0xbe, 0xb2, 0x68, 0x32, 0x3e,
  0x6c, 0xb4, 0x90, 0xbb, 0x74, 0xe6, 0x29, 0xbe, 0x5f, 0x36, 0x81, 0x3d,
  0x63, 0x7f, 0x8d, 0x3e, 0xf2, 0x9d, 0x4b, 0xbd, 0x8d, 0xaf, 0x82, 0x3e,
  0xaf, 0xec, 0x82, 0x3d, 0x7a, 0xb9, 0xb1, 0x3d, 0xf6, 0xb0, 0xd8, 0x3e,
  0x72, 0x5e, 0x52, 0xbc, 0xcf, 0x7d, 0x84, 0xbe, 0xcb, 0x48, 0x36, 0x3c,
  0x92, 0xb6, 0x4e, 0xbe, 0xc2, 0xcf, 0xa0, 0xbd, 0x04, 0xce, 0xbf, 0xbe,
  0xcc, 0xdf, 0x0f, 0xbe, 0xab, 0x25, 0x16, 0xbd, 0x64, 0x67, 0x0f, 0x3e,
  0xbf, 0x62, 0xaa, 0xbc, 0x54, 0xb4, 0x67, 0xbe, 0x61, 0x3f, 0x47, 0x3e,
  0xd8, 0x9c, 0xd6, 0x3d, 0x10, 0xae, 0xa5, 0xbd, 0x64, 0xb1, 0x26, 0xbe,
  0x7e, 0xa9, 0x26, 0x3e, 0xe2, 0x57, 0x81, 0xbd, 0x6e, 0x58, 0x4d, 0xbe,
  0x45, 0x04, 0xb1, 0x3d, 0x2f, 0x8a, 0x70, 0xbe, 0xad, 0x76, 0xe4, 0x3d,
  0x44, 0x1a, 0x4e, 0xbe, 0x04, 0xc3, 0x52, 0x3d, 0xba, 0xe0, 0x2a, 0x3e,
  0xa0, 0xdf, 0x7c, 0xbe, 0x04, 0xd2, 0xef, 0xbc, 0xdd, 0xa3, 0xf0, 0x3d,
  0x53, 0x61, 0x76, 0x3e, 0x00, 0x4f, 0xf2, 0x3c, 0xe6, 0x7e, 0x8d, 0x3d,
  0x9a, 0xe5, 0xc0, 0x3d, 0xde, 0x6c, 0xad, 0xbe, 0x8f, 0x69, 0x9e, 0xbd,
  0xca, 0xe2, 0x01, 0xbe, 0xd8, 0xe0, 0x5e, 0xbe, 0xa6, 0x43, 0xf0, 0x3d,
  0xbc, 0xfe, 0x3c, 0xbe, 0x49, 0x05, 0x9d, 0xbe, 0x71, 0x2d, 0xb7, 0x3d,
  0xf0, 0x48, 0x24, 0xbe, 0x4a, 0x99, 0x06, 0xbf, 0x79, 0xa3, 0x87, 0xbd,
  0x76, 0xd7, 0xc2, 0xbd, 0x31, 0x69, 0x01, 0x3e, 0x50, 0xdd, 0x15, 0xbc,
  0x36, 0xdc, 0x14, 0x3e, 0xcf, 0xdb, 0x06, 0x3e, 0xcd, 0x7f, 0xc6, 0x3d,
  0xed, 0x06, 0x73, 0xbe, 0x5f, 0xc3, 0x19, 0x3e, 0xd9, 0xe6, 0x79, 0xbe,
  0x16, 0xd3, 0x1b, 0xbd, 0x8c, 0xbe, 0xed, 0xbc, 0x67, 0x96, 0xa2, 0xbe,
  0x43, 0xc7, 0xd3, 0x3c, 0x4c, 0x29, 0xee, 0xbd, 0x4b, 0x66, 0x67, 0xbe,
  0xeb, 0xf4, 0x37, 0xbe, 0x2b, 0xc4, 0x61, 0x3b, 0x80, 0x00, 0x01, 0xbe,
  0x9e, 0xd9, 0xc7, 0xbe, 0x67, 0xa9, 0xc5, 0xbd, 0xcd, 0xde, 0xe4, 0xbd,
  0xf6, 0xdf, 0x07, 0xbe, 0xfc, 0x4d, 0xd3, 0xbd, 0x3c, 0xec, 0xbd, 0x3c,
  0x53, 0x7d, 0xa9, 0x3d, 0xff, 0x43, 0x6c, 0xbd, 0x80, 0x1c, 0xdd, 0xbd,
  0x70, 0x80, 0xa7, 0xbd, 0xf3, 0xdf, 0xbd, 0x3c, 0x8d, 0x3c, 0x21, 0x3e,
  0x04, 0x37, 0x52, 0x3d, 0x40, 0xe2, 0x97, 0x3d, 0x04, 0xda, 0x14, 0x3e,
  0x91, 0xeb, 0x78, 0x3d, 0xcf, 0x43, 0xb2, 0xbe, 0xf4, 0xb0, 0xd2, 0x3d,
  0xf0, 0xa1, 0x5b, 0xbe, 0x0c, 0xf3, 0xa0, 0xbd, 0xac, 0x4d, 0x7f, 0x3c,
  0xa6, 0xbd, 0x33, 0xbe, 0x97, 0xc8, 0x3d, 0x3e, 0x34, 0xab, 0x3e, 0xbe,
  0x90, 0xb4, 0x4e, 0xbd, 0x65, 0x86, 0x05, 0xbe, 0xd3, 0x67, 0x55, 0xbd,
  0x38, 0x1c, 0xe3, 0xbd, 0x56, 0xf1, 0xe2, 0xbb, 0x4f, 0xe8, 0xfe, 0xbd,
  0xe7, 0xa1, 0x5c, 0x3d, 0x50, 0x84, 0xb3, 0xbd, 0xdb, 0x4b, 0x52, 0xbd,
  0xc4, 0x01, 0x15, 0x3e, 0x91, 0x98, 0x85, 0xbd, 0x16, 0x3e, 0x5b, 0xb9,
  0xb1, 0xa2, 0x1b, 0x3e, 0x2e, 0xd5, 0xdc, 0xbd, 0xe7, 0xe9, 0x1f, 0x3d,
  0xad, 0x1a, 0x57, 0xbe, 0xd9, 0xe2, 0x23, 0x3b, 0xbc, 0xff, 0x85, 0xbe,
  0xcc, 0x48, 0x56, 0xbe, 0xd3, 0xc1, 0x29, 0xbe, 0x6f, 0xbd, 0xc0, 0xbd,
  0xfa, 0xe0, 0x43, 0xbd, 0x63, 0xba, 0xdc, 0x3d, 0xa2, 0xb2, 0x12, 0xbd,
  0x6a, 0xa0, 0xb9, 0xbe, 0xdb, 0x89, 0x86, 0x3d, 0x2f, 0xd9, 0x6d, 0xbd,
  0x6f, 0xa7, 0x93, 0x3d, 0x98, 0xc3, 0x37, 0x3d, 0xeb, 0x60, 0x54, 0x3d,
  0x1f, 0xca, 0x8b, 0x3d, 0x01, 0x6a, 0xc5, 0xbd, 0xa2, 0x12, 0x22, 0x3d,
  0x3c, 0x8e, 0x95, 0xbd, 0x4a, 0x37, 0xbf, 0xbd, 0xd9, 0xcb, 0x6b, 0xbe,
  0xdb, 0x26, 0x9e, 0xbd, 0x69, 0xe3, 0xbb, 0xbc, 0xa1, 0x8f, 0x0f, 0xbd,
  0x4b, 0xd0, 0x20, 0xbe, 0x6d, 0xe5, 0xa7, 0xbd, 0x26, 0x3b, 0xa9, 0x39,
  0x62, 0x6e, 0xb1, 0x3d, 0x88, 0xea, 0xb6, 0xbd, 0x50, 0x60, 0x9f, 0x3d,
  0x9a, 0x78, 0x29, 0xbd, 0xde, 0x52, 0x2f, 0xbe, 0x05, 0xa6, 0x06, 0xbe,
  0x2a, 0x81, 0x2d, 0x3d, 0x90, 0x60, 0x43, 0xbe, 0x9d, 0x5e, 0x42, 0xbe,
  0x10, 0xbf, 0xfd, 0xbd, 0x54, 0xa4, 0x7e, 0xbe, 0xf0, 0x19, 0x85, 0x3d,
  0x9a, 0xb7, 0xac, 0xbc, 0x37, 0xff, 0x3a, 0x3d, 0x65, 0x06, 0x8f, 0xbc,
  0x37, 0x3f, 0xc4, 0x3d, 0xa6, 0x6b, 0xb4, 0xbc, 0xc0, 0x7f, 0xf7, 0x3d,
  0x5c, 0x01, 0x9f, 0xbd, 0xd6, 0x82, 0x20, 0xbe, 0x63, 0x07, 0x95, 0xbe,
  0x4c, 0x71, 0x88, 0xbe, 0x27, 0xe7, 0x30, 0xbe, 0x97, 0x2f, 0x0d, 0xbe,
  0x84, 0x39, 0x96, 0x3d, 0x72, 0x63, 0xb4, 0x3d, 0x99, 0xcf, 0x8d, 0xbe,
  0xf5, 0x42, 0xaa, 0xbd, 0x9e, 0x4a, 0x57, 0xbe, 0x04, 0xd8, 0xe3, 0x3d,
  0xff, 0xa9, 0x97, 0xbe, 0x59, 0x91, 0x86, 0x3e, 0x2b, 0x54, 0x47, 0xbd,
  0xfb, 0xc9, 0xb0, 0xbd, 0x8a, 0xca, 0x83, 0xbb, 0xeb, 0xa9, 0xdf, 0xbd,
  0x03, 0xce, 0x8f, 0x3d, 0xd8, 0xe3, 0x2c, 0x3e, 0x5a, 0xad, 0x79, 0xbe,
  0x02, 0xe3, 0xa2, 0xbe, 0xcd, 0x17, 0x77, 0x3c, 0x33, 0x2e, 0x12, 0xbe,
  0x42, 0xb8, 0x67, 0xbe, 0x6e, 0x62, 0xde, 0xbd, 0xfe, 0x34, 0x7a, 0xbb,
  0x3d, 0x26, 0x45, 0x3e, 0xec, 0xad, 0x6c, 0xbe, 0x26, 0x6f, 0x58, 0x3b,
  0x3a, 0x24, 0xd5, 0x3d, 0xef, 0xd5, 0x84, 0x3e, 0x6e, 0x73, 0x8c, 0xbe,
  0xfa, 0xdf, 0x83, 0xbb, 0x94, 0xef, 0x49, 0xbe, 0xdc, 0x04, 0x19, 0xbe,
  0x74, 0xb3, 0xf5, 0x3d, 0x6a, 0x2b, 0x52, 0xbe, 0x50, 0x3c, 0x8d, 0xbe,
  0x19, 0x0f, 0xde, 0x3d, 0xe3, 0x99, 0x96, 0xbd, 0x8f, 0x89, 0x5b, 0xbe,
  0x81, 0x9b, 0x21, 0xbe, 0x32, 0x7b, 0x1e, 0xbe, 0x11, 0x1c, 0x10, 0x3e,
  0x16, 0x1e, 0x27, 0xbd, 0x03, 0x6a, 0x1e, 0x3e, 0xf5, 0x10, 0xa7, 0x3d,
  0xd4, 0x78, 0x62, 0xbd, 0x70, 0xf8, 0xa9, 0xbd, 0x0f, 0x13, 0x27, 0xbd,
  0x05, 0x00, 0x21, 0x3d, 0x8b, 0xf1, 0x57, 0x3e, 0xc5, 0x55, 0x83, 0xbe,
  0x6e, 0x0f, 0x37, 0x3d, 0x3e, 0xff, 0xfe, 0x3d, 0x6a, 0xef, 0x0c, 0xbe,
  0x04, 0xec, 0x4d, 0xbe, 0xea, 0x63, 0xa9, 0xbc, 0x3d, 0x0a, 0x9e, 0x3e,
  0x75, 0x70, 0xc5, 0xbd, 0x61, 0x4e, 0x3a, 0x3e, 0xa7, 0x43, 0xe8, 0x3d,
  0xbc, 0x14, 0xd3, 0x3d, 0x60, 0x76, 0xdd, 0x3d, 0x1b, 0xfb, 0x65, 0x3d,
  0x6c, 0x50, 0x04, 0xbd, 0x2f, 0xa7, 0x73, 0x3e, 0x4d, 0x9e, 0x07, 0xbd,
  0x0f, 0x82, 0xb5, 0xbd, 0x83, 0xdb, 0x72, 0xbe, 0x09, 0xaf, 0xe4, 0xbd,
  0x83, 0x1c, 0xbb, 0xbd, 0x7c, 0xf5, 0x6d, 0xbd, 0x56, 0x3c, 0xf9, 0xbd,
  0xbe, 0x91, 0x2b, 0x3e, 0xeb, 0xa1, 0x99, 0xbd, 0x9f, 0xe0, 0xa6, 0x3d,
  0xca, 0x80, 0x21, 0x3e, 0xa2, 0x9c, 0x8d, 0xbd, 0x22, 0x61, 0x65, 0xbe,
  0x6d, 0x02, 0xbb, 0x3d, 0xb8, 0xfa, 0xa2, 0xbc, 0xf5, 0x20, 0x91, 0xbe,
  0x93, 0xb1, 0x4c, 0x3e, 0x15, 0x04, 0xa9, 0xbe, 0xe2, 0x1d, 0x32, 0xbe,
  0x00, 0x23, 0x30, 0xbd, 0x3a, 0x89, 0x32, 0xbd, 0x17, 0x34, 0x59, 0x3e,
  0xe3, 0xde, 0x02, 0x3e, 0x06, 0x08, 0x01, 0xbe, 0x1f, 0x0a, 0x91, 0x3c,
  0x2c, 0x5d, 0x1c, 0x3d, 0x78, 0x03, 0xd8, 0x3d, 0xd6, 0xb2, 0x59, 0x3e,
  0xe7, 0x06, 0xc5, 0xbd, 0xf3, 0x61, 0x3e, 0xbe, 0x67, 0x06, 0xb9, 0xbd,
  0x96, 0x14, 0x01, 0x3e, 0xff, 0x25, 0x04, 0x3e, 0x5d, 0x9c, 0x3c, 0xbe,
  0x99, 0x76, 0x5f, 0xbe, 0x53, 0x86, 0xf0, 0xbd, 0xa2, 0xa1, 0x47, 0xbe,
  0x16, 0xd3, 0x80, 0x3e, 0x65, 0x7f, 0x32, 0x3e, 0x77, 0xd0, 0x4a, 0x3e,
  0xcf, 0x93, 0xbe, 0xbc, 0xcb, 0x7f, 0x4c, 0xbd, 0xa3, 0x26, 0x12, 0x3e,
  0xa5, 0x52, 0x13, 0xbd, 0xfe, 0x14, 0xbd, 0xbd, 0x39, 0x9d, 0x3c, 0xbe,
  0xf7, 0x1d, 0x81, 0xbe, 0x48, 0xf6, 0xd5, 0x3d, 0xfb, 0xe4, 0x0d, 0xbe,
  0x83, 0xdf, 0x22, 0xbe, 0x80, 0x9f, 0xab, 0xbe, 0x7c, 0xde, 0x2f, 0x3d,
  0x3a, 0x98, 0x4b, 0xbe, 0xb6, 0x8a, 0x48, 0x3d, 0x7c, 0xe4, 0x2e, 0xbd,
  0x33, 0xd5, 0x56, 0x3e, 0x60, 0xd8, 0x29, 0xbe, 0xd7, 0xa9, 0xa5, 0xbe,
  0xa5, 0xc0, 0x5e, 0xbe, 0xc6, 0x9b, 0x52, 0xbd, 0xf4, 0x00, 0x54, 0xbe,
  0x63, 0xc4, 0x8c, 0xbd, 0x65, 0x39, 0xec, 0xbe, 0x3a, 0xce, 0x25, 0xbe,
  0xec, 0x98, 0xf1, 0xbd, 0x07, 0x59, 0x78, 0xbe, 0x59, 0x34, 0xa7, 0xbe,
  0x2e, 0x73, 0x22, 0xbd, 0x43, 0x8a, 0x96, 0xbe, 0x2a, 0x3c, 0xaa, 0xbd,
  0x00, 0xe3, 0xa9, 0x3d, 0x1c, 0x7a, 0x13, 0xbd, 0xc5, 0x3b, 0x0e, 0xbd,
  0xf8, 0x4a, 0x0b, 0xbe, 0xff, 0xa3, 0x61, 0xbd, 0x3b, 0xb2, 0xff, 0xbd,
  0x22, 0xa9, 0x53, 0xbe, 0x43, 0x75, 0x85, 0xbc, 0x2b, 0x7e, 0xb5, 0xbe,
  0x4f, 0x2c, 0x44, 0xbe, 0xda, 0x2a, 0x61, 0xbd, 0xfe, 0x07, 0xb2, 0xbe,
  0x4a, 0xd7, 0xbb, 0xb7, 0xa4, 0x39, 0x9f, 0xbe, 0xe0, 0x31, 0x39, 0xbe,
  0xbc, 0x2e, 0x6d, 0xbe, 0x54, 0x35, 0x5f, 0xbc, 0xe6, 0xcd, 0x4c, 0x3d,
  0x91, 0x65, 0x0a, 0xbd, 0x92, 0x33, 0x34, 0xbe, 0x21, 0x83, 0x5e, 0xbe,
  0x72, 0xb3, 0xdc, 0xbc, 0xe4, 0x31, 0x1c, 0xbe, 0x13, 0x8c, 0xb0, 0x3c,
  0x88, 0x49, 0xa8, 0xbe, 0xf1, 0x5f, 0xe6, 0xba, 0x27, 0xa9, 0x3e, 0xbd,
  0xd7, 0x59, 0x7e, 0xbe, 0xaa, 0x67, 0x55, 0xbd, 0xd2, 0xeb, 0x9d, 0x3d,
  0x57, 0xee, 0x59, 0xbe, 0x5d, 0x3b, 0x57, 0xbc, 0x40, 0x4c, 0xef, 0xbd,
  0xd1, 0x58, 0x04, 0xbc, 0x8d, 0x33, 0xa6, 0x3c, 0x75, 0x26, 0x89, 0xbe,
  0xb5, 0xfe, 0x0e, 0x3d, 0x4f, 0xb9, 0x1b, 0xbc, 0x35, 0xbf, 0x00, 0xbf,
  0x3a, 0x65, 0x8d, 0xbe, 0xe7, 0xde, 0xbf, 0xbe, 0xfd, 0x7c, 0xa3, 0xbe,
  0x29, 0x65, 0xf6, 0xbc, 0xd2, 0xdb, 0xb8, 0xbe, 0x40, 0x67, 0xb5, 0xbe,
  0x6f, 0xa7, 0xe6, 0xbd, 0xff, 0xb3, 0x08, 0xbe, 0x67, 0xb3, 0x33, 0xbe,
  0xeb, 0xa3, 0x3b, 0xbd, 0x31, 0xfc, 0x48, 0xbd, 0x70, 0xac, 0x84, 0x3c,
  0x90, 0xbf, 0xcb, 0x3e, 0x74, 0xf0, 0xa9, 0x3d, 0x9b, 0x3d, 0x35, 0xbe,
  0xfb, 0x1d, 0x02, 0x3e, 0x36, 0x73, 0xfe, 0x3d, 0xfb, 0x1c, 0x99, 0xbc,
  0x8e, 0xb1, 0x31, 0xbe, 0x8d, 0x6b, 0x71, 0x3d, 0xa0, 0x90, 0x24, 0xbe,
  0x9b, 0xfd, 0x23, 0xbe, 0x77, 0xf5, 0x12, 0x3b, 0x6a, 0x14, 0x3d, 0xbe,
  0x26, 0x08, 0xa1, 0xbc, 0xcf, 0x92, 0x6c, 0x3c, 0x9b, 0x22, 0x8d, 0xbc,
  0x56, 0x52, 0xa8, 0xbc, 0xa8, 0x5d, 0x00, 0x3f, 0x69, 0xe8, 0xd9, 0x3d,
  0x15, 0x31, 0x75, 0xbe, 0xdb, 0x86, 0xb0, 0x3e, 0x6e, 0x26, 0x46, 0x3e,
  0xda, 0x19, 0x8d, 0xbd, 0x76, 0x6b, 0xa4, 0x3b, 0x60, 0x92, 0x86, 0x3e,
  0x4f, 0x29, 0x0b, 0xbe, 0xb2, 0xd1, 0xa8, 0xbd, 0x73, 0x45, 0x19, 0x3e,
  0x47, 0xc4, 0x12, 0x3d, 0xaf, 0x55, 0x5a, 0x3e, 0x62, 0xe3, 0x93, 0xbd,
  0x2a, 0x3e, 0xd0, 0xbd, 0x56, 0x8b, 0x37, 0x3e, 0x2c, 0xff, 0xdd, 0x3e,
  0x4a, 0xe9, 0x31, 0x3e, 0x3d, 0xf8, 0x8d, 0x3d, 0xb8, 0x42, 0x66, 0x3e,
  0x88, 0xc2, 0x16, 0x3e, 0x8d, 0x35, 0xf9, 0x3d, 0xad, 0xdf, 0x07, 0xbc,
  0x45, 0xd5, 0x93, 0x3e, 0x3d, 0xc8, 0x7b, 0xbd, 0x51, 0xcb, 0x0e, 0xbe,
  0xe9, 0x85, 0x9c, 0x3e, 0x2c, 0x78, 0x96, 0x3c, 0xb2, 0xef, 0x83, 0x3c,
  0x2a, 0x0f, 0x72, 0x3c, 0xd9, 0x85, 0x06, 0xbe, 0x0c, 0x29, 0xa2, 0x3d,
  0x40, 0xde, 0x54, 0xbe, 0x47, 0xc3, 0x22, 0xbe, 0xc6, 0xea, 0x97, 0x3d,
  0x8b, 0x78, 0x38, 0xbe, 0x5d, 0x71, 0xbb, 0x3e, 0x57, 0xd0, 0x89, 0x3e,
  0x2f, 0xeb, 0xe6, 0x3e, 0x1f, 0x13, 0x45, 0xbd, 0x08, 0xf3, 0x9d, 0xbe,
  0x9b, 0x46, 0x01, 0x3b, 0x76, 0xd7, 0xa7, 0xbc, 0x49, 0x34, 0x07, 0x39,
  0x99, 0xa5, 0x2b, 0xbe, 0xef, 0xf4, 0xb3, 0x3d, 0xdf, 0x5a, 0xe6, 0xbd,
  0x71, 0x14, 0x2a, 0xbe, 0x48, 0xbe, 0x88, 0xbd, 0x51, 0x27, 0x60, 0xbe,
  0x95, 0x01, 0x82, 0x3c, 0x8c, 0x26, 0x1d, 0xbe, 0x6a, 0xbf, 0x80, 0x3f,
  0xbd, 0x57, 0xcd, 0xbd, 0x69, 0xa0, 0xdb, 0x3e, 0x41, 0x74, 0x7d, 0xbd,
  0xd7, 0xdf, 0x97, 0xbe, 0xce, 0x88, 0x8e, 0xbd, 0xd8, 0x7f, 0x16, 0x3e,
  0x9a, 0xaa, 0x60, 0xbe, 0xcf, 0x44, 0x35, 0x3e, 0x12, 0xcd, 0xbc, 0x3d,
  0x22, 0x77, 0x04, 0x3e, 0x99, 0x41, 0xd3, 0xbd, 0x65, 0x56, 0x3e, 0x3d,
  0x27, 0xea, 0x95, 0xbc, 0x7b, 0xc7, 0x08, 0xbe, 0x9a, 0x65, 0xd8, 0xbd,
  0x7a, 0xd0, 0x43, 0x3f, 0x3a, 0xbe, 0x37, 0x3e, 0x4a, 0xe5, 0x02, 0x3f,
  0x61, 0x3f, 0xf8, 0x3d, 0x10, 0xee, 0xcb, 0xbe, 0x85, 0x7e, 0xa8, 0xbb,
  0xda, 0xde, 0x16, 0x3e, 0xdb, 0x16, 0x3a, 0x3d, 0x30, 0x5c, 0xb2, 0xbc,
  0x5b, 0x78, 0x04, 0xbd, 0x39, 0xb4, 0xd7, 0x3e, 0xe1, 0xb6, 0xa3, 0xbe,
  0xd5, 0x45, 0x3a, 0x3e, 0x9c, 0x88, 0x63, 0x3d, 0x0d, 0x4d, 0x0e, 0xbd,
  0xd8, 0xc9, 0xe3, 0xbd, 0xa9, 0xc9, 0x26, 0x3f, 0x16, 0x23, 0x0f, 0x3e,
  0x86, 0x40, 0x9b, 0x3e, 0x30, 0xaf, 0xba, 0x3d, 0xb0, 0xf2, 0x83, 0xbe,
  0x70, 0x32, 0x85, 0xbe, 0xe3, 0xfa, 0x1d, 0xbe, 0x39, 0xdc, 0x8e, 0xbb,
  0xf0, 0xf6, 0x82, 0x3d, 0xee, 0x68, 0xf4, 0xbd, 0x23, 0x56, 0xf2, 0x3e,
  0xdd, 0xbb, 0x25, 0xbe, 0x45, 0x25, 0xb3, 0x3d, 0x56, 0xaf, 0xb4, 0xbd,
  0xbd, 0x84, 0x16, 0x3e, 0x28, 0x1d, 0xbf, 0x3b, 0xcb, 0x39, 0x12, 0x3f,
  0x93, 0x68, 0x11, 0xbd, 0xcb, 0xb8, 0x88, 0x3e, 0x0e, 0x24, 0x77, 0xbd,
  0x71, 0x7c, 0xcd, 0x3c, 0xae, 0xf1, 0x06, 0xbe, 0xda, 0xa9, 0xfd, 0xbc,
  0xf5, 0x87, 0xd5, 0xbc, 0x72, 0xe2, 0x27, 0xbd, 0x96, 0xa4, 0x02, 0xbe,
  0x61, 0x6a, 0x72, 0x3e, 0xd0, 0xb2, 0x9a, 0xbd, 0x58, 0x6b, 0xf2, 0x3d,
  0xae, 0x1b, 0x82, 0xbd, 0xc4, 0xda, 0x5b, 0x3d, 0x73, 0xd5, 0xfc, 0xbc,
  0x17, 0x7f, 0x10, 0x3e, 0x79, 0x5a, 0xa7, 0xbc, 0x04, 0x6a, 0xb2, 0x3e,
  0xa0, 0x90, 0xa1, 0x3c, 0xc5, 0x18, 0x90, 0xbe, 0x2b, 0xa5, 0x81, 0xbe,
  0x69, 0x77, 0x4a, 0xbe, 0xb5, 0xfa, 0xa5, 0xbd, 0xce, 0x17, 0xb6, 0x3c,
  0x6c, 0x5a, 0x26, 0xbe, 0x30, 0xa1, 0x8c, 0xbd, 0x53, 0x19, 0x86, 0xbe,
  0x0c, 0x33, 0x0c, 0xbe, 0x92, 0xc0, 0x07, 0xbc, 0xfd, 0x98, 0x26, 0xbe,
  0xac, 0x9e, 0xbd, 0x3d, 0x46, 0x2b, 0x9b, 0x3c, 0xa3, 0x95, 0x0d, 0xbe,
  0xbc, 0xdb, 0xd1, 0x3e, 0xf3, 0xa9, 0x09, 0xbe, 0x2b, 0xea, 0x69, 0xbe,
  0x8d, 0x71, 0x1c, 0xbe, 0x82, 0xa2, 0x3e, 0xbd, 0x06, 0x6c, 0x81, 0xbe,
  0xae, 0x1d, 0x13, 0xbc, 0x6a, 0xb3, 0x36, 0xbe, 0xdc, 0x55, 0x25, 0x3e,
  0xa6, 0x32, 0xb3, 0xbd, 0x0b, 0xb1, 0x28, 0xbe, 0x47, 0xc3, 0x86, 0xbe,
  0x1f, 0xe8, 0x0d, 0x3e, 0x2c, 0xc3, 0x1a, 0x3e, 0x07, 0x73, 0x8c, 0x3e,
  0xa2, 0xe3, 0xb1, 0xbe, 0x58, 0x56, 0x62, 0xbe, 0xb9, 0xa3, 0x6b, 0x3e,
  0x8c, 0x98, 0x49, 0x3d, 0xd9, 0xc8, 0x94, 0xbd, 0x65, 0x93, 0x45, 0xbe,
  0x2f, 0x2b, 0xe9, 0x3d, 0x78, 0x06, 0xae, 0x3e, 0xdd, 0x03, 0x19, 0xbe,
  0x14, 0x0c, 0x00, 0x3e, 0x0c, 0xab, 0x28, 0x3e, 0x61, 0x59, 0x21, 0x3e,
  0xca, 0xdc, 0x1e, 0xbd, 0xfc, 0xd8, 0xae, 0x3e, 0x28, 0x77, 0xde, 0xbd,
  0x53, 0x11, 0xb5, 0x3d, 0x2b, 0xed, 0xb8, 0xbd, 0x9f, 0xf9, 0xde, 0xbc,
  0x83, 0xf7, 0xaf, 0xbd, 0xa5, 0xd4, 0x05, 0xbe, 0x9e, 0x5e, 0x3e, 0x3d,
  0x61, 0x39, 0x3c, 0xbe, 0x4b, 0xbf, 0x85, 0x3e, 0x4f, 0x43, 0x75, 0x3d,
  0xfb, 0x87, 0x2c, 0xbe, 0x49, 0x23, 0x2e, 0xbe, 0x38, 0x8b, 0xc6, 0xbc,
  0x21, 0x61, 0x98, 0x3d, 0x53, 0x4a, 0x6f, 0xbe, 0x72, 0xdf, 0x23, 0x3d,
  0xf6, 0x4b, 0x2f, 0xbe, 0x60, 0x21, 0x86, 0xbe, 0xdb, 0x89, 0x2f, 0xbe,
  0x9b, 0xfc, 0x26, 0x3c, 0x5b, 0xf9, 0xa3, 0x3d, 0xe0, 0x1f, 0x5b, 0xbe,
  0xf8, 0x20, 0x36, 0xbe, 0xe5, 0xda, 0x54, 0xbe, 0xa5, 0xff, 0x92, 0xbe,
  0x20, 0x61, 0x3c, 0xbe, 0x16, 0x50, 0x60, 0x3d, 0x2e, 0xea, 0x42, 0xbd,
  0x0d, 0x04, 0xd5, 0xbd, 0xcc, 0xb6, 0x53, 0x3e, 0xc7, 0x32, 0xfd, 0xbd,
  0x88, 0xbe, 0x20, 0xbe, 0x09, 0x4d, 0x26, 0xbe, 0xc5, 0xbf, 0x41, 0xbe,
  0x87, 0x61, 0x34, 0xbe, 0x30, 0x7b, 0x95, 0xbe, 0x83, 0xe2, 0x2f, 0xbd,
  0xe2, 0x75, 0x86, 0xbe, 0x1d, 0x1b, 0x84, 0xbd, 0x25, 0x02, 0x99, 0xbc,
  0xd2, 0x0e, 0xdf, 0xbe, 0x0e, 0x59, 0x45, 0xbe, 0x74, 0x90, 0x87, 0xbd,
  0x2f, 0x95, 0x01, 0x3e, 0xad, 0xd1, 0x00, 0xbe, 0x2f, 0xd0, 0xf5, 0x3d,
  0xff, 0xe0, 0x30, 0xbb, 0x3e, 0xfa, 0xec, 0xbe, 0x9d, 0x37, 0x2c, 0x3e,
  0xec, 0x4f, 0x71, 0x3e, 0x5a, 0xab, 0xae, 0xbd, 0xa9, 0xbe, 0xc7, 0x3d,
  0x31, 0x18, 0x87, 0x3e, 0x1c, 0x5b, 0x3b, 0xbe, 0xc8, 0xb8, 0xc1, 0xbd,
  0x56, 0xa4, 0x2b, 0xbe, 0x65, 0x54, 0x31, 0xbe, 0xa4, 0x20, 0x88, 0x3e,
  0x0a, 0xb8, 0xea, 0xbd, 0xd5, 0xac, 0x0b, 0x3e, 0x71, 0x8b, 0x97, 0xbd,
  0xbe, 0x04, 0xc2, 0x3e, 0x68, 0x7d, 0x86, 0xbc, 0xc7, 0x66, 0xf9, 0x3d,
  0xdb, 0x88, 0x68, 0x3e, 0x60, 0x08, 0xbe, 0x3e, 0x7d, 0x39, 0xae, 0xbd,
  0x34, 0x51, 0x52, 0x3e, 0x62, 0xd0, 0x81, 0x3e, 0x34, 0x2e, 0x10, 0xbd,
  0xa7, 0xb0, 0xb4, 0xbd, 0xac, 0x16, 0x76, 0x3a, 0x0c, 0x13, 0x99, 0x3d,
  0xdd, 0xdc, 0x2c, 0x3e, 0xbb, 0xc4, 0x94, 0xbe, 0x5b, 0x9a, 0xbd, 0x3d,
  0x3e, 0x58, 0x83, 0x3d, 0x33, 0x3b, 0x98, 0x3d, 0x9c, 0x5a, 0xfa, 0xbd,
  0x67, 0x13, 0xbb, 0xbc, 0x58, 0x5a, 0x3b, 0x3c, 0xc1, 0xa5, 0x61, 0xbe,
  0x99, 0x9e, 0x4e, 0x3d, 0xd0, 0x96, 0x0d, 0xbe, 0x5c, 0x52, 0x9c, 0x3d,
  0x2f, 0xa8, 0x41, 0xbd, 0x65, 0xe9, 0x3c, 0xbe, 0x48, 0xcf, 0x78, 0xbe,
  0xba, 0x07, 0xd3, 0xbd, 0x3e, 0x47, 0x95, 0xbe, 0xc6, 0x15, 0x4f, 0xbe,
  0xf0, 0x10, 0x2c, 0xbe, 0xa4, 0x66, 0xa3, 0xbc, 0xf6, 0x68, 0x8a, 0x3e,
  0xeb, 0x18, 0x43, 0xbe, 0xdb, 0xc2, 0xc7, 0xbd, 0x85, 0xe1, 0x2b, 0xbe,
  0x47, 0x98, 0x16, 0xbe, 0xd4, 0xa2, 0xac, 0x3e, 0x08, 0x27, 0xa8, 0xbe,
  0x21, 0xdd, 0x1a, 0xbd, 0x17, 0xd6, 0x36, 0xbd, 0x6a, 0xe6, 0x5c, 0x3e,
  0x27, 0xab, 0xa3, 0x3e, 0x2f, 0xc0, 0x37, 0xbd, 0x8c, 0x58, 0x3d, 0x3e,
  0x87, 0xe2, 0x6e, 0x3e, 0x06, 0x60, 0xb2, 0xbe, 0xe0, 0x4a, 0xe4, 0xbe,
  0x0c, 0xaf, 0x90, 0x3e, 0x72, 0xc5, 0x2b, 0xbe, 0x1a, 0x4e, 0x4f, 0xbe,
  0x5f, 0xc9, 0x3a, 0x3e, 0x23, 0x48, 0xb5, 0x3e, 0xb9, 0x33, 0xec, 0x3c,
  0x76, 0x27, 0x9c, 0x3d, 0x08, 0x81, 0x9a, 0xbe, 0x91, 0xd3, 0x06, 0xbd,
  0xaa, 0x64, 0x84, 0x3e, 0x2d, 0x9c, 0x34, 0x3e, 0x87, 0xcc, 0x40, 0x3e,
  0x09, 0x75, 0x72, 0x3e, 0x27, 0x61, 0x22, 0x3e, 0xd9, 0xdd, 0x33, 0xbe,
  0xb6, 0xd0, 0x94, 0xbe, 0x5f, 0x59, 0x2e, 0x3d, 0xd5, 0x4d, 0x9d, 0xbd,
  0xe2, 0x6b, 0x82, 0xbe, 0x98, 0x17, 0xa1, 0x3e, 0x86, 0xd9, 0x11, 0x3f,
  0x0f, 0x2e, 0x91, 0xbe, 0x32, 0x89, 0xd4, 0x3e, 0x3f, 0x52, 0x5c, 0xbc,
  0x07, 0x21, 0xa1, 0x3c, 0x53, 0xfe, 0xa6, 0x3e, 0x69, 0x82, 0xd4, 0xbd,
  0xef, 0x55, 0x87, 0x3c, 0x6f, 0x91, 0x00, 0x3f, 0x02, 0x4d, 0xf4, 0xbd,
  0x8b, 0xda, 0xa5, 0xbe, 0xf0, 0xa5, 0x36, 0xbe, 0x95, 0xe7, 0x46, 0xbe,
  0x4e, 0x8d, 0x4c, 0xbe, 0xbe, 0xb8, 0xbb, 0xbd, 0x76, 0x50, 0x47, 0x3e,
  0x3b, 0x74, 0x10, 0x3f, 0xa8, 0xa2, 0x0f, 0xbe, 0xed, 0xbf, 0x32, 0x3e,
  0x29, 0xf6, 0x20, 0xbe, 0x67, 0x12, 0x7a, 0x3d, 0x4c, 0x0c, 0xaa, 0xbd,
  0xfd, 0x71, 0x9e, 0xbe, 0x24, 0xd6, 0x72, 0xbd, 0xa4, 0xb2, 0x40, 0x3e,
  0xf0, 0xf1, 0x90, 0xbe, 0x8b, 0x8a, 0x93, 0xbe, 0x90, 0x5a, 0xa3, 0xbe,
  0xd4, 0xb9, 0x9c, 0x3d, 0xe4, 0xc2, 0x41, 0xbe, 0x3e, 0x0e, 0x3b, 0x3e,
  0x65, 0xd4, 0x25, 0x3e, 0xc2, 0x6d, 0x01, 0x3f, 0x1a, 0x8e, 0x9c, 0x3d,
  0xb6, 0x67, 0x8e, 0x3d, 0x8d, 0xbf, 0xe1, 0xbd, 0xcc, 0x9b, 0xb0, 0xbc,
  0x6b, 0x64, 0x21, 0xbe, 0x37, 0xc4, 0x80, 0xbe, 0x13, 0x70, 0xfc, 0xbd,
  0x77, 0x92, 0x41, 0xbe, 0x5b, 0x8c, 0x3a, 0xbe, 0x8a, 0xc4, 0xb3, 0xbd,
  0x7f, 0xdc, 0x32, 0xbe, 0xe1, 0xbf, 0xc1, 0x3e, 0xea, 0x3e, 0x16, 0xbe,
  0x4a, 0xe2, 0x3e, 0x3d, 0x97, 0x94, 0x2f, 0xbe, 0x4a, 0xe9, 0x9c, 0x3d,
  0xbd, 0xb7, 0x32, 0x3e, 0x52, 0x82, 0x0a, 0xbe, 0x87, 0xc0, 0x83, 0x3d,
  0x04, 0xd2, 0xa6, 0x3d, 0x2d, 0x22, 0xad, 0xbe, 0xda, 0xe9, 0x95, 0xbd,
  0x3b, 0x82, 0x8d, 0x3d, 0x3e, 0xde, 0x26, 0xbe, 0x35, 0x61, 0x10, 0xbe,
  0x17, 0x1f, 0xa9, 0xbe, 0x34, 0x7b, 0x9f, 0xbe, 0x42, 0xe6, 0x1e, 0xbe,
  0x0e, 0x5d, 0x2e, 0xbe, 0x5b, 0x99, 0x41, 0xbd, 0x65, 0xd2, 0x3d, 0xbc,
  0x5d, 0x3f, 0xda, 0xbc, 0x06, 0xeb, 0x27, 0xbd, 0x51, 0xb3, 0x0a, 0xbe,
  0x25, 0xf6, 0xfc, 0xbd, 0x87, 0x5c, 0x16, 0xbd, 0xbc, 0x40, 0x46, 0x3d,
  0x53, 0x2e, 0xa0, 0x3c, 0xad, 0x34, 0x90, 0x3d, 0x75, 0xf9, 0xde, 0xbd,
  0xe2, 0xba, 0x8b, 0x3e, 0xc7, 0x47, 0xd3, 0xbe, 0x04, 0x48, 0xb5, 0xbe,
  0x5b, 0xfd, 0x8c, 0x3e, 0xca, 0x55, 0x34, 0xbe, 0x70, 0x37, 0x7c, 0x3e,
  0x2b, 0xa7, 0x8a, 0xbe, 0x98, 0x53, 0xa6, 0x3d, 0x60, 0x6e, 0x7b, 0x3e,
  0x2c, 0x01, 0xf5, 0xbe, 0x06, 0x2b, 0x37, 0xbe, 0xd6, 0xff, 0x58, 0x3d,
  0x1c, 0x11, 0x76, 0x3e, 0xd8, 0x12, 0x2c, 0x3e, 0x42, 0x9d, 0x0a, 0x3e,
  0x38, 0x99, 0x92, 0x3e, 0xb1, 0xa2, 0x4b, 0x3e, 0x84, 0xf1, 0x9f, 0xbe,
  0xc9, 0x7b, 0xd8, 0xbe, 0x2b, 0x7c, 0xe7, 0x3e, 0xff, 0x61, 0xdf, 0xbd,
  0x30, 0x92, 0x06, 0xbf, 0xf9, 0xb3, 0xbe, 0x3e, 0xa7, 0xf9, 0xb1, 0x3e,
  0x1f, 0x11, 0x4e, 0x3d, 0xa5, 0x1b, 0x09, 0x3e, 0xc3, 0xfb, 0x9b, 0xbe,
  0xd0, 0x86, 0xb8, 0xbb, 0xc9, 0x4e, 0xcd, 0x3e, 0x32, 0x8c, 0x4c, 0x3e,
  0x47, 0x64, 0x46, 0x3e, 0xc0, 0x54, 0xa6, 0x3e, 0x73, 0xc1, 0x38, 0x3e,
  0x65, 0x47, 0x23, 0xbc, 0xfa, 0x85, 0xac, 0xbe, 0xf7, 0x9a, 0x27, 0x3f,
  0x85, 0x99, 0x52, 0xbd, 0x92, 0x47, 0xb1, 0xbe, 0x5f, 0xfd, 0xce, 0x3e,
  0x26, 0x0c, 0xbc, 0x3e, 0x2b, 0xff, 0x8c, 0x3d, 0xed, 0xd3, 0xb1, 0xbc,
  0xf1, 0x6b, 0xfb, 0x3d, 0xf0, 0xfe, 0xde, 0x39, 0x2b, 0x8e, 0x23, 0x3e,
  0xb7, 0xc7, 0xd3, 0x3d, 0x20, 0x93, 0x20, 0x3e, 0x71, 0x5a, 0x0b, 0x3f,
  0xa5, 0xe4, 0x77, 0xbc, 0x5d, 0x2d, 0x8a, 0xbe, 0x5b, 0x69, 0xa1, 0xbe,
  0xcb, 0x6e, 0xa9, 0x3e, 0xd5, 0x6c, 0x15, 0xbe, 0x34, 0xf5, 0xf6, 0x3d,
  0x8c, 0x2a, 0x8a, 0x3e, 0xf1, 0xe9, 0x06, 0x3f, 0x8d, 0x5e, 0xbd, 0x3d,
  0x00, 0xfa, 0x7e, 0x3e, 0x50, 0x41, 0x69, 0xbe, 0xfd, 0xd0, 0x24, 0xbb,
  0x2d, 0x8e, 0x12, 0xbd, 0x34, 0x40, 0x86, 0x3d, 0xd2, 0xc8, 0x39, 0xbd,
  0x9f, 0x69, 0xbd, 0x3e, 0x94, 0x48, 0x54, 0xbc, 0x53, 0xb5, 0x6c, 0xbe,
  0xff, 0xcf, 0x9f, 0xbe, 0xf3, 0x44, 0x1c, 0x3e, 0xf9, 0xae, 0xf2, 0xbd,
  0x10, 0xee, 0x12, 0x3e, 0xbe, 0x0b, 0x41, 0x3e, 0xa2, 0xdd, 0xa0, 0x3e,
  0xb1, 0xed, 0x5d, 0x3d, 0x84, 0x32, 0x27, 0x3e, 0xc9, 0x0f, 0x7d, 0xbe,
  0x97, 0xe0, 0x03, 0xb9, 0x90, 0xe3, 0xb4, 0x3d, 0xd4, 0xc3, 0xa0, 0xbc,
  0x99, 0xc9, 0xbb, 0x3d, 0xf2, 0x9e, 0x16, 0x3e, 0x0b, 0xbd, 0x5b, 0xbd,
  0xb1, 0xbd, 0x91, 0xbe, 0xbd, 0x56, 0xd3, 0xbe, 0x0d, 0x6d, 0x6a, 0xbd,
  0x97, 0x04, 0xdd, 0xbd, 0x6f, 0xd9, 0xea, 0x3d, 0x75, 0x61, 0x2b, 0x3e,
  0x42, 0xea, 0x4d, 0x3e, 0x1c, 0xba, 0xbf, 0xbd, 0x3d, 0x7b, 0x61, 0x3e,
  0x2d, 0x8a, 0x07, 0xbe, 0x5b, 0xb3, 0x61, 0xbc, 0xc2, 0xfa, 0x81, 0xbc,
  0x05, 0x23, 0x4f, 0xbe, 0x1d, 0xb4, 0xe9, 0xbd, 0x21, 0x6a, 0x79, 0x3e,
  0x1f, 0x82, 0xf7, 0xbd, 0x79, 0xa1, 0xa3, 0xbe, 0xcc, 0xab, 0xb1, 0xbe,
  0xcc, 0x15, 0xaa, 0x3e, 0x7d, 0x78, 0x8a, 0xbe, 0xa8, 0x32, 0x92, 0xbd,
  0x8b, 0x3e, 0x47, 0xbd, 0x33, 0xfe, 0x34, 0xbe, 0x53, 0x73, 0xcd, 0xbc,
  0xae, 0x1b, 0x38, 0xbe, 0xca, 0x84, 0x11, 0xbc, 0xf3, 0x9f, 0xa7, 0xbc,
  0x78, 0x3b, 0x14, 0xbe, 0x04, 0xc1, 0x34, 0xbe, 0x51, 0x5d, 0x02, 0xbe,
  0x99, 0x9d, 0x39, 0xbe, 0x60, 0xb6, 0x54, 0xbe, 0x35, 0x4c, 0xf8, 0xbd,
  0xde, 0x59, 0x07, 0xbd, 0x4e, 0xad, 0x85, 0xbe, 0x1c, 0x55, 0x53, 0x3c,
  0xf5, 0xeb, 0x68, 0xbd, 0xbc, 0x67, 0xef, 0xbc, 0xdc, 0x39, 0xba, 0x3e,
  0x1f, 0x29, 0x87, 0x3d, 0xe7, 0x96, 0x0f, 0x3e, 0x82, 0xcf, 0x4b, 0xbe,
  0x43, 0xe4, 0x96, 0xbe, 0xec, 0xdd, 0x5b, 0xbe, 0xdb, 0x09, 0x00, 0xbe,
  0xd3, 0x7c, 0x7e, 0xbe, 0x93, 0xaf, 0x33, 0xbe, 0xc6, 0xaa, 0xec, 0xbd,
  0xa2, 0xca, 0x62, 0x3d, 0x68, 0x56, 0xbf, 0xbe, 0x1a, 0x68, 0xd2, 0xbd,
  0x19, 0x9b, 0xe1, 0xba, 0x24, 0x38, 0x8d, 0xbd, 0xd9, 0x2c, 0x87, 0xbe,
  0x3e, 0x7c, 0x96, 0x3e, 0x8d, 0xba, 0x1e, 0x3d, 0xe2, 0xb2, 0x2e, 0x3e,
  0xb7, 0x04, 0x35, 0x3d, 0xbb, 0x6c, 0xad, 0xbe, 0xd5, 0xd8, 0x1a, 0xbe,
  0x4b, 0x6f, 0x75, 0x3c, 0x72, 0x4f, 0x1a, 0xbe, 0x73, 0xc7, 0xd3, 0xbd,
  0x52, 0x7e, 0x94, 0xbe, 0xc5, 0xa2, 0xcc, 0xbd, 0x96, 0xe7, 0x8e, 0xbe,
  0xcd, 0x59, 0xa9, 0x3d, 0xf8, 0x54, 0x3f, 0x3c, 0x67, 0x67, 0x46, 0x3e,
  0x75, 0x00, 0x25, 0xbe, 0x49, 0x1a, 0x1f, 0x3f, 0xad, 0x15, 0x97, 0x3d,
  0xd8, 0x11, 0xbc, 0x3e, 0x4d, 0x14, 0x9d, 0xbc, 0x12, 0x27, 0x7f, 0xbe,
  0x89, 0x96, 0x9d, 0x3c, 0x60, 0x04, 0xd8, 0xbc, 0x58, 0x3e, 0x86, 0xbd,
  0x45, 0x38, 0x3e, 0x3c, 0xb0, 0x9c, 0xac, 0x3a, 0x7a, 0xf6, 0x56, 0xbe,
  0x95, 0x0f, 0x3a, 0xbe, 0x0f, 0x8e, 0xce, 0x3d, 0x6f, 0xc2, 0xb8, 0x3d,
  0xf2, 0xea, 0xc7, 0x3b, 0x0d, 0x0d, 0x52, 0xbe, 0xb8, 0xba, 0x55, 0x3f,
  0x4d, 0xbb, 0x8d, 0x3d, 0xdf, 0xcf, 0x73, 0x3e, 0xe3, 0x72, 0x9c, 0xbd,
  0x72, 0x01, 0xef, 0xbd, 0x9b, 0xbd, 0x87, 0xbe, 0x8d, 0xe3, 0x2e, 0xbc,
  0xa7, 0x07, 0x6a, 0xbd, 0x3b, 0x49, 0x1f, 0x3d, 0xec, 0xb1, 0x42, 0xbe,
  0xf8, 0x3f, 0x5f, 0x3c, 0xa0, 0x3f, 0xe2, 0xbc, 0x0e, 0x5d, 0xb7, 0xbd,
  0xf6, 0xd1, 0x1f, 0x3e, 0xde, 0x87, 0x6d, 0xbc, 0x3c, 0xdb, 0x78, 0xbb,
  0xf2, 0x7d, 0x92, 0x3e, 0x2e, 0x29, 0x1c, 0xbe, 0xd6, 0x0f, 0xad, 0x3e,
  0x5d, 0x72, 0x28, 0xbe, 0x2d, 0xde, 0xe8, 0xbd, 0xff, 0x27, 0x5c, 0x3b,
  0xe5, 0x9b, 0xfd, 0x3c, 0xd4, 0x1b, 0xf0, 0xbd, 0xe7, 0xf6, 0x72, 0xbe,
  0x79, 0xeb, 0x2f, 0xbe, 0xde, 0xe0, 0x54, 0xbe, 0x45, 0xb6, 0x1a, 0xbc,
  0xad, 0xa7, 0x5f, 0xbe, 0x93, 0x93, 0x7d, 0x3c, 0x92, 0x82, 0x07, 0xbe,
  0x63, 0x1c, 0x8f, 0xbe, 0x53, 0x20, 0x0a, 0x3f, 0x6b, 0xa2, 0xa6, 0x3d,
  0xdc, 0x4d, 0x2a, 0x3d, 0xde, 0x6c, 0x32, 0x3d, 0x63, 0xe4, 0xc8, 0xbe,
  0x26, 0x5f, 0x16, 0xbe, 0xa9, 0xf3, 0x2d, 0xbe, 0x65, 0xc1, 0x89, 0xbe,
  0xba, 0x60, 0xb0, 0xbd, 0xbe, 0xc4, 0x30, 0xbe, 0x1d, 0xfe, 0xaa, 0xba,
  0x87, 0x11, 0x77, 0xbe, 0x2c, 0x2a, 0x48, 0xbd, 0xf8, 0x70, 0xdd, 0x3d,
  0xe1, 0x55, 0x79, 0xbe, 0xd5, 0xd7, 0x89, 0xbe, 0xfb, 0xc0, 0xd5, 0x3e,
  0x47, 0x89, 0xa2, 0x3c, 0xa1, 0x16, 0xf8, 0x3d, 0xf1, 0xe5, 0x27, 0xbe,
  0x5a, 0x0f, 0x8f, 0xbe, 0x5d, 0x2b, 0x39, 0xbe, 0xe3, 0x24, 0xfe, 0xbd,
  0xf9, 0xd4, 0xc5, 0xbe, 0xf0, 0x4e, 0x90, 0xbe, 0x6e, 0x01, 0x46, 0xbd,
  0xb1, 0xd0, 0xe1, 0xbc, 0x2b, 0x94, 0x5f, 0xbe, 0xbc, 0x3c, 0xb2, 0x3d,
  0xbe, 0x00, 0x01, 0x3e, 0xbc, 0xbe, 0x20, 0xbe, 0xb5, 0x0d, 0x9b, 0xbd,
  0x86, 0x86, 0x0f, 0xbf, 0x1e, 0xc4, 0xc4, 0xbe, 0x84, 0x71, 0x95, 0x3e,
  0xd4, 0x2c, 0xa7, 0xbe, 0x22, 0xfc, 0x34, 0x3d, 0x80, 0x9c, 0xb0, 0xbe,
  0xd0, 0xd8, 0x81, 0xbe, 0x57, 0xb6, 0xb5, 0xbc, 0x00, 0x28, 0x06, 0xbf,
  0xb1, 0xed, 0xfd, 0xbe, 0xdf, 0x35, 0x1d, 0x3e, 0x9e, 0xb2, 0x1b, 0x3d,
  0xba, 0xdc, 0x0b, 0x3e, 0xb9, 0xa3, 0xb0, 0x3e, 0x35, 0xee, 0x13, 0x3b,
  0x5a, 0x52, 0x19, 0xba, 0x51, 0x9b, 0x2b, 0xbe, 0x77, 0x0a, 0xe3, 0xbe,
  0x2a, 0x0c, 0x88, 0x3d, 0x0c, 0x20, 0x47, 0x3e, 0x86, 0x91, 0x33, 0x3d,
  0xfd, 0x96, 0x53, 0xbd, 0xba, 0xa9, 0xd2, 0x3d, 0xda, 0x51, 0xdc, 0x3d,
  0x3e, 0xf1, 0x92, 0xbe, 0x4c, 0x8d, 0x7a, 0xbe, 0x81, 0x14, 0x1e, 0x3e,
  0x0b, 0xcc, 0xa8, 0xbb, 0xc3, 0x55, 0x03, 0x3d, 0x00, 0x48, 0xc7, 0x3e,
  0x7a, 0x56, 0x2e, 0xbd, 0x9c, 0xd8, 0x42, 0x3e, 0x3c, 0x1e, 0x52, 0xbe,
  0x4e, 0x19, 0xa9, 0xbe, 0x55, 0xe2, 0xaa, 0x3c, 0x1f, 0xa8, 0x4f, 0x3f,
  0x06, 0x10, 0x9c, 0x3d, 0x06, 0x72, 0x18, 0xbe, 0xd9, 0x03, 0x17, 0xbe,
  0x8e, 0x8c, 0x64, 0x3e, 0x78, 0x4f, 0xa9, 0xbd, 0x25, 0x4d, 0xf7, 0xbd,
  0xc6, 0x16, 0x41, 0x3e, 0xa0, 0xec, 0xd1, 0xbb, 0xc6, 0x75, 0x95, 0xbd,
  0xcc, 0x42, 0xbb, 0x3e, 0xa7, 0xc1, 0x07, 0xbc, 0xa3, 0xc6, 0x1e, 0x3e,
  0xe6, 0x91, 0x96, 0xbd, 0xbc, 0xdb, 0x45, 0xbe, 0x8b, 0x6c, 0x5c, 0xbc,
  0xb6, 0x49, 0x25, 0x3f, 0xdc, 0x80, 0x48, 0x3c, 0x77, 0x24, 0x74, 0xbc,
  0x51, 0x45, 0x05, 0x3c, 0x58, 0x78, 0x36, 0x3e, 0xc7, 0x8a, 0x9b, 0xbd,
  0x23, 0x49, 0xb9, 0x3d, 0xe1, 0x03, 0x0b, 0x3e, 0x29, 0xd1, 0xde, 0x3d,
  0x73, 0x79, 0x8c, 0xbe, 0x15, 0x1d, 0x31, 0x3e, 0xa1, 0x6c, 0x67, 0x3d,
  0x06, 0x58, 0x86, 0xbc, 0xf0, 0xbe, 0xba, 0xbe, 0x5c, 0x3e, 0xf4, 0xbe,
  0xb2, 0x07, 0xf8, 0xbc, 0x17, 0x43, 0x12, 0x3e, 0xea, 0x2b, 0x04, 0x3d,
  0x65, 0xd0, 0xfe, 0xbc, 0x4a, 0xd7, 0x8a, 0xbd, 0x65, 0xc6, 0xbd, 0x3d,
  0xff, 0xe0, 0xed, 0xbd, 0xdb, 0x97, 0x20, 0x3e, 0xc3, 0x72, 0x8f, 0x3e,
  0x59, 0xc4, 0x62, 0x3d, 0x50, 0xc5, 0x64, 0xbe, 0xeb, 0xf0, 0xe4, 0x3e,
  0xf5, 0xd6, 0xfc, 0x3c, 0x18, 0x2e, 0x39, 0xbd, 0x20, 0xaa, 0xa1, 0xbe,
  0x5d, 0xd3, 0xaa, 0xbe, 0x28, 0xe1, 0x46, 0xbe, 0x7d, 0xe2, 0xa7, 0xbc,
  0x19, 0xe9, 0x9b, 0xbc, 0x1b, 0x30, 0x11, 0xbe, 0xa8, 0xb1, 0x84, 0x3e,
  0xdb, 0x4d, 0x46, 0x3e, 0x75, 0xcb, 0x00, 0xbd, 0xd4, 0x33, 0x0e, 0x3e,
  0x7d, 0x7f, 0xa9, 0x3e, 0xac, 0xb9, 0x3d, 0x3d, 0x6e, 0xc9, 0x30, 0xbf,
  0x8b, 0x11, 0xcc, 0xbd, 0x3e, 0x62, 0xb9, 0x3d, 0x81, 0xa0, 0x48, 0x3d,
  0x54, 0x43, 0x11, 0xbe, 0x43, 0xe5, 0x17, 0xbe, 0x05, 0x57, 0x03, 0x3e,
  0x7f, 0x89, 0x09, 0xbe, 0x88, 0xaf, 0x3b, 0xbb, 0xc3, 0xc8, 0xfa, 0xbd,
  0x99, 0x5e, 0x2a, 0xbe, 0x13, 0x25, 0x18, 0xbe, 0x9f, 0x29, 0xf6, 0x3c,
  0xb9, 0x8f, 0x32, 0xbe, 0xb6, 0xa7, 0x1c, 0xbe, 0x3c, 0x29, 0x87, 0x3b,
  0x66, 0xfd, 0xff, 0xff, 0x10, 0x00, 0x00, 0x00, 0x07, 0x00, 0x00, 0x00,
  0x14, 0x00, 0x00, 0x00, 0x2c, 0x00, 0x00, 0x00, 0x02, 0x00, 0x00, 0x00,
  0x10, 0x00, 0x00, 0x00, 0x70, 0x00, 0x00, 0x00, 0x17, 0x00, 0x00, 0x00,
  0x73, 0x65, 0x71, 0x75, 0x65, 0x6e, 0x74, 0x69, 0x61, 0x6c, 0x2f, 0x64,
  0x65, 0x6e, 0x73, 0x65, 0x2f, 0x4d, 0x61, 0x74, 0x4d, 0x75, 0x6c, 0x00,
  0xd0, 0xfc, 0xff, 0xff, 0xda, 0xfd, 0xff, 0xff, 0x04, 0x00, 0x00, 0x00,
  0x08, 0x00, 0x00, 0x00, 0xff, 0xff, 0xff, 0xff, 0x70, 0x00, 0x00, 0x00,
  0x00, 0x00, 0x0e, 0x00, 0x18, 0x00, 0x08, 0x00, 0x07, 0x00, 0x0c, 0x00,
  0x10, 0x00, 0x14, 0x00, 0x0e, 0x00, 0x00, 0x00, 0x00, 0x00, 0x00, 0x02,
  0x10, 0x00, 0x00, 0x00, 0x06, 0x00, 0x00, 0x00, 0x10, 0x00, 0x00, 0x00,
  0x2c, 0x00, 0x00, 0x00, 0x01, 0x00, 0x00, 0x00, 0x02, 0x00, 0x00, 0x00,
  0x18, 0x00, 0x00, 0x00, 0x73, 0x65, 0x71, 0x75, 0x65, 0x6e, 0x74, 0x69,
  0x61, 0x6c, 0x2f, 0x66, 0x6c, 0x61, 0x74, 0x74, 0x65, 0x6e, 0x2f, 0x43,
  0x6f, 0x6e, 0x73, 0x74, 0x00, 0x00, 0x00, 0x00, 0x38, 0xfd, 0xff, 0xff,
  0x42, 0xfe, 0xff, 0xff, 0x04, 0x00, 0x00, 0x00, 0x0c, 0x00, 0x00, 0x00,
  0x65, 0xc8, 0xbd, 0xbf, 0x8c, 0xd1, 0x65, 0xc0, 0x2d, 0x02, 0x26, 0x40,
  0x26, 0xfe, 0xff, 0xff, 0x10, 0x00, 0x00, 0x00, 0x05, 0x00, 0x00, 0x00,
  0x10, 0x00, 0x00, 0x00, 0x44, 0x00, 0x00, 0x00, 0x01, 0x00, 0x00, 0x00,
  0x03, 0x00, 0x00, 0x00, 0x32, 0x00, 0x00, 0x00, 0x73, 0x65, 0x71, 0x75,
  0x65, 0x6e, 0x74, 0x69, 0x61, 0x6c, 0x2f, 0x64, 0x65, 0x6e, 0x73, 0x65,
  0x5f, 0x31, 0x2f, 0x42, 0x69, 0x61, 0x73, 0x41, 0x64, 0x64, 0x2f, 0x52,
  0x65, 0x61, 0x64, 0x56, 0x61, 0x72, 0x69, 0x61, 0x62, 0x6c, 0x65, 0x4f,
  0x70, 0x2f, 0x72, 0x65, 0x73, 0x6f, 0x75, 0x72, 0x63, 0x65, 0x00, 0x00,
  0xa8, 0xfd, 0xff, 0xff, 0xb2, 0xfe, 0xff, 0xff, 0x04, 0x00, 0x00, 0x00,
  0x40, 0x00, 0x00, 0x00, 0x36, 0x38, 0x24, 0xbf, 0xc0, 0xc5, 0x06, 0xbe,
  0xa7, 0x35, 0x46, 0xbf, 0xaf, 0x17, 0x5f, 0x3f, 0x1a, 0x48, 0xba, 0x3f,
  0x64, 0xfb, 0xb0, 0xbf, 0xfb, 0x8c, 0x78, 0xbe, 0x81, 0xc0, 0x06, 0xbe,
  0xf2, 0x87, 0xe0, 0xbe, 0x74, 0x4f, 0xd7, 0xbe, 0xc7, 0x91, 0xe8, 0x3e,
  0xe1, 0x2e, 0x85, 0xbf, 0x86, 0x46, 0x6b, 0x3f, 0x54, 0x07, 0xdc, 0x3e,
  0x6a, 0xba, 0x7d, 0x3f, 0x78, 0xeb, 0x4e, 0x3f, 0xca, 0xfe, 0xff, 0xff,
  0x10, 0x00, 0x00, 0x00, 0x04, 0x00, 0x00, 0x00, 0x10, 0x00, 0x00, 0x00,
  0x44, 0x00, 0x00, 0x00, 0x01, 0x00, 0x00, 0x00, 0x10, 0x00, 0x00, 0x00,
  0x30, 0x00, 0x00, 0x00, 0x73, 0x65, 0x71, 0x75, 0x65, 0x6e, 0x74, 0x69,
  0x61, 0x6c, 0x2f, 0x64, 0x65, 0x6e, 0x73, 0x65, 0x2f, 0x42, 0x69, 0x61,
  0x73, 0x41, 0x64, 0x64, 0x2f, 0x52, 0x65, 0x61, 0x64, 0x56, 0x61, 0x72,
  0x69, 0x61, 0x62, 0x6c, 0x65, 0x4f, 0x70, 0x2f, 0x72, 0x65, 0x73, 0x6f,
  0x75, 0x72, 0x63, 0x65, 0x00, 0x00, 0x00, 0x00, 0x4c, 0xfe, 0xff, 0xff,
  0x56, 0xff, 0xff, 0xff, 0x04, 0x00, 0x00, 0x00, 0x40, 0x00, 0x00, 0x00,
  0xb4, 0xe5, 0x09, 0xbf, 0x5b, 0xf5, 0xb0, 0x3c, 0x89, 0x3b, 0x5b, 0xbe,
  0x27, 0xe2, 0x4e, 0xbf, 0xe7, 0x32, 0x18, 0x40, 0x09, 0x20, 0x12, 0x3e,
  0xb4, 0x46, 0x88, 0x3f, 0x57, 0x22, 0xa8, 0xbf, 0xea, 0xe2, 0x2d, 0x3d,
  0xf1, 0x78, 0x3f, 0xbe, 0x12, 0x63, 0x13, 0xbf, 0xe6, 0x24, 0xdb, 0x3c,
  0x9a, 0xee, 0x4a, 0xbf, 0x88, 0xc9, 0xac, 0xbd, 0x33, 0x95, 0x9d, 0x3c,
  0x6a, 0xb5, 0xda, 0xbc, 0x6e, 0xff, 0xff, 0xff, 0x10, 0x00, 0x00, 0x00,
  0x03, 0x00, 0x00, 0x00, 0x10, 0x00, 0x00, 0x00, 0x48, 0x00, 0x00, 0x00,
  0x01, 0x00, 0x00, 0x00, 0x10, 0x00, 0x00, 0x00, 0x33, 0x00, 0x00, 0x00,
  0x73, 0x65, 0x71, 0x75, 0x65, 0x6e, 0x74, 0x69, 0x61, 0x6c, 0x2f, 0x63,
  0x6f, 0x6e, 0x76, 0x32, 0x64, 0x5f, 0x31, 0x2f, 0x42, 0x69, 0x61, 0x73,
  0x41, 0x64, 0x64, 0x2f, 0x52, 0x65, 0x61, 0x64, 0x56, 0x61, 0x72, 0x69,
  0x61, 0x62, 0x6c, 0x65, 0x4f, 0x70, 0x2f, 0x72, 0x65, 0x73, 0x6f, 0x75,
  0x72, 0x63, 0x65, 0x00, 0x04, 0x00, 0x06, 0x00, 0x04, 0x00, 0x00, 0x00,
  0x00, 0x00, 0x06, 0x00, 0x08, 0x00, 0x04, 0x00, 0x06, 0x00, 0x00, 0x00,
  0x04, 0x00, 0x00, 0x00, 0x20, 0x00, 0x00, 0x00, 0x4c, 0xf3, 0x0b, 0xbf,
  0xec, 0x29, 0x30, 0xbf, 0x8b, 0xee, 0x05, 0x3e, 0x54, 0xa0, 0x0a, 0xbf,
  0x1d, 0xe7, 0x08, 0xbf, 0x47, 0x31, 0x68, 0xbf, 0xac, 0x71, 0xa6, 0xbf,
  0x3d, 0x37, 0xa7, 0xbf, 0x00, 0x00, 0x0e, 0x00, 0x14, 0x00, 0x04, 0x00,
  0x00, 0x00, 0x08, 0x00, 0x0c, 0x00, 0x10, 0x00, 0x0e, 0x00, 0x00, 0x00,
  0x10, 0x00, 0x00, 0x00, 0x02, 0x00, 0x00, 0x00, 0x10, 0x00, 0x00, 0x00,
  0x44, 0x00, 0x00, 0x00, 0x01, 0x00, 0x00, 0x00, 0x08, 0x00, 0x00, 0x00,
  0x31, 0x00, 0x00, 0x00, 0x73, 0x65, 0x71, 0x75, 0x65, 0x6e, 0x74, 0x69,
  0x61, 0x6c, 0x2f, 0x63, 0x6f, 0x6e, 0x76, 0x32, 0x64, 0x2f, 0x42, 0x69,
  0x61, 0x73, 0x41, 0x64, 0x64, 0x2f, 0x52, 0x65, 0x61, 0x64, 0x56, 0x61,
  0x72, 0x69, 0x61, 0x62, 0x6c, 0x65, 0x4f, 0x70, 0x2f, 0x72, 0x65, 0x73,
  0x6f, 0x75, 0x72, 0x63, 0x65, 0x00, 0x00, 0x00, 0x90, 0xff, 0xff, 0xff,
  0x14, 0x00, 0x18, 0x00, 0x04, 0x00, 0x00, 0x00, 0x08, 0x00, 0x0c, 0x00,
  0x10, 0x00, 0x00, 0x00, 0x00, 0x00, 0x14, 0x00, 0x14, 0x00, 0x00, 0x00,
  0x14, 0x00, 0x00, 0x00, 0x01, 0x00, 0x00, 0x00, 0x20, 0x00, 0x00, 0x00,
  0x44, 0x00, 0x00, 0x00, 0x2c, 0x00, 0x00, 0x00, 0x04, 0x00, 0x00, 0x00,
  0x01, 0x00, 0x00, 0x00, 0x40, 0x00, 0x00, 0x00, 0x03, 0x00, 0x00, 0x00,
  0x01, 0x00, 0x00, 0x00, 0x0c, 0x00, 0x00, 0x00, 0x63, 0x6f, 0x6e, 0x76,
  0x32, 0x64, 0x5f, 0x69, 0x6e, 0x70, 0x75, 0x74, 0x00, 0x00, 0x00, 0x00,
  0x04, 0x00, 0x00, 0x00, 0xff, 0xff, 0xff, 0xff, 0x40, 0x00, 0x00, 0x00,
  0x03, 0x00, 0x00, 0x00, 0x01, 0x00, 0x00, 0x00, 0xfc, 0xff, 0xff, 0xff,
  0x04, 0x00, 0x04, 0x00, 0x04, 0x00, 0x00, 0x00
};


unsigned int model_tflite_len = 13052;// Fill the int in `src/model.cc` here
