#include "magic_wand_model_data.h"


// We need to keep the data array aligned on some architectures.

#ifdef __has_attribute

#define HAVE_ATTRIBUTE(x) __has_attribute(x)

#else

#define HAVE_ATTRIBUTE(x) 0

#endif

#if HAVE_ATTRIBUTE(aligned) || (defined(__GNUC__) && !defined(__clang__))

#define DATA_ALIGN_ATTRIBUTE __attribute__((aligned(4)))

#else

#define DATA_ALIGN_ATTRIBUTE

#endif


const unsigned char g_magic_wand_model_data[] DATA_ALIGN_ATTRIBUTE = {

  // Paste the data of the char array in `src/model.cc` here
  0x1c, 0x00, 0x00, 0x00, 0x54, 0x46, 0x4c, 0x33, 0x14, 0x00, 0x20, 0x00,
  0x04, 0x00, 0x08, 0x00, 0x0c, 0x00, 0x10, 0x00, 0x14, 0x00, 0x00, 0x00,
  0x18, 0x00, 0x1c, 0x00, 0x14, 0x00, 0x00, 0x00, 0x03, 0x00, 0x00, 0x00,
  0x18, 0x00, 0x00, 0x00, 0x2c, 0x00, 0x00, 0x00, 0xd8, 0x00, 0x00, 0x00,
  0x2c, 0x00, 0x00, 0x00, 0x80, 0x00, 0x00, 0x00, 0x78, 0x00, 0x00, 0x00,
  0x05, 0x00, 0x00, 0x00, 0x28, 0x07, 0x00, 0x00, 0x44, 0x06, 0x00, 0x00,
  0xbc, 0x03, 0x00, 0x00, 0xf8, 0x02, 0x00, 0x00, 0xac, 0x01, 0x00, 0x00,
  0x01, 0x00, 0x00, 0x00, 0xd0, 0x00, 0x00, 0x00, 0x14, 0x00, 0x00, 0x00,
  0x98, 0x32, 0x00, 0x00, 0x94, 0x32, 0x00, 0x00, 0x8c, 0x31, 0x00, 0x00,
  0xd8, 0x30, 0x00, 0x00, 0x30, 0x30, 0x00, 0x00, 0xbc, 0x2f, 0x00, 0x00,
  0x50, 0x2f, 0x00, 0x00, 0x00, 0x13, 0x00, 0x00, 0xec, 0x11, 0x00, 0x00,
  0x10, 0x10, 0x00, 0x00, 0xb4, 0x07, 0x00, 0x00, 0x6c, 0x32, 0x00, 0x00,
  0x68, 0x32, 0x00, 0x00, 0x64, 0x32, 0x00, 0x00, 0x60, 0x32, 0x00, 0x00,
  0x5c, 0x32, 0x00, 0x00, 0x58, 0x32, 0x00, 0x00, 0x54, 0x32, 0x00, 0x00,
  0x50, 0x32, 0x00, 0x00, 0x3c, 0x00, 0x00, 0x00, 0x00, 0x00, 0x00, 0x00,
  0x01, 0x00, 0x00, 0x00, 0x0c, 0x00, 0x00, 0x00, 0x08, 0x00, 0x0c, 0x00,
  0x04, 0x00, 0x08, 0x00, 0x08, 0x00, 0x00, 0x00, 0x08, 0x00, 0x00, 0x00,
  0x13, 0x00, 0x00, 0x00, 0x13, 0x00, 0x00, 0x00, 0x6d, 0x69, 0x6e, 0x5f,
  0x72, 0x75, 0x6e, 0x74, 0x69, 0x6d, 0x65, 0x5f, 0x76, 0x65, 0x72, 0x73,
  0x69, 0x6f, 0x6e, 0x00, 0xfa, 0xce, 0xff, 0xff, 0x04, 0x00, 0x00, 0x00,
  0x10, 0x00, 0x00, 0x00, 0x31, 0x2e, 0x35, 0x2e, 0x30, 0x00, 0x00, 0x00,
  0x00, 0x00, 0x00, 0x00, 0x00, 0x00, 0x00, 0x00, 0x0f, 0x00, 0x00, 0x00,
  0x4d, 0x4c, 0x49, 0x52, 0x20, 0x43, 0x6f, 0x6e, 0x76, 0x65, 0x72, 0x74,
  0x65, 0x64, 0x2e, 0x00, 0x00, 0x00, 0x0e, 0x00, 0x18, 0x00, 0x04, 0x00,
  0x08, 0x00, 0x0c, 0x00, 0x10, 0x00, 0x14, 0x00, 0x0e, 0x00, 0x00, 0x00,
  0x14, 0x00, 0x00, 0x00, 0x5c, 0x00, 0x00, 0x00, 0x60, 0x00, 0x00, 0x00,
  0x64, 0x00, 0x00, 0x00, 0x84, 0x00, 0x00, 0x00, 0x12, 0x00, 0x00, 0x00,
  0x58, 0x31, 0x00, 0x00, 0xe8, 0x30, 0x00, 0x00, 0x44, 0x30, 0x00, 0x00,
  0x9c, 0x2f, 0x00, 0x00, 0xf4, 0x2e, 0x00, 0x00, 0x94, 0x2e, 0x00, 0x00,
  0x2c, 0x2e, 0x00, 0x00, 0xd8, 0x11, 0x00, 0x00, 0xbc, 0x10, 0x00, 0x00,
  0xe0, 0x0e, 0x00, 0x00, 0x0c, 0x06, 0x00, 0x00, 0x28, 0x05, 0x00, 0x00,
  0xe8, 0x03, 0x00, 0x00, 0x3c, 0x03, 0x00, 0x00, 0x98, 0x02, 0x00, 0x00,
  0xd4, 0x01, 0x00, 0x00, 0x10, 0x01, 0x00, 0x00, 0x84, 0x00, 0x00, 0x00,
  0x01, 0x00, 0x00, 0x00, 0x00, 0x00, 0x00, 0x00, 0x01, 0x00, 0x00, 0x00,
  0x11, 0x00, 0x00, 0x00, 0x08, 0x00, 0x00, 0x00, 0x74, 0x05, 0x00, 0x00,
  0x94, 0x04, 0x00, 0x00, 0x78, 0x03, 0x00, 0x00, 0xbc, 0x02, 0x00, 0x00,
  0x30, 0x02, 0x00, 0x00, 0x50, 0x01, 0x00, 0x00, 0xa8, 0x00, 0x00, 0x00,
  0x10, 0x00, 0x00, 0x00, 0x04, 0x00, 0x00, 0x00, 0x6d, 0x61, 0x69, 0x6e,
  0x00, 0x00, 0x00, 0x00, 0x7a, 0xff, 0xff, 0xff, 0x00, 0x00, 0x00, 0x09,
  0x04, 0x00, 0x00, 0x00, 0x1c, 0x00, 0x00, 0x00, 0x10, 0x00, 0x00, 0x00,
  0x04, 0x00, 0x00, 0x00, 0xf6, 0xcf, 0xff, 0xff, 0x00, 0x00, 0x80, 0x3f,
  0x01, 0x00, 0x00, 0x00, 0x11, 0x00, 0x00, 0x00, 0x01, 0x00, 0x00, 0x00,
  0x10, 0x00, 0x00, 0x00, 0xa0, 0xfa, 0xff, 0xff, 0x19, 0x00, 0x00, 0x00,
  0x00, 0x00, 0x00, 0x19, 0x01, 0x00, 0x00, 0x00, 0x84, 0xcf, 0xff, 0xff,
  0x14, 0x00, 0x00, 0x00, 0x12, 0x00, 0x00, 0x00, 0x18, 0x00, 0x00, 0x00,
  0x30, 0x00, 0x00, 0x00, 0x20, 0x00, 0x00, 0x00, 0x02, 0x00, 0x00, 0x00,
  0x01, 0x00, 0x00, 0x00, 0x03, 0x00, 0x00, 0x00, 0x08, 0x00, 0x00, 0x00,
  0x49, 0x64, 0x65, 0x6e, 0x74, 0x69, 0x74, 0x79, 0x00, 0x00, 0x00, 0x00,
  0x02, 0x00, 0x00, 0x00, 0xff, 0xff, 0xff, 0xff, 0x03, 0x00, 0x00, 0x00,
  0x68, 0xd0, 0xff, 0xff, 0x00, 0x00, 0x0e, 0x00, 0x18, 0x00, 0x08, 0x00,
  0x0c, 0x00, 0x10, 0x00, 0x07, 0x00, 0x14, 0x00, 0x0e, 0x00, 0x00, 0x00,
  0x00, 0x00, 0x00, 0x08, 0x03, 0x00, 0x00, 0x00, 0x18, 0x00, 0x00, 0x00,
  0x0c, 0x00, 0x00, 0x00, 0x04, 0x00, 0x00, 0x00, 0x84, 0xcf, 0xff, 0xff,
  0x01, 0x00, 0x00, 0x00, 0x10, 0x00, 0x00, 0x00, 0x03, 0x00, 0x00, 0x00,
  0x0f, 0x00, 0x00, 0x00, 0x07, 0x00, 0x00, 0x00, 0x04, 0x00, 0x00, 0x00,
  0x0c, 0xd0, 0xff, 0xff, 0x14, 0x00, 0x00, 0x00, 0x11, 0x00, 0x00, 0x00,
  0x18, 0x00, 0x00, 0x00, 0x5c, 0x00, 0x00, 0x00, 0x4c, 0x00, 0x00, 0x00,
  0x02, 0x00, 0x00, 0x00, 0x01, 0x00, 0x00, 0x00, 0x03, 0x00, 0x00, 0x00,
  0x34, 0x00, 0x00, 0x00, 0x73, 0x65, 0x71, 0x75, 0x65, 0x6e, 0x74, 0x69,
  0x61, 0x6c, 0x2f, 0x64, 0x65, 0x6e, 0x73, 0x65, 0x5f, 0x31, 0x2f, 0x4d,
  0x61, 0x74, 0x4d, 0x75, 0x6c, 0x3b, 0x73, 0x65, 0x71, 0x75, 0x65, 0x6e,
  0x74, 0x69, 0x61, 0x6c, 0x2f, 0x64, 0x65, 0x6e, 0x73, 0x65, 0x5f, 0x31,
  0x2f, 0x42, 0x69, 0x61, 0x73, 0x41, 0x64, 0x64, 0x00, 0x00, 0x00, 0x00,
  0x02, 0x00, 0x00, 0x00, 0xff, 0xff, 0xff, 0xff, 0x03, 0x00, 0x00, 0x00,
  0x0c, 0xd0, 0xff, 0xff, 0xda, 0xfc, 0xff, 0xff, 0x00, 0x00, 0x00, 0x08,
  0x03, 0x00, 0x00, 0x00, 0x24, 0x00, 0x00, 0x00, 0x18, 0x00, 0x00, 0x00,
  0x0c, 0x00, 0x00, 0x00, 0x00, 0x00, 0x06, 0x00, 0x08, 0x00, 0x07, 0x00,
  0x06, 0x00, 0x00, 0x00, 0x00, 0x00, 0x00, 0x01, 0x01, 0x00, 0x00, 0x00,
  0x0f, 0x00, 0x00, 0x00, 0x03, 0x00, 0x00, 0x00, 0x0e, 0x00, 0x00, 0x00,
  0x06, 0x00, 0x00, 0x00, 0x03, 0x00, 0x00, 0x00, 0xe8, 0xfb, 0xff, 0xff,
  0x09, 0x00, 0x00, 0x00, 0x00, 0x00, 0x00, 0x09, 0x01, 0x00, 0x00, 0x00,
  0xcc, 0xd0, 0xff, 0xff, 0x14, 0x00, 0x00, 0x00, 0x10, 0x00, 0x00, 0x00,
  0x18, 0x00, 0x00, 0x00, 0x6c, 0x00, 0x00, 0x00, 0x5c, 0x00, 0x00, 0x00,
  0x02, 0x00, 0x00, 0x00, 0x01, 0x00, 0x00, 0x00, 0x10, 0x00, 0x00, 0x00,
  0x46, 0x00, 0x00, 0x00, 0x73, 0x65, 0x71, 0x75, 0x65, 0x6e, 0x74, 0x69,
  0x61, 0x6c, 0x2f, 0x64, 0x65, 0x6e, 0x73, 0x65, 0x2f, 0x4d, 0x61, 0x74,
  0x4d, 0x75, 0x6c, 0x3b, 0x73, 0x65, 0x71, 0x75, 0x65, 0x6e, 0x74, 0x69,
  0x61, 0x6c, 0x2f, 0x64, 0x65, 0x6e, 0x73, 0x65, 0x2f, 0x52, 0x65, 0x6c,
  0x75, 0x3b, 0x73, 0x65, 0x71, 0x75, 0x65, 0x6e, 0x74, 0x69, 0x61, 0x6c,
  0x2f, 0x64, 0x65, 0x6e, 0x73, 0x65, 0x2f, 0x42, 0x69, 0x61, 0x73, 0x41,
  0x64, 0x64, 0x00, 0x00, 0x02, 0x00, 0x00, 0x00, 0xff, 0xff, 0xff, 0xff,
  0x10, 0x00, 0x00, 0x00, 0xec, 0xd1, 0xff, 0xff, 0x00, 0x00, 0x0a, 0x00,
  0x10, 0x00, 0x04, 0x00, 0x08, 0x00, 0x0c, 0x00, 0x0a, 0x00, 0x00, 0x00,
  0x02, 0x00, 0x00, 0x00, 0x10, 0x00, 0x00, 0x00, 0x04, 0x00, 0x00, 0x00,
  0x01, 0x00, 0x00, 0x00, 0x0e, 0x00, 0x00, 0x00, 0x02, 0x00, 0x00, 0x00,
  0x0d, 0x00, 0x00, 0x00, 0x05, 0x00, 0x00, 0x00, 0xa8, 0xfc, 0xff, 0xff,
  0x16, 0x00, 0x00, 0x00, 0x00, 0x00, 0x00, 0x16, 0x01, 0x00, 0x00, 0x00,
  0x8c, 0xd1, 0xff, 0xff, 0x14, 0x00, 0x00, 0x00, 0x0f, 0x00, 0x00, 0x00,
  0x18, 0x00, 0x00, 0x00, 0x40, 0x00, 0x00, 0x00, 0x30, 0x00, 0x00, 0x00,
  0x02, 0x00, 0x00, 0x00, 0x01, 0x00, 0x00, 0x00, 0x70, 0x00, 0x00, 0x00,
  0x1a, 0x00, 0x00, 0x00, 0x73, 0x65, 0x71, 0x75, 0x65, 0x6e, 0x74, 0x69,
  0x61, 0x6c, 0x2f, 0x66, 0x6c, 0x61, 0x74, 0x74, 0x65, 0x6e, 0x2f, 0x52,
  0x65, 0x73, 0x68, 0x61, 0x70, 0x65, 0x00, 0x00, 0x02, 0x00, 0x00, 0x00,
  0xff, 0xff, 0xff, 0xff, 0x70, 0x00, 0x00, 0x00, 0x70, 0xd1, 0xff, 0xff,
  0x3e, 0xfe, 0xff, 0xff, 0x00, 0x00, 0x00, 0x05, 0x01, 0x00, 0x00, 0x00,
  0x38, 0x00, 0x00, 0x00, 0x2c, 0x00, 0x00, 0x00, 0x14, 0x00, 0x00, 0x00,
  0x00, 0x00, 0x0e, 0x00, 0x14, 0x00, 0x00, 0x00, 0x10, 0x00, 0x0c, 0x00,
  0x08, 0x00, 0x04, 0x00, 0x0e, 0x00, 0x00, 0x00, 0x03, 0x00, 0x00, 0x00,
  0x01, 0x00, 0x00, 0x00, 0x03, 0x00, 0x00, 0x00, 0x01, 0x00, 0x00, 0x00,
  0x01, 0x00, 0x00, 0x00, 0x0d, 0x00, 0x00, 0x00, 0x01, 0x00, 0x00, 0x00,
  0x0c, 0x00, 0x00, 0x00, 0x2c, 0xd2, 0xff, 0xff, 0x14, 0x00, 0x00, 0x00,
  0x0e, 0x00, 0x00, 0x00, 0x20, 0x00, 0x00, 0x00, 0x58, 0x00, 0x00, 0x00,
  0x40, 0x00, 0x00, 0x00, 0x04, 0x00, 0x00, 0x00, 0x01, 0x00, 0x00, 0x00,
  0x07, 0x00, 0x00, 0x00, 0x01, 0x00, 0x00, 0x00, 0x10, 0x00, 0x00, 0x00,
  0x22, 0x00, 0x00, 0x00, 0x73, 0x65, 0x71, 0x75, 0x65, 0x6e, 0x74, 0x69,
  0x61, 0x6c, 0x2f, 0x6d, 0x61, 0x78, 0x5f, 0x70, 0x6f, 0x6f, 0x6c, 0x69,
  0x6e, 0x67, 0x32, 0x64, 0x5f, 0x31, 0x2f, 0x4d, 0x61, 0x78, 0x50, 0x6f,
  0x6f, 0x6c, 0x00, 0x00, 0x04, 0x00, 0x00, 0x00, 0xff, 0xff, 0xff, 0xff,
  0x07, 0x00, 0x00, 0x00, 0x01, 0x00, 0x00, 0x00, 0x10, 0x00, 0x00, 0x00,
  0x28, 0xd2, 0xff, 0xff, 0x1a, 0xfe, 0xff, 0xff, 0x00, 0x00, 0x00, 0x01,
  0x24, 0x00, 0x00, 0x00, 0x18, 0x00, 0x00, 0x00, 0x04, 0x00, 0x00, 0x00,
  0x0c, 0xfe, 0xff, 0xff, 0x01, 0x00, 0x00, 0x00, 0x01, 0x00, 0x00, 0x00,
  0x00, 0x00, 0x00, 0x01, 0x01, 0x00, 0x00, 0x00, 0x0c, 0x00, 0x00, 0x00,
  0x03, 0x00, 0x00, 0x00, 0x0b, 0x00, 0x00, 0x00, 0x09, 0x00, 0x00, 0x00,
  0x02, 0x00, 0x00, 0x00, 0xd4, 0xd2, 0xff, 0xff, 0x14, 0x00, 0x00, 0x00,
  0x0d, 0x00, 0x00, 0x00, 0x20, 0x00, 0x00, 0x00, 0xb8, 0x00, 0x00, 0x00,
  0xa0, 0x00, 0x00, 0x00, 0x04, 0x00, 0x00, 0x00, 0x01, 0x00, 0x00, 0x00,
  0x15, 0x00, 0x00, 0x00, 0x01, 0x00, 0x00, 0x00, 0x10, 0x00, 0x00, 0x00,
  0x83, 0x00, 0x00, 0x00, 0x73, 0x65, 0x71, 0x75, 0x65, 0x6e, 0x74, 0x69,
  0x61, 0x6c, 0x2f, 0x63, 0x6f, 0x6e, 0x76, 0x32, 0x64, 0x5f, 0x31, 0x2f,
  0x52, 0x65, 0x6c, 0x75, 0x3b, 0x73, 0x65, 0x71, 0x75, 0x65, 0x6e, 0x74,
  0x69, 0x61, 0x6c, 0x2f, 0x63, 0x6f, 0x6e, 0x76, 0x32, 0x64, 0x5f, 0x31,
  0x2f, 0x42, 0x69, 0x61, 0x73, 0x41, 0x64, 0x64, 0x3b, 0x73, 0x65, 0x71,
  0x75, 0x65, 0x6e, 0x74, 0x69, 0x61, 0x6c, 0x2f, 0x63, 0x6f, 0x6e, 0x76,
  0x32, 0x64, 0x5f, 0x31, 0x2f, 0x43, 0x6f, 0x6e, 0x76, 0x32, 0x44, 0x3b,
  0x73, 0x65, 0x71, 0x75, 0x65, 0x6e, 0x74, 0x69, 0x61, 0x6c, 0x2f, 0x63,
  0x6f, 0x6e, 0x76, 0x32, 0x64, 0x5f, 0x31, 0x2f, 0x42, 0x69, 0x61, 0x73,
  0x41, 0x64, 0x64, 0x2f, 0x52, 0x65, 0x61, 0x64, 0x56, 0x61, 0x72, 0x69,
  0x61, 0x62, 0x6c, 0x65, 0x4f, 0x70, 0x2f, 0x72, 0x65, 0x73, 0x6f, 0x75,
  0x72, 0x63, 0x65, 0x00, 0x04, 0x00, 0x00, 0x00, 0xff, 0xff, 0xff, 0xff,
  0x15, 0x00, 0x00, 0x00, 0x01, 0x00, 0x00, 0x00, 0x10, 0x00, 0x00, 0x00,
  0x40, 0xd4, 0xff, 0xff, 0x00, 0x00, 0x0e, 0x00, 0x1a, 0x00, 0x08, 0x00,
  0x0c, 0x00, 0x10, 0x00, 0x07, 0x00, 0x14, 0x00, 0x0e, 0x00, 0x00, 0x00,
  0x00, 0x00, 0x00, 0x05, 0x01, 0x00, 0x00, 0x00, 0x3c, 0x00, 0x00, 0x00,
  0x30, 0x00, 0x00, 0x00, 0x14, 0x00, 0x00, 0x00, 0x00, 0x00, 0x0e, 0x00,
  0x18, 0x00, 0x17, 0x00, 0x10, 0x00, 0x0c, 0x00, 0x08, 0x00, 0x04, 0x00,
  0x0e, 0x00, 0x00, 0x00, 0x03, 0x00, 0x00, 0x00, 0x03, 0x00, 0x00, 0x00,
  0x03, 0x00, 0x00, 0x00, 0x03, 0x00, 0x00, 0x00, 0x00, 0x00, 0x00, 0x01,
  0x01, 0x00, 0x00, 0x00, 0x0b, 0x00, 0x00, 0x00, 0x01, 0x00, 0x00, 0x00,
  0x0a, 0x00, 0x00, 0x00, 0x2c, 0xff, 0xff, 0xff, 0x11, 0x00, 0x00, 0x00,
  0x00, 0x00, 0x00, 0x11, 0x01, 0x00, 0x00, 0x00, 0x10, 0xd4, 0xff, 0xff,
  0x14, 0x00, 0x00, 0x00, 0x0c, 0x00, 0x00, 0x00, 0x20, 0x00, 0x00, 0x00,
  0x58, 0x00, 0x00, 0x00, 0x40, 0x00, 0x00, 0x00, 0x04, 0x00, 0x00, 0x00,
  0x01, 0x00, 0x00, 0x00, 0x15, 0x00, 0x00, 0x00, 0x01, 0x00, 0x00, 0x00,
  0x08, 0x00, 0x00, 0x00, 0x20, 0x00, 0x00, 0x00, 0x73, 0x65, 0x71, 0x75,
  0x65, 0x6e, 0x74, 0x69, 0x61, 0x6c, 0x2f, 0x6d, 0x61, 0x78, 0x5f, 0x70,
  0x6f, 0x6f, 0x6c, 0x69, 0x6e, 0x67, 0x32, 0x64, 0x2f, 0x4d, 0x61, 0x78,
  0x50, 0x6f, 0x6f, 0x6c, 0x00, 0x00, 0x00, 0x00, 0x04, 0x00, 0x00, 0x00,
  0xff, 0xff, 0xff, 0xff, 0x15, 0x00, 0x00, 0x00, 0x01, 0x00, 0x00, 0x00,
  0x08, 0x00, 0x00, 0x00, 0x1c, 0xd5, 0xff, 0xff, 0x00, 0x00, 0x0e, 0x00,
  0x14, 0x00, 0x00, 0x00, 0x08, 0x00, 0x0c, 0x00, 0x07, 0x00, 0x10, 0x00,
  0x0e, 0x00, 0x00, 0x00, 0x00, 0x00, 0x00, 0x01, 0x30, 0x00, 0x00, 0x00,
  0x24, 0x00, 0x00, 0x00, 0x10, 0x00, 0x00, 0x00, 0x0c, 0x00, 0x10, 0x00,
  0x00, 0x00, 0x04, 0x00, 0x08, 0x00, 0x0f, 0x00, 0x0c, 0x00, 0x00, 0x00,
  0x01, 0x00, 0x00, 0x00, 0x01, 0x00, 0x00, 0x00, 0x00, 0x00, 0x00, 0x01,
  0x01, 0x00, 0x00, 0x00, 0x0a, 0x00, 0x00, 0x00, 0x03, 0x00, 0x00, 0x00,
  0x00, 0x00, 0x00, 0x00, 0x08, 0x00, 0x00, 0x00, 0x01, 0x00, 0x00, 0x00,
  0x0c, 0x00, 0x10, 0x00, 0x0b, 0x00, 0x00, 0x00, 0x0c, 0x00, 0x04, 0x00,
  0x0c, 0x00, 0x00, 0x00, 0x03, 0x00, 0x00, 0x00, 0x00, 0x00, 0x00, 0x03,
  0x01, 0x00, 0x00, 0x00, 0xf0, 0xd4, 0xff, 0xff, 0x14, 0x00, 0x00, 0x00,
  0x0b, 0x00, 0x00, 0x00, 0x20, 0x00, 0x00, 0x00, 0xb0, 0x00, 0x00, 0x00,
  0x98, 0x00, 0x00, 0x00, 0x04, 0x00, 0x00, 0x00, 0x01, 0x00, 0x00, 0x00,
  0x40, 0x00, 0x00, 0x00, 0x03, 0x00, 0x00, 0x00, 0x08, 0x00, 0x00, 0x00,
  0x7b, 0x00, 0x00, 0x00, 0x73, 0x65, 0x71, 0x75, 0x65, 0x6e, 0x74, 0x69,
  0x61, 0x6c, 0x2f, 0x63, 0x6f, 0x6e, 0x76, 0x32, 0x64, 0x2f, 0x52, 0x65,
  0x6c, 0x75, 0x3b, 0x73, 0x65, 0x71, 0x75, 0x65, 0x6e, 0x74, 0x69, 0x61,
  0x6c, 0x2f, 0x63, 0x6f, 0x6e, 0x76, 0x32, 0x64, 0x2f, 0x42, 0x69, 0x61,
  0x73, 0x41, 0x64, 0x64, 0x3b, 0x73, 0x65, 0x71, 0x75, 0x65, 0x6e, 0x74,
  0x69, 0x61, 0x6c, 0x2f, 0x63, 0x6f, 0x6e, 0x76, 0x32, 0x64, 0x2f, 0x43,
  0x6f, 0x6e, 0x76, 0x32, 0x44, 0x3b, 0x73, 0x65, 0x71, 0x75, 0x65, 0x6e,
  0x74, 0x69, 0x61, 0x6c, 0x2f, 0x63, 0x6f, 0x6e, 0x76, 0x32, 0x64, 0x2f,
  0x42, 0x69, 0x61, 0x73, 0x41, 0x64, 0x64, 0x2f, 0x52, 0x65, 0x61, 0x64,
  0x56, 0x61, 0x72, 0x69, 0x61, 0x62, 0x6c, 0x65, 0x4f, 0x70, 0x2f, 0x72,
  0x65, 0x73, 0x6f, 0x75, 0x72, 0x63, 0x65, 0x00, 0x04, 0x00, 0x00, 0x00,
  0xff, 0xff, 0xff, 0xff, 0x40, 0x00, 0x00, 0x00, 0x03, 0x00, 0x00, 0x00,
  0x08, 0x00, 0x00, 0x00, 0x44, 0xd5, 0xff, 0xff, 0x4e, 0xd6, 0xff, 0xff,
  0x04, 0x00, 0x00, 0x00, 0x00, 0x08, 0x00, 0x00, 0xf4, 0xe8, 0x98, 0xbe,
  0x49, 0x0f, 0xeb, 0x3c, 0xb6, 0x5e, 0xc0, 0x3e, 0x9e, 0xca, 0x14, 0xbf,
  0x61, 0x1e, 0x1b, 0x3e, 0x80, 0x3b, 0x1a, 0x3e, 0x28, 0x2c, 0x8d, 0xbe,
  0xf0, 0x36, 0x97, 0xbe, 0x9e, 0xa3, 0x02, 0xbf, 0x50, 0xe8, 0xcb, 0xbe,
  0x00, 0xdc, 0xa1, 0x3e, 0xf3, 0xb8, 0x2b, 0xbd, 0x59, 0x64, 0x56, 0xbe,
  0xf5, 0x50, 0xf3, 0xbc, 0xb8, 0x29, 0xb4, 0xbe, 0x20, 0x61, 0xdc, 0x3d,
  0xaa, 0x15, 0x0e, 0xbd, 0x3d, 0xfd, 0x1a, 0xbe, 0xed, 0xc6, 0x94, 0xbe,
  0xfe, 0xca, 0x26, 0x3f, 0x57, 0xaa, 0x4f, 0xbd, 0xc3, 0x68, 0x7a, 0xbe,
  0xf4, 0xd6, 0xac, 0xbd, 0x60, 0x4f, 0x5e, 0xbe, 0xec, 0xcb, 0x3d, 0xbd,
  0xb4, 0x35, 0x49, 0xbd, 0x8d, 0xb5, 0xe5, 0xbd, 0x53, 0xbd, 0x16, 0xbd,
  0x50, 0xd5, 0x9f, 0xbd, 0x60, 0x3d, 0x64, 0xbd, 0xb9, 0x3d, 0x06, 0x3c,
  0x4f, 0x7c, 0x87, 0x3e, 0x4f, 0x3c, 0x77, 0xbb, 0x26, 0xa3, 0x71, 0xbd,
  0x9c, 0x0c, 0xee, 0x3d, 0x6e, 0xd7, 0x23, 0x3d, 0xf2, 0xc6, 0x90, 0x3d,
  0x44, 0x27, 0xa5, 0xbd, 0xcd, 0xb6, 0x03, 0x3f, 0xfc, 0x57, 0x82, 0xbd,
  0x57, 0x11, 0x76, 0xbe, 0x6f, 0x6b, 0xc1, 0xbd, 0xe0, 0xc6, 0xa9, 0xbe,
  0x11, 0xcf, 0x7a, 0xbe, 0x04, 0xff, 0x46, 0xbc, 0x1f, 0x76, 0x1d, 0xbd,
  0xbc, 0xe7, 0x9f, 0x3a, 0x15, 0x48, 0x66, 0xbd, 0xea, 0x8a, 0xef, 0xbe,
  0x3e, 0x10, 0xfd, 0xbc, 0x45, 0x76, 0x74, 0xbe, 0x7f, 0x94, 0xfa, 0xbd,
  0x5d, 0x34, 0xec, 0x3c, 0x23, 0x16, 0xc4, 0x3d, 0x13, 0x4d, 0x5b, 0x3c,
  0xaf, 0xdc, 0xe0, 0x3d, 0xed, 0x4d, 0xdb, 0xbe, 0x49, 0x50, 0xc4, 0xbc,
  0xa3, 0x29, 0x98, 0xbc, 0x7e, 0x47, 0x9a, 0xbd, 0x7b, 0xed, 0x0d, 0x3d,
  0xb5, 0x9e, 0x1a, 0x3d, 0xde, 0x2d, 0xe6, 0xbc, 0xab, 0x58, 0xd1, 0x3c,
  0xfe, 0xc0, 0x50, 0xbe, 0x79, 0xc7, 0x20, 0xbd, 0xa2, 0x84, 0x5e, 0xbe,
  0x7d, 0xc5, 0x0f, 0xbe, 0x5f, 0x40, 0x81, 0xbe, 0x23, 0xf7, 0x7f, 0xbd,
  0x03, 0x81, 0x89, 0xbe, 0x49, 0x11, 0xd2, 0xbd, 0x4f, 0x27, 0x16, 0xbd,
  0x2d, 0x30, 0xa0, 0x3c, 0x9c, 0x2c, 0xef, 0xbd, 0x32, 0x43, 0x98, 0xbd,
  0xdb, 0x35, 0x23, 0xbe, 0xf9, 0x11, 0x20, 0xbe, 0xf3, 0xcf, 0x42, 0xbe,
  0x39, 0x31, 0x0f, 0xbd, 0xc5, 0xc8, 0xbc, 0xbb, 0x6d, 0x70, 0x80, 0xbb,
  0x34, 0xa1, 0x21, 0x3e, 0x58, 0x37, 0x5f, 0xbe, 0x20, 0x37, 0x67, 0x3e,
  0x55, 0x52, 0x5b, 0xbd, 0x19, 0x11, 0x21, 0xbe, 0x62, 0x42, 0x88, 0xbe,
  0x91, 0x17, 0x74, 0xbe, 0x17, 0x6d, 0xd9, 0xbd, 0x93, 0x7f, 0x95, 0x3c,
  0x64, 0x30, 0x1a, 0xbe, 0x69, 0x91, 0x8b, 0xbd, 0x7d, 0x2d, 0x2f, 0x3f,
  0xf6, 0xe4, 0x2c, 0xbe, 0x81, 0xb2, 0x34, 0x3e, 0x72, 0xcc, 0x3a, 0xbe,
  0x6a, 0x2d, 0x54, 0xbd, 0x13, 0x78, 0x0a, 0xbf, 0x5d, 0x4e, 0x7d, 0xbe,
  0xd7, 0xf8, 0xa1, 0xbe, 0x30, 0xf5, 0xca, 0xbe, 0x24, 0x8f, 0x18, 0xbe,
  0xef, 0xbe, 0x0b, 0xbe, 0x9c, 0xfb, 0x90, 0xbd, 0x17, 0x91, 0x94, 0xbd,
  0xd2, 0xb9, 0x18, 0x3e, 0xca, 0xf7, 0x47, 0xbd, 0xfb, 0x24, 0xd4, 0x3e,
  0x00, 0xd7, 0x93, 0xbe, 0x56, 0x74, 0xf3, 0xbd, 0xf3, 0x1b, 0xe9, 0xbc,
  0x33, 0xe8, 0x5b, 0x3e, 0x5e, 0xab, 0x24, 0xbd, 0xad, 0xfe, 0x08, 0x3f,
  0xc6, 0x0a, 0xa1, 0x3e, 0x15, 0x03, 0x15, 0x3d, 0x67, 0x60, 0xaf, 0xbd,
  0x89, 0xb5, 0x6c, 0x3e, 0xac, 0x6a, 0xd8, 0x3c, 0xae, 0xa6, 0xae, 0x3c,
  0x96, 0x44, 0xa1, 0xbd, 0xf1, 0x68, 0x05, 0xbe, 0xf6, 0x28, 0x6b, 0xbe,
  0x59, 0xd1, 0x9d, 0x3d, 0xe7, 0x32, 0x62, 0x3d, 0xf5, 0x2f, 0x0b, 0xbd,
  0x72, 0x09, 0x31, 0xbe, 0xa8, 0x54, 0x35, 0xbe, 0x73, 0x99, 0xa7, 0xbd,
  0xeb, 0xf7, 0xb9, 0xbd, 0x1f, 0xd6, 0x68, 0x3d, 0x66, 0xe2, 0x19, 0x3e,
  0x08, 0xcb, 0x9f, 0x3e, 0x34, 0x75, 0xb0, 0xbd, 0xd1, 0x64, 0xb1, 0x3d,
  0xbd, 0x2f, 0x7a, 0xbe, 0xa8, 0x6c, 0x0d, 0xbe, 0x08, 0x04, 0x7c, 0x3e,
  0x0b, 0x64, 0x65, 0x3e, 0x70, 0xc9, 0x20, 0xbe, 0x31, 0x6f, 0x53, 0x3e,
  0xfe, 0xb7, 0x96, 0xbe, 0x07, 0xd5, 0x17, 0x3e, 0x92, 0x29, 0x89, 0xbd,
  0x88, 0xd8, 0xc0, 0xbd, 0xc1, 0x5d, 0x6d, 0xbc, 0x34, 0xa3, 0x46, 0xbe,
  0xbb, 0xf5, 0xd8, 0x3d, 0xb3, 0x92, 0x73, 0xbd, 0x4a, 0xeb, 0x44, 0xbe,
  0x1b, 0x53, 0x26, 0x3e, 0xce, 0xcf, 0x17, 0x3e, 0x80, 0x33, 0xa0, 0xbb,
  0x85, 0x3e, 0x01, 0x3e, 0xd7, 0x0d, 0x00, 0x3e, 0x4a, 0xfc, 0x94, 0xbc,
  0x66, 0xbf, 0x25, 0x3d, 0xac, 0x09, 0x0e, 0xbe, 0x6b, 0x01, 0x3d, 0x3e,
  0x06, 0x15, 0x93, 0x3e, 0x9b, 0x56, 0x91, 0xbd, 0x47, 0x7b, 0xd1, 0x3d,
  0x8e, 0x0b, 0x2d, 0xbd, 0x13, 0xb9, 0x59, 0x3d, 0xfc, 0xab, 0xa6, 0xbd,
  0x17, 0x2e, 0x46, 0x3e, 0x02, 0xd6, 0x93, 0xbb, 0x7f, 0xba, 0xba, 0xbd,
  0xe7, 0x94, 0xdf, 0xbd, 0x9a, 0x03, 0x6d, 0xbe, 0xc1, 0x1d, 0xcd, 0xbd,
  0x78, 0x21, 0xa5, 0x3e, 0xcf, 0x1c, 0x27, 0xbd, 0x3d, 0x40, 0x05, 0xbe,
  0x31, 0x60, 0x7f, 0xbe, 0x74, 0x30, 0x48, 0xbe, 0x78, 0xdc, 0x04, 0xbe,
  0x7b, 0xf4, 0x2d, 0xbe, 0xf6, 0x0f, 0x51, 0xbe, 0xf2, 0x32, 0x57, 0x3e,
  0xec, 0xef, 0x31, 0x3e, 0x3f, 0x1a, 0x37, 0xbe, 0x0f, 0xdb, 0x23, 0xbe,
  0x34, 0x22, 0x90, 0xbe, 0xfb, 0xa6, 0xc6, 0xbc, 0xd6, 0xef, 0x4b, 0xbe,
  0xf9, 0xdd, 0x0c, 0xbe, 0x7e, 0xd1, 0x9c, 0x3d, 0xa3, 0xe9, 0x4b, 0x3e,
  0x8a, 0xf7, 0x53, 0xbe, 0x60, 0x7e, 0xc3, 0x3d, 0x5d, 0x44, 0x28, 0xbe,
  0x73, 0xca, 0x12, 0xbe, 0xfa, 0x2f, 0x85, 0x3c, 0x5a, 0x44, 0x13, 0x3e,
  0x88, 0xc7, 0x5f, 0x3d, 0x7b, 0x81, 0xb9, 0x3d, 0x4d, 0x84, 0x86, 0xbe,
  0x34, 0xc2, 0xae, 0xbe, 0xaf, 0xcf, 0x82, 0xbe, 0x6b, 0x96, 0x7c, 0xbe,
  0x4e, 0xae, 0x2f, 0x3f, 0xe5, 0x62, 0x33, 0xbe, 0x2e, 0x86, 0x30, 0x3e,
  0xf2, 0xd3, 0x4d, 0xbd, 0xc8, 0x07, 0xa8, 0xbe, 0x77, 0x0d, 0xb1, 0xbe,
  0xad, 0x4e, 0xd5, 0xbd, 0x81, 0xdf, 0xa9, 0xbe, 0x74, 0xad, 0x7d, 0x3d,
  0x86, 0x24, 0x0d, 0x3e, 0x5d, 0x85, 0xb6, 0x3d, 0x69, 0x66, 0x29, 0xbd,
  0x8a, 0xb0, 0x31, 0xbe, 0xb5, 0xe2, 0x2e, 0x3e, 0x39, 0x88, 0xf9, 0x3d,
  0x9a, 0xaa, 0x88, 0xbe, 0xfd, 0x14, 0xb1, 0xbd, 0x59, 0x73, 0xf1, 0x3d,
  0x92, 0x63, 0xd0, 0x3c, 0x5d, 0xee, 0x67, 0x3e, 0x77, 0x3c, 0xeb, 0xbd,
  0x84, 0x33, 0xc9, 0x3e, 0x56, 0x6d, 0xa5, 0x3d, 0xdd, 0x42, 0xc5, 0xbd,
  0x74, 0xde, 0x73, 0x3e, 0x09, 0x39, 0x1e, 0x3e, 0xd6, 0x6c, 0x2c, 0x3f,
  0x10, 0xb9, 0x24, 0x3e, 0xbf, 0x42, 0x85, 0xbd, 0x76, 0xb0, 0x86, 0xbc,
  0x37, 0x68, 0xaf, 0xbd, 0x12, 0x23, 0xa9, 0xbd, 0xb3, 0x4d, 0x68, 0xbd,
  0x06, 0xa6, 0xa7, 0x3e, 0x6d, 0x81, 0x46, 0x3d, 0xa8, 0x2f, 0x2e, 0x3d,
  0x91, 0x0c, 0x0c, 0xbe, 0x48, 0x74, 0x25, 0x3b, 0xb5, 0xf1, 0x03, 0xbd,
  0x4e, 0x47, 0x50, 0xbe, 0x90, 0x3b, 0x06, 0x3e, 0x0f, 0x97, 0x2b, 0x3e,
  0x75, 0x70, 0xc7, 0x39, 0x9c, 0x92, 0x0b, 0xbd, 0x58, 0x87, 0x9a, 0xbe,
  0xd4, 0xc2, 0xb9, 0xbd, 0x73, 0xd2, 0x26, 0xbd, 0x67, 0x48, 0x4a, 0xbe,
  0x0e, 0x2a, 0x70, 0x3e, 0xb6, 0x02, 0xda, 0x3d, 0x78, 0xc5, 0xa4, 0x3d,
  0xab, 0x32, 0x4e, 0xbe, 0xc5, 0x14, 0xc3, 0xbe, 0x59, 0x4b, 0x5c, 0xbc,
  0x3c, 0xb7, 0x10, 0xbe, 0x64, 0x50, 0x9e, 0xbd, 0xaa, 0x46, 0x16, 0xbe,
  0xeb, 0x6a, 0x72, 0xbe, 0xa4, 0x08, 0xbe, 0x3d, 0x32, 0x62, 0x07, 0x3e,
  0x53, 0x82, 0x10, 0xbe, 0xfb, 0x09, 0x26, 0xbe, 0xe3, 0x80, 0x06, 0xbe,
  0x68, 0x31, 0x67, 0xbd, 0x0f, 0x72, 0xb7, 0xbd, 0xb5, 0x2e, 0xba, 0xbd,
  0xa4, 0xdb, 0xda, 0x3c, 0xd2, 0x57, 0xa6, 0x3d, 0x93, 0x37, 0xd5, 0xbd,
  0x52, 0xc0, 0x0a, 0xbe, 0xd8, 0xa5, 0x0c, 0xbe, 0x3a, 0x50, 0x12, 0x3c,
  0x1e, 0x35, 0x81, 0xbd, 0xd5, 0xe3, 0x40, 0xbd, 0x5d, 0xb6, 0x84, 0x3d,
  0x24, 0x45, 0x35, 0xbe, 0x45, 0x77, 0x61, 0xbd, 0x93, 0x6f, 0x87, 0x3e,
  0x36, 0xf0, 0x4d, 0x3e, 0x3d, 0xca, 0x8c, 0xb9, 0x2e, 0x73, 0x17, 0x3e,
  0xad, 0x4c, 0xf3, 0x3e, 0x4c, 0xe1, 0xf4, 0x3c, 0x91, 0x27, 0xaf, 0xbd,
  0xcf, 0xcb, 0xe4, 0x3d, 0x79, 0xb3, 0x99, 0xbd, 0x75, 0x00, 0x6b, 0xbe,
  0x01, 0xea, 0xa2, 0xbe, 0x6d, 0xb1, 0xc8, 0x3d, 0xc7, 0x1c, 0x17, 0x3d,
  0xe5, 0x90, 0x83, 0x3e, 0x49, 0x15, 0x69, 0x3d, 0xf5, 0x1a, 0x0b, 0x3c,
  0x63, 0x99, 0xbf, 0x3d, 0xad, 0xa4, 0x98, 0xbe, 0x8a, 0x6d, 0xd8, 0xbe,
  0xc0, 0xe9, 0x62, 0x3e, 0xc3, 0xf0, 0x88, 0x3d, 0xec, 0x89, 0x7b, 0xbd,
  0x38, 0xde, 0xb4, 0x3d, 0xfb, 0x7e, 0x8a, 0xbd, 0x77, 0xb2, 0x49, 0x3d,
  0xe5, 0x49, 0x36, 0xbe, 0xfa, 0xd1, 0x72, 0xbe, 0x66, 0xf1, 0x15, 0x3e,
  0xbf, 0xd3, 0xef, 0x3d, 0x01, 0xf0, 0x39, 0xbe, 0xf9, 0x35, 0x1d, 0x3e,
  0x22, 0x69, 0x93, 0x3d, 0x63, 0x68, 0x12, 0x3f, 0x5e, 0x0d, 0x2c, 0xbd,
  0x49, 0xe4, 0x59, 0xbe, 0xa3, 0x90, 0xab, 0x3d, 0x75, 0xc3, 0x0a, 0x3e,
  0x1f, 0xc0, 0x6b, 0x3d, 0x95, 0xad, 0xab, 0x3d, 0xc0, 0x3a, 0x05, 0xbd,
  0x1d, 0x86, 0xb8, 0xbe, 0x30, 0xc7, 0x1f, 0x3e, 0x6f, 0x82, 0x69, 0x3e,
  0xcb, 0x7a, 0x3a, 0xbd, 0xd5, 0x42, 0x7c, 0xbd, 0x6d, 0xc8, 0x49, 0xbe,
  0x36, 0xae, 0xcb, 0xbd, 0x39, 0x91, 0x33, 0x3d, 0xba, 0x78, 0x88, 0xbe,
  0x4e, 0x1f, 0x8c, 0xbd, 0x28, 0x5a, 0x1b, 0xbd, 0x34, 0x7e, 0x81, 0xbd,
  0xf3, 0x81, 0xd8, 0xbc, 0xc1, 0xb7, 0x66, 0xbe, 0x35, 0x55, 0x8f, 0xbc,
  0xef, 0x99, 0x58, 0x3e, 0x92, 0xed, 0x43, 0x3c, 0x08, 0x16, 0x01, 0xbc,
  0x38, 0xa5, 0x85, 0xbd, 0xb1, 0x9e, 0xe1, 0x3c, 0xc8, 0x4f, 0x94, 0xbc,
  0xf9, 0x83, 0x8c, 0xbe, 0x98, 0xa0, 0x11, 0xbe, 0x87, 0x77, 0x68, 0x3e,
  0xfa, 0x73, 0x03, 0xbe, 0xdf, 0x1d, 0x85, 0xbd, 0x43, 0x37, 0x67, 0x3e,
  0x32, 0xef, 0x91, 0xbd, 0x34, 0x11, 0xb0, 0xbd, 0x72, 0x8f, 0xc9, 0x3b,
  0x77, 0x77, 0x3d, 0xbe, 0x7e, 0x7b, 0x02, 0xbe, 0xa7, 0x69, 0xa1, 0xbc,
  0xef, 0x2d, 0xb6, 0xbe, 0x73, 0xf4, 0x1a, 0x3d, 0x66, 0x46, 0x4a, 0x3e,
  0x28, 0xac, 0x10, 0xbf, 0x46, 0x77, 0xd0, 0x3d, 0xc4, 0xe4, 0xcc, 0xbd,
  0xa5, 0x0f, 0x62, 0xbe, 0x5a, 0x4a, 0xaf, 0x3d, 0x6b, 0x52, 0x42, 0xbe,
  0x5f, 0x2d, 0x82, 0x3d, 0xb3, 0x08, 0xdc, 0x3e, 0xca, 0x8b, 0x95, 0x3d,
  0x64, 0xad, 0xba, 0xbd, 0x2d, 0x1b, 0xa0, 0xbd, 0xab, 0x1b, 0x26, 0xbe,
  0xfa, 0xdc, 0x41, 0xbe, 0x82, 0xfc, 0x9d, 0xbe, 0xeb, 0xa7, 0x8b, 0xbd,
  0xd5, 0xae, 0x84, 0x3d, 0xd4, 0xd2, 0xb3, 0x3c, 0x58, 0x23, 0x6c, 0xbe,
  0xa6, 0x48, 0x1b, 0x3f, 0x6a, 0xff, 0x42, 0xbe, 0xf3, 0xa9, 0xa8, 0xbe,
  0x09, 0x93, 0x88, 0x3e, 0xd5, 0xbe, 0x61, 0xbd, 0xaa, 0x0c, 0x2a, 0xbe,
  0xab, 0x0e, 0xd2, 0xbd, 0xf4, 0x55, 0x73, 0xbe, 0x9d, 0x53, 0x91, 0xbd,
  0x5a, 0xcf, 0xb4, 0xbd, 0x29, 0x53, 0xbf, 0x3d, 0xc5, 0xaa, 0x26, 0xbf,
  0xf5, 0x24, 0x20, 0xbe, 0xfb, 0x6d, 0x09, 0x3e, 0xf1, 0xf4, 0x31, 0xbf,
  0xca, 0x98, 0x09, 0x3e, 0x40, 0x1e, 0xfd, 0x3d, 0x15, 0x33, 0xef, 0xbe,
  0x12, 0x70, 0xb6, 0xbe, 0xe6, 0xd8, 0x18, 0xbf, 0x5a, 0xf6, 0xb3, 0xbe,
  0x9f, 0x5f, 0x86, 0x3e, 0x88, 0x14, 0xe7, 0x3d, 0xfc, 0x73, 0x34, 0x3e,
  0xb4, 0xa8, 0xb8, 0x3e, 0xa9, 0xb2, 0xd1, 0xbe, 0x2b, 0x48, 0x45, 0xbe,
  0x54, 0x67, 0x8b, 0x3d, 0xc8, 0x2a, 0x4c, 0xbe, 0xa6, 0x13, 0x90, 0xbe,
  0x96, 0x3b, 0xa4, 0x3e, 0x24, 0x66, 0x43, 0xbe, 0xa3, 0xa7, 0x27, 0xbf,
  0xee, 0x17, 0x6d, 0x3d, 0xc2, 0x59, 0x81, 0x3e, 0x47, 0x69, 0x95, 0x3e,
  0x9b, 0x59, 0xd9, 0xbd, 0x74, 0x35, 0xf9, 0xbd, 0xd0, 0x48, 0x2b, 0xbe,
  0xc7, 0xbb, 0x6e, 0xbe, 0x63, 0x72, 0x3d, 0xbe, 0xdf, 0x37, 0x21, 0x3e,
  0x5c, 0x6c, 0x4e, 0x3e, 0xff, 0xdc, 0x98, 0xbe, 0xce, 0x94, 0xa4, 0xbd,
  0xd3, 0x86, 0x9f, 0xbe, 0xd3, 0x29, 0xfd, 0xbe, 0xa8, 0x6a, 0x76, 0xbe,
  0xd0, 0xd4, 0x45, 0xbe, 0x59, 0x1e, 0xed, 0x3d, 0x30, 0xc5, 0x48, 0xbe,
  0xa7, 0x8d, 0x1a, 0xbe, 0x7f, 0x5c, 0xdb, 0xbc, 0x73, 0x90, 0xb1, 0x3e,
  0xfd, 0x3f, 0x75, 0xbe, 0xce, 0xa5, 0x98, 0x3e, 0xf5, 0xda, 0x85, 0xbc,
  0xf6, 0x6f, 0x4b, 0xbd, 0x7c, 0xda, 0xb7, 0xbd, 0x87, 0x9e, 0x97, 0xbe,
  0xe5, 0x6d, 0x11, 0xbb, 0x4e, 0x40, 0x36, 0xbc, 0x4b, 0x8e, 0x11, 0x3e,
  0xf9, 0x03, 0x19, 0xbe, 0xb8, 0xae, 0x91, 0x3e, 0x78, 0x8b, 0x16, 0x3b,
  0x7e, 0x05, 0x2c, 0x3e, 0xb5, 0x60, 0x03, 0xbe, 0xbe, 0x35, 0x14, 0xbd,
  0x4d, 0x7c, 0xbe, 0xbe, 0x3f, 0xad, 0x55, 0xbf, 0xee, 0xda, 0xb3, 0xbe,
  0x3e, 0xbf, 0x7b, 0xbe, 0x7d, 0x48, 0x8b, 0x3b, 0xa5, 0x34, 0xbc, 0xbe,
  0xc9, 0xb5, 0x98, 0x3e, 0xe8, 0xbb, 0xb6, 0x3d, 0x5e, 0x6b, 0xc6, 0x3e,
  0xad, 0x0d, 0x33, 0x3d, 0xea, 0xee, 0x19, 0x3f, 0xa5, 0xe7, 0xe7, 0xbd,
  0x2f, 0x81, 0x2b, 0xbd, 0xc1, 0xb5, 0x37, 0xbc, 0xc1, 0xc6, 0xf3, 0xbb,
  0xa6, 0x8f, 0x53, 0xbd, 0x8f, 0x4b, 0x8e, 0x3e, 0x6b, 0xdb, 0xd5, 0x3c,
  0x2a, 0x5e, 0x85, 0xbe, 0x30, 0x11, 0x54, 0xbd, 0x8f, 0xd3, 0xed, 0x3d,
  0x45, 0x81, 0xec, 0xbd, 0x7d, 0x03, 0xac, 0xbd, 0x6e, 0x33, 0x12, 0xbe,
  0xf3, 0x74, 0x8c, 0xbe, 0x50, 0x80, 0x8e, 0xbe, 0x50, 0x18, 0x8d, 0x3c,
  0x37, 0xeb, 0x0f, 0x3d, 0xbc, 0xeb, 0x75, 0xbd, 0xd3, 0xb3, 0x08, 0xbe,
  0x3f, 0xac, 0x3c, 0xbe, 0xd6, 0x2d, 0x1e, 0xbe, 0x38, 0xb4, 0x8d, 0xbe,
  0xfb, 0xc1, 0x9c, 0xbe, 0xdb, 0xdd, 0x54, 0x3c, 0xd7, 0xc7, 0x4e, 0x3e,
  0x7d, 0x71, 0x0c, 0xbe, 0xde, 0x4d, 0xd3, 0xbd, 0x0b, 0x21, 0x46, 0xbd,
  0x92, 0x84, 0x1a, 0x3d, 0x5b, 0xb4, 0x09, 0x3e, 0xda, 0x1b, 0x95, 0x3e,
  0x06, 0x71, 0x79, 0x3e, 0x44, 0x48, 0xf1, 0x3e, 0xa9, 0xba, 0x66, 0xbd,
  0x44, 0x27, 0x7d, 0xbc, 0xf8, 0xd0, 0xdf, 0xbc, 0x9f, 0xa2, 0x20, 0x3d,
  0x83, 0xcf, 0x8b, 0xbe, 0x14, 0x88, 0x97, 0xbe, 0x7c, 0xf1, 0x63, 0xbd,
  0x06, 0x77, 0xff, 0xbd, 0x81, 0x92, 0x2e, 0x3d, 0x11, 0xf8, 0x3e, 0x3d,
  0x57, 0x66, 0x05, 0x3d, 0x76, 0x25, 0x8a, 0xbd, 0x7d, 0x64, 0xa6, 0xbd,
  0x95, 0x20, 0x4a, 0xbe, 0x4d, 0xa9, 0x62, 0xbe, 0x0d, 0xca, 0xc7, 0xbe,
  0x73, 0x13, 0x2b, 0xbd, 0xfd, 0xc8, 0x37, 0xbe, 0x29, 0x29, 0xeb, 0x3d,
  0x8a, 0x31, 0xdb, 0xbc, 0x8b, 0x76, 0x79, 0xbe, 0x4b, 0x8d, 0x2e, 0xbe,
  0x5f, 0x70, 0x8d, 0xbd, 0xd2, 0xdc, 0xac, 0xbe, 0x19, 0xdf, 0xfa, 0xbc,
  0x5a, 0x35, 0x8f, 0xbe, 0x26, 0xde, 0xff, 0xff, 0x10, 0x00, 0x00, 0x00,
  0x0a, 0x00, 0x00, 0x00, 0x1c, 0x00, 0x00, 0x00, 0x38, 0x00, 0x00, 0x00,
  0x04, 0x00, 0x00, 0x00, 0x10, 0x00, 0x00, 0x00, 0x04, 0x00, 0x00, 0x00,
  0x01, 0x00, 0x00, 0x00, 0x08, 0x00, 0x00, 0x00, 0x1a, 0x00, 0x00, 0x00,
  0x73, 0x65, 0x71, 0x75, 0x65, 0x6e, 0x74, 0x69, 0x61, 0x6c, 0x2f, 0x63,
  0x6f, 0x6e, 0x76, 0x32, 0x64, 0x5f, 0x31, 0x2f, 0x43, 0x6f, 0x6e, 0x76,
  0x32, 0x44, 0x00, 0x00, 0x9c, 0xdd, 0xff, 0xff, 0xa6, 0xde, 0xff, 0xff,
  0x04, 0x00, 0x00, 0x00, 0x80, 0x01, 0x00, 0x00, 0xc4, 0x96, 0x53, 0x3d,
  0x52, 0xc4, 0x0e, 0x3e, 0x16, 0x61, 0x3e, 0xbe, 0xc4, 0x4d, 0xcc, 0xbd,
  0x40, 0x24, 0x07, 0xbd, 0xb0, 0xcd, 0x8e, 0xbd, 0x60, 0xad, 0x5a, 0xbd,
  0x43, 0x8b, 0xf1, 0xbd, 0x6d, 0x61, 0x53, 0x3c, 0x6f, 0xef, 0x19, 0xbb,
  0x98, 0x90, 0xeb, 0xbd, 0x0b, 0xe6, 0x25, 0x3d, 0x45, 0x5f, 0x0b, 0xbe,
  0x49, 0xeb, 0xd2, 0xbb, 0xef, 0xa7, 0xf9, 0xbd, 0x7d, 0x41, 0xe4, 0xbc,
  0x3b, 0x69, 0xb1, 0x3d, 0x78, 0x40, 0x9b, 0xbd, 0xc6, 0xfb, 0xab, 0xbd,
  0xb8, 0xcc, 0x86, 0x3d, 0x84, 0x3c, 0xcf, 0xbd, 0xee, 0x24, 0xc5, 0x3b,
  0xd4, 0x13, 0x32, 0x3d, 0xa7, 0xac, 0x18, 0xbe, 0xdf, 0x8c, 0x78, 0x3d,
  0x74, 0x47, 0x73, 0x3d, 0x91, 0xb3, 0x31, 0xbe, 0xd3, 0xbc, 0x0c, 0xbd,
  0x04, 0x21, 0xfb, 0xbc, 0x61, 0x7c, 0x27, 0xbf, 0x75, 0xda, 0x46, 0x3d,
  0xa0, 0x67, 0x35, 0xbd, 0x1f, 0x2f, 0x11, 0x3f, 0x5b, 0xfb, 0xb5, 0xbb,
  0x44, 0x11, 0x24, 0x3d, 0x62, 0x08, 0x4b, 0x3e, 0xe1, 0x6d, 0x03, 0x3e,
  0xd3, 0x7b, 0xef, 0x3e, 0x01, 0xed, 0x1c, 0x3e, 0x7d, 0xe1, 0x2e, 0x3e,
  0xf0, 0x5c, 0xd4, 0xbd, 0xbc, 0x2f, 0x39, 0x3e, 0xa9, 0xbc, 0x79, 0xbe,
  0x16, 0x3e, 0xb9, 0xbe, 0x27, 0xe4, 0x83, 0xbe, 0x7e, 0x69, 0x87, 0xbd,
  0x30, 0x24, 0x89, 0xbd, 0x9a, 0x0e, 0x37, 0xbe, 0xce, 0xd0, 0xe6, 0x3c,
  0x9b, 0xe7, 0x82, 0xbd, 0x2e, 0xbf, 0x25, 0x3d, 0x2b, 0x22, 0xa7, 0x3c,
  0xb5, 0xc3, 0xc3, 0xbe, 0x20, 0x6a, 0x55, 0xba, 0x7f, 0x52, 0x82, 0x3d,
  0x04, 0x14, 0x0b, 0xbd, 0xc2, 0x35, 0x95, 0x3b, 0x84, 0x48, 0x34, 0xbe,
  0x63, 0x04, 0xe6, 0x3e, 0xdf, 0x9b, 0x3d, 0xbd, 0x38, 0xc5, 0x49, 0xbe,
  0x64, 0x17, 0x92, 0xbe, 0x76, 0x17, 0x2c, 0xbe, 0x4e, 0x41, 0xcd, 0xbd,
  0x04, 0x4c, 0x52, 0xbe, 0xba, 0xd0, 0xaf, 0xbc, 0xfb, 0x65, 0x67, 0x3e,
  0x31, 0x4e, 0xd4, 0x3d, 0x43, 0x51, 0x03, 0xbc, 0xe9, 0x0b, 0x36, 0x3e,
  0x53, 0x59, 0xca, 0x3e, 0xf3, 0x05, 0x0c, 0x3e, 0xc5, 0xff, 0xc3, 0x3d,
  0xf8, 0xfc, 0x8a, 0xbe, 0x48, 0x76, 0x40, 0x3e, 0xe8, 0x15, 0xb9, 0xbd,
  0xd7, 0xc6, 0x7d, 0xbc, 0xef, 0x1b, 0x17, 0x3e, 0xa6, 0x4c, 0xf1, 0xbd,
  0xe9, 0x85, 0x7e, 0x3c, 0x51, 0xec, 0xd9, 0x3c, 0xd1, 0x7b, 0xdd, 0xbd,
  0x90, 0x74, 0xa0, 0x3d, 0xde, 0x82, 0xf1, 0x3c, 0x28, 0x86, 0x93, 0x3d,
  0xde, 0xb5, 0x9b, 0x3e, 0x46, 0x27, 0x7b, 0x3e, 0x01, 0x33, 0x86, 0xbb,
  0x7c, 0x3d, 0x99, 0xbe, 0x82, 0x4e, 0x8b, 0x3e, 0xfc, 0x17, 0x07, 0xbc,
  0x1e, 0xd6, 0x98, 0x3c, 0x20, 0x81, 0x88, 0xbe, 0x8e, 0x8c, 0x30, 0x3d,
  0xf1, 0x74, 0x18, 0xbd, 0x8a, 0x81, 0xa0, 0xbe, 0xfe, 0xdf, 0xff, 0xff,
  0x10, 0x00, 0x00, 0x00, 0x09, 0x00, 0x00, 0x00, 0x1c, 0x00, 0x00, 0x00,
  0x38, 0x00, 0x00, 0x00, 0x04, 0x00, 0x00, 0x00, 0x08, 0x00, 0x00, 0x00,
  0x04, 0x00, 0x00, 0x00, 0x03, 0x00, 0x00, 0x00, 0x01, 0x00, 0x00, 0x00,
  0x18, 0x00, 0x00, 0x00, 0x73, 0x65, 0x71, 0x75, 0x65, 0x6e, 0x74, 0x69,
  0x61, 0x6c, 0x2f, 0x63, 0x6f, 0x6e, 0x76, 0x32, 0x64, 0x2f, 0x43, 0x6f,
  0x6e, 0x76, 0x32, 0x44, 0x00, 0x00, 0x00, 0x00, 0x74, 0xdf, 0xff, 0xff,
  0x7e, 0xe0, 0xff, 0xff, 0x04, 0x00, 0x00, 0x00, 0xc0, 0x00, 0x00, 0x00,
  0xe3, 0x1c, 0x93, 0xbe, 0x40, 0x36, 0x76, 0x3c, 0x2f, 0x68, 0x5c, 0x3d,
  0x2a, 0x9b, 0xff, 0xbc, 0xf2, 0xa6, 0xc1, 0x3d, 0xa9, 0xe8, 0x10, 0x3e,
  0xf6, 0x42, 0xbc, 0x3e, 0x45, 0x0a, 0x63, 0xbd, 0x26, 0xb5, 0x08, 0xbe,
  0x62, 0x70, 0xaa, 0x3d, 0x2f, 0xb8, 0x23, 0xbe, 0x95, 0x67, 0x74, 0x3e,
  0xb3, 0x0f, 0x27, 0xbe, 0x38, 0xb0, 0xf1, 0x3d, 0x4d, 0x4f, 0xa6, 0x3e,
  0xbf, 0x73, 0xa7, 0x3e, 0x7b, 0x5f, 0x8c, 0xbe, 0x4e, 0x43, 0x70, 0x3d,
  0xa5, 0x45, 0xac, 0xbe, 0xf3, 0x74, 0xc7, 0xbe, 0x20, 0x49, 0xa9, 0x3d,
  0x1c, 0xcf, 0xa3, 0xbe, 0xd4, 0x4e, 0x9e, 0x3e, 0xe1, 0xd6, 0xe8, 0xbd,
  0xff, 0x83, 0x85, 0xbd, 0xe7, 0xc4, 0x35, 0x3d, 0x33, 0xe5, 0x2b, 0x3e,
  0x87, 0x94, 0x87, 0x3e, 0x01, 0x1f, 0xad, 0xbb, 0x69, 0x41, 0x3d, 0x3e,
  0x5e, 0x23, 0x51, 0x3e, 0xb1, 0x61, 0xb1, 0x3e, 0x9c, 0xd7, 0xc5, 0xbe,
  0x62, 0x70, 0x16, 0xbc, 0x7a, 0x95, 0xe4, 0xbe, 0xb0, 0x52, 0x61, 0xbf,
  0xe7, 0x27, 0x7d, 0xbd, 0xe4, 0x39, 0x03, 0x3e, 0xb7, 0x34, 0x8d, 0x3e,
  0xf1, 0x3e, 0xc8, 0xbe, 0x95, 0x44, 0x02, 0xbe, 0x61, 0x35, 0xec, 0x3c,
  0xbd, 0x13, 0x26, 0x3e, 0x6b, 0xfd, 0x54, 0x3e, 0x43, 0xb7, 0xca, 0xbd,
  0x5c, 0xe5, 0x55, 0x3e, 0x7f, 0x6a, 0x2e, 0x3e, 0x7c, 0x99, 0xc4, 0x3e,
  0x16, 0xe1, 0xff, 0xff, 0x10, 0x00, 0x00, 0x00, 0x08, 0x00, 0x00, 0x00,
  0x14, 0x00, 0x00, 0x00, 0x30, 0x00, 0x00, 0x00, 0x02, 0x00, 0x00, 0x00,
  0x03, 0x00, 0x00, 0x00, 0x10, 0x00, 0x00, 0x00, 0x19, 0x00, 0x00, 0x00,
  0x73, 0x65, 0x71, 0x75, 0x65, 0x6e, 0x74, 0x69, 0x61, 0x6c, 0x2f, 0x64,
  0x65, 0x6e, 0x73, 0x65, 0x5f, 0x31, 0x2f, 0x4d, 0x61, 0x74, 0x4d, 0x75,
  0x6c, 0x00, 0x00, 0x00, 0x84, 0xe0, 0xff, 0xff, 0x8e, 0xe1, 0xff, 0xff,
  0x04, 0x00, 0x00, 0x00, 0x00, 0x1c, 0x00, 0x00, 0x07, 0x1a, 0x05, 0x3e,
  0xf3, 0x9b, 0x0a, 0xbe, 0xf8, 0x35, 0x68, 0xbe, 0x33, 0x67, 0x37, 0x3e,
  0xab, 0x35, 0x05, 0xbd, 0xfe, 0x28, 0xf1, 0xbc, 0x15, 0x77, 0xd9, 0x3d,
  0xc9, 0x9c, 0xb9, 0xbc, 0xb0, 0x91, 0x33, 0x3e, 0x23, 0xd9, 0x50, 0x3d,
  0x55, 0x89, 0x91, 0x3b, 0x71, 0x1a, 0x01, 0x3e, 0x31, 0xa1, 0x0c, 0x3e,
  0x22, 0x90, 0x61, 0x3e, 0x8e, 0xf1, 0x52, 0x3d, 0xc9, 0x97, 0x08, 0x3d,
  0xa1, 0x30, 0xf5, 0xbc, 0xa2, 0x45, 0xf5, 0xbd, 0xd2, 0x33, 0x32, 0xbd,
  0x3f, 0xf5, 0x91, 0x3d, 0xb0, 0x65, 0xe2, 0xbd, 0xed, 0xcd, 0x17, 0x3e,
  0x0f, 0xf9, 0x78, 0xbd, 0x4c, 0x48, 0xab, 0xbe, 0x03, 0x8c, 0x38, 0xbd,
  0x96, 0x51, 0x26, 0xbe, 0x13, 0xe3, 0x2c, 0x3c, 0xa7, 0x1d, 0x80, 0xbc,
  0x7b, 0x70, 0x24, 0xbe, 0x6c, 0x11, 0x7d, 0xbe, 0xc6, 0x85, 0x7f, 0x3d,
  0xd4, 0x0b, 0x6e, 0x3e, 0xb8, 0x2d, 0xf9, 0xbd, 0xf1, 0x13, 0xe6, 0x3d,
  0xdd, 0xa5, 0xb3, 0xbe, 0xb0, 0x67, 0xe2, 0xbc, 0x8e, 0xe9, 0x27, 0xbe,
  0x08, 0x63, 0x02, 0x3e, 0xba, 0xb1, 0x63, 0xbe, 0xe5, 0xdb, 0x1f, 0xbe,
  0x2d, 0x2d, 0x18, 0xbe, 0xa5, 0x3b, 0x3a, 0xbe, 0x64, 0xb8, 0x9d, 0x3c,
  0xf4, 0x00, 0x50, 0xbe, 0xda, 0x00, 0x3b, 0x3e, 0x0e, 0xcf, 0x7d, 0xbc,
  0xd0, 0x47, 0x80, 0x3e, 0xf6, 0x3d, 0x87, 0x3e, 0x6a, 0x8a, 0x8d, 0x3d,
  0xee, 0x3f, 0xc2, 0x3d, 0xf2, 0x0d, 0xeb, 0xbe, 0x15, 0x21, 0x3d, 0xbe,
  0xc8, 0xbd, 0xaa, 0xbe, 0x77, 0xe2, 0x1f, 0x3d, 0x1e, 0x8e, 0xa9, 0xbe,
  0x3a, 0x6f, 0xa2, 0xbe, 0xb3, 0xa3, 0x0e, 0xbf, 0xdb, 0xe4, 0x3a, 0xbe,
  0x67, 0x42, 0x95, 0xbc, 0xd6, 0x4a, 0xd9, 0xbe, 0x55, 0xb1, 0x29, 0x3e,
  0x93, 0xd5, 0x97, 0xbe, 0xd5, 0x1a, 0x0f, 0xbe, 0xe3, 0x56, 0x1b, 0xbe,
  0xe7, 0x33, 0xc6, 0xbd, 0x34, 0x41, 0xca, 0xbd, 0xcb, 0x0b, 0x52, 0x3e,
  0x3b, 0x8c, 0xc2, 0x3d, 0x18, 0xa1, 0xd0, 0xbd, 0x72, 0x5d, 0x4e, 0x3d,
  0x0d, 0xfa, 0x04, 0xbe, 0x43, 0x54, 0x40, 0xbe, 0x1a, 0xa2, 0xfd, 0x3d,
  0x68, 0x08, 0x66, 0xbe, 0x66, 0x72, 0xd5, 0xbc, 0x1f, 0x5c, 0x76, 0xbd,
  0xba, 0x31, 0x3a, 0x3d, 0xc5, 0x31, 0xc4, 0xbe, 0xdd, 0x0a, 0x30, 0xbe,
  0x97, 0xcb, 0x0a, 0xbe, 0x63, 0xdf, 0x76, 0x3e, 0xc3, 0xd4, 0x37, 0x3d,
  0xe1, 0x15, 0x4c, 0x3e, 0xa2, 0xc2, 0xbc, 0xbb, 0x80, 0x53, 0x8e, 0xbc,
  0xe5, 0xd0, 0xb0, 0x3d, 0x3e, 0xdb, 0x42, 0x3e, 0xd1, 0x7c, 0x4e, 0xbd,
  0xd7, 0xce, 0x0d, 0x3e, 0x30, 0x11, 0xa0, 0xbc, 0x11, 0xf4, 0xdf, 0xbc,
  0xb8, 0x27, 0xa4, 0x3d, 0xcd, 0x1c, 0xa0, 0x3e, 0xf4, 0x59, 0x41, 0x3e,
  0xb6, 0x62, 0x4d, 0x3d, 0x13, 0x3b, 0xb0, 0x3d, 0x93, 0x13, 0x85, 0x3d,
  0xfc, 0x11, 0x89, 0xbd, 0x25, 0x99, 0x8f, 0x3d, 0x38, 0xb8, 0x27, 0x3d,
  0x56, 0xd3, 0x37, 0x3d, 0x2c, 0x4d, 0x5a, 0xbc, 0x02, 0x51, 0x34, 0x3d,
  0x14, 0xe3, 0xb7, 0x3d, 0xf3, 0x3e, 0x44, 0x3e, 0x01, 0xdb, 0x44, 0xbc,
  0xf9, 0x52, 0x02, 0xbd, 0x30, 0xe1, 0x3a, 0x3d, 0xdb, 0x84, 0xc4, 0xbd,
  0xab, 0x40, 0xea, 0x3d, 0xd7, 0xca, 0xa8, 0x3c, 0xfc, 0x89, 0xe7, 0x3d,
  0x01, 0xc3, 0x6d, 0x3e, 0xce, 0xd8, 0xf9, 0xbd, 0x4d, 0x7d, 0x9d, 0xbe,
  0xa7, 0x9c, 0x18, 0xbe, 0x56, 0x48, 0x8f, 0xbd, 0x76, 0xfd, 0xa2, 0xbd,
  0x4a, 0x68, 0x40, 0x3e, 0x4d, 0x1d, 0x04, 0xbd, 0xf1, 0xfb, 0x48, 0x3e,
  0xf0, 0x20, 0x3d, 0x3e, 0xfb, 0x30, 0xef, 0xbd, 0xb0, 0x34, 0xa9, 0x3e,
  0x02, 0xd9, 0xfa, 0x3d, 0xa7, 0xb6, 0xea, 0x3e, 0x1d, 0xa2, 0xf4, 0x3d,
  0xbc, 0x48, 0x11, 0xbe, 0x56, 0x10, 0xbb, 0xbe, 0x65, 0xaa, 0x92, 0xbe,
  0x81, 0xc3, 0xbd, 0xbd, 0x68, 0x9f, 0x30, 0xbd, 0x6a, 0x70, 0x86, 0xbe,
  0xcd, 0xcc, 0x7e, 0x3d, 0xf5, 0x28, 0x83, 0xbc, 0x42, 0xa1, 0xc8, 0x3c,
  0x29, 0x0e, 0x9d, 0xbe, 0x97, 0xb0, 0x2a, 0xbe, 0xf2, 0x8d, 0x0f, 0xbe,
  0x61, 0xea, 0xb5, 0x3d, 0xef, 0x3a, 0xf6, 0xbd, 0x59, 0x93, 0x4a, 0x3d,
  0xed, 0x85, 0xd2, 0xbd, 0xac, 0x20, 0x3a, 0xbc, 0x77, 0x22, 0x7b, 0xbe,
  0x0d, 0x3f, 0xc1, 0x3d, 0x46, 0xf7, 0xdb, 0xbd, 0x54, 0x90, 0x9c, 0xbe,
  0xef, 0x5b, 0x87, 0xbe, 0x34, 0x8b, 0x3c, 0xbe, 0x41, 0xa0, 0x78, 0x3d,
  0xb8, 0x07, 0x01, 0xbe, 0xbf, 0xcb, 0xdb, 0xbe, 0x80, 0x76, 0x7b, 0xbd,
  0xac, 0x3b, 0xdb, 0xbc, 0x90, 0xae, 0xa0, 0x3c, 0x75, 0x95, 0x8a, 0xbd,
  0x5e, 0xda, 0x8a, 0xbe, 0x8c, 0x0c, 0xea, 0xbb, 0xb3, 0x9a, 0x70, 0x3e,
  0xcd, 0xa4, 0xa6, 0xbe, 0x58, 0x69, 0xbd, 0x3d, 0x5b, 0xf9, 0xdc, 0x3d,
  0x21, 0x61, 0x71, 0xbe, 0x20, 0x02, 0xdf, 0xbe, 0x48, 0xc3, 0xc8, 0xbc,
  0x27, 0x9c, 0x2f, 0xbe, 0x58, 0x7c, 0xf8, 0xbd, 0x2d, 0xc3, 0x33, 0xbf,
  0x18, 0x5e, 0x06, 0xbe, 0xec, 0x8f, 0x19, 0xbd, 0xd3, 0xaf, 0xfd, 0xbc,
  0x37, 0x5f, 0x1e, 0xbe, 0xb7, 0xbe, 0xa0, 0xbd, 0x76, 0xbd, 0x80, 0xbe,
  0x43, 0x95, 0x06, 0xbe, 0x7c, 0x88, 0x64, 0x3e, 0x59, 0xfe, 0xe2, 0xbd,
  0x05, 0x1a, 0xb5, 0x3e, 0x0d, 0x74, 0xb6, 0x3c, 0xac, 0xf4, 0x52, 0x3c,
  0x79, 0x73, 0x17, 0xbd, 0x37, 0x41, 0x6a, 0x3e, 0x71, 0x56, 0x59, 0xbe,
  0x0b, 0xcb, 0x22, 0x3e, 0xa2, 0xc8, 0x10, 0x3d, 0xf8, 0xe6, 0xcd, 0xbd,
  0x08, 0x97, 0x4d, 0x3e, 0xc0, 0xcb, 0x62, 0x3e, 0x8d, 0xe0, 0x1e, 0x3c,
  0x59, 0x81, 0xba, 0xbe, 0xfc, 0x84, 0x34, 0xbc, 0x95, 0xf4, 0x83, 0x3e,
  0xb0, 0x47, 0x0f, 0xbd, 0x5d, 0x0f, 0x0e, 0x3e, 0x41, 0xbb, 0x43, 0x3d,
  0x25, 0xc5, 0xd0, 0x3a, 0x8f, 0x12, 0x5f, 0xbd, 0x46, 0x79, 0x66, 0x3e,
  0x69, 0xba, 0x80, 0xbe, 0x82, 0x27, 0x0b, 0x3e, 0xf7, 0x74, 0x81, 0x3d,
  0xc1, 0x22, 0x8a, 0xbd, 0xd2, 0x7e, 0xf8, 0x3d, 0xe1, 0x34, 0x81, 0x3e,
  0xdc, 0x88, 0x78, 0x3e, 0x22, 0xae, 0xdf, 0xbe, 0xc0, 0x77, 0x2e, 0x3e,
  0xef, 0x3a, 0xc3, 0x3d, 0xfb, 0xcd, 0xc6, 0xbd, 0x27, 0xf7, 0x27, 0x3e,
  0xa1, 0x59, 0x0c, 0x3d, 0x60, 0x30, 0x73, 0xbc, 0x76, 0x35, 0x28, 0xbd,
  0x98, 0x13, 0x32, 0x3d, 0x49, 0xec, 0x34, 0x3d, 0x46, 0x89, 0x13, 0x3e,
  0xf5, 0x21, 0x11, 0xbd, 0x9e, 0xff, 0x31, 0x3d, 0x86, 0x57, 0xc3, 0xbd,
  0xdb, 0x39, 0x8d, 0x3e, 0x23, 0x4f, 0x6e, 0x3e, 0x6f, 0x67, 0x97, 0xbd,
  0x7a, 0x47, 0x18, 0xbd, 0xc8, 0x17, 0x54, 0xbe, 0x3d, 0x07, 0xb4, 0xbd,
  0x52, 0x22, 0xc3, 0xbd, 0xa8, 0x3f, 0x82, 0x3d, 0x91, 0xec, 0x38, 0xbd,
  0xca, 0xc4, 0x41, 0xbd, 0xd5, 0xe6, 0x81, 0xbe, 0x27, 0x9b, 0x51, 0xbe,
  0x59, 0x67, 0x37, 0xbe, 0x54, 0xae, 0x19, 0xbe, 0x08, 0x1b, 0xa4, 0xbe,
  0x82, 0x31, 0x2a, 0xbe, 0xb4, 0xfa, 0x57, 0x3c, 0xc4, 0x52, 0x47, 0xbe,
  0x89, 0x76, 0x80, 0xbb, 0xd8, 0x64, 0x64, 0xbe, 0x16, 0x4d, 0x73, 0x3d,
  0x80, 0xb1, 0x9b, 0x3d, 0x0f, 0x6b, 0xda, 0x3d, 0xda, 0xe6, 0x89, 0xbe,
  0x9e, 0x79, 0x9e, 0xbe, 0x37, 0x87, 0x24, 0xbe, 0x8c, 0xbb, 0x5e, 0x3d,
  0x07, 0x3d, 0x9d, 0x3d, 0x93, 0xc2, 0xcd, 0x3d, 0x63, 0x4a, 0x0e, 0xbe,
  0x1d, 0xc1, 0x99, 0x3c, 0x1d, 0xb3, 0x6b, 0xbe, 0x66, 0x5a, 0xe8, 0x3c,
  0x20, 0x2b, 0x3d, 0xbe, 0x7e, 0x25, 0x3d, 0xbc, 0xd2, 0x00, 0xa7, 0xbd,
  0xbb, 0x7e, 0x6f, 0xbe, 0x4c, 0xac, 0x88, 0x3d, 0xc0, 0x61, 0x99, 0x3c,
  0xfd, 0x67, 0xd7, 0xba, 0x55, 0x23, 0xb5, 0xba, 0xaa, 0x72, 0xef, 0x3d,
  0xf4, 0x3a, 0x2b, 0xbe, 0xd8, 0x24, 0x6a, 0xbe, 0xda, 0x06, 0x91, 0x3b,
  0x0b, 0x41, 0x6f, 0xbe, 0xd7, 0x17, 0x96, 0xbe, 0xc3, 0x9e, 0x8d, 0xbd,
  0x7e, 0x3b, 0x1a, 0x3e, 0x38, 0x17, 0x5a, 0xbe, 0x6b, 0x13, 0x90, 0xbe,
  0xbc, 0xa9, 0x46, 0x3d, 0x5d, 0x7f, 0x42, 0x38, 0x3b, 0xee, 0xa0, 0x3d,
  0xd1, 0xcc, 0x50, 0xbe, 0xfe, 0xa2, 0x20, 0x3e, 0x79, 0x58, 0x16, 0x3d,
  0x95, 0x6b, 0x32, 0xbe, 0x0b, 0xfe, 0x1e, 0xbe, 0xd3, 0x9e, 0xcc, 0x3d,
  0x16, 0xce, 0x74, 0xbe, 0xa9, 0xc2, 0x7c, 0xbe, 0x47, 0x00, 0xee, 0xbd,
  0xab, 0xc0, 0x60, 0xbd, 0x3f, 0x14, 0x49, 0x3e, 0x21, 0x67, 0x70, 0x3b,
  0x12, 0x30, 0x6c, 0xbd, 0x13, 0x9d, 0x21, 0xbe, 0xdc, 0x1a, 0x0d, 0xbe,
  0x59, 0x69, 0x61, 0xbd, 0xcd, 0x0f, 0x96, 0xbe, 0xb2, 0xf7, 0xdd, 0xbd,
  0xef, 0x02, 0x33, 0xbc, 0x1c, 0x12, 0x84, 0xbd, 0x80, 0x8f, 0xc1, 0xbc,
  0x0e, 0x39, 0xee, 0x3d, 0xd7, 0x51, 0xd2, 0xbc, 0xf5, 0xd7, 0x41, 0xbd,
  0x35, 0x53, 0xc2, 0xbd, 0x84, 0x33, 0x04, 0xbe, 0x4e, 0xe7, 0xc0, 0xbd,
  0xb9, 0xfc, 0x48, 0xbe, 0x42, 0x3b, 0x2f, 0xbe, 0x20, 0x43, 0x74, 0xbe,
  0x4a, 0xea, 0x84, 0xbe, 0x98, 0xf6, 0x79, 0xbe, 0x84, 0xc6, 0xba, 0x3d,
  0xf3, 0x21, 0x2f, 0x3d, 0xe6, 0xad, 0xc5, 0x3c, 0xb7, 0xff, 0x44, 0x3c,
  0x04, 0x10, 0x0b, 0xbc, 0xf6, 0x7d, 0x72, 0xbe, 0x4e, 0xc6, 0x0b, 0xbe,
  0xe0, 0x5b, 0xa2, 0x3b, 0x05, 0xc6, 0x41, 0xbe, 0x5d, 0x97, 0x39, 0x3d,
  0xc0, 0x46, 0x92, 0x3d, 0x18, 0x34, 0x2d, 0xbe, 0x6a, 0xc4, 0x7d, 0xbe,
  0x40, 0x62, 0xd2, 0x3d, 0x80, 0x84, 0x0e, 0xbe, 0x13, 0x63, 0x4b, 0xbe,
  0x0a, 0xb1, 0xb9, 0x3c, 0x81, 0x4d, 0x25, 0x3d, 0x11, 0x25, 0x4e, 0xbe,
  0x93, 0x0f, 0x27, 0xbe, 0xb2, 0xc8, 0xa5, 0xbd, 0x2e, 0xe1, 0x52, 0xbc,
  0xc3, 0x26, 0x2d, 0xbe, 0x78, 0x66, 0xe7, 0xbc, 0xa7, 0x48, 0x39, 0xbe,
  0xb4, 0x62, 0x0a, 0xbe, 0xc1, 0x8e, 0x0c, 0x3e, 0x3c, 0xbd, 0x16, 0xbe,
  0x09, 0x3b, 0x45, 0xbe, 0x8d, 0xdb, 0x9b, 0xbd, 0xde, 0x1b, 0x6a, 0xbd,
  0xd2, 0x0e, 0x84, 0xbe, 0x98, 0x22, 0x16, 0xbe, 0x07, 0x4a, 0x86, 0xbe,
  0xbf, 0x37, 0xfb, 0xbd, 0x6c, 0xad, 0xa3, 0xbc, 0x59, 0xf9, 0x8d, 0xbe,
  0xd8, 0xcd, 0x6b, 0x3b, 0x05, 0xc8, 0x9c, 0x3d, 0x9f, 0x7d, 0x99, 0xbd,
  0x42, 0xcc, 0xc2, 0xbe, 0xc3, 0xfd, 0x22, 0xbd, 0x27, 0x22, 0xfb, 0xbc,
  0x72, 0x82, 0xdc, 0x3c, 0x12, 0xff, 0x07, 0x3d, 0x18, 0xb2, 0x3b, 0xbe,
  0x4b, 0x03, 0x8e, 0xbd, 0x9a, 0x87, 0xb2, 0xbe, 0xe4, 0x7c, 0x37, 0xbe,
  0x5d, 0x2d, 0x27, 0xbe, 0x24, 0x72, 0x91, 0xbd, 0x50, 0x52, 0x59, 0x3d,
  0x42, 0x07, 0xb6, 0xbd, 0x5b, 0xb7, 0x0b, 0x3d, 0xdd, 0x28, 0x15, 0x3f,
  0x55, 0x89, 0xe6, 0xbd, 0x11, 0xae, 0xce, 0xbe, 0xc8, 0x38, 0x2b, 0xbe,
  0x8b, 0x16, 0x27, 0xbd, 0x85, 0xfe, 0x2f, 0xbe, 0x87, 0x8b, 0x80, 0xbd,
  0xa0, 0x0e, 0xae, 0xbd, 0xd2, 0x52, 0x1c, 0x3d, 0xc2, 0x1a, 0x01, 0xbd,
  0xe5, 0x93, 0x88, 0x3d, 0xf6, 0xe3, 0x2b, 0x3d, 0x43, 0xd5, 0xca, 0xba,
  0x8b, 0x61, 0x20, 0x3c, 0x39, 0x7c, 0x25, 0xbe, 0x78, 0x57, 0x87, 0xbe,
  0x20, 0x55, 0x3e, 0x3f, 0xd6, 0x2e, 0x18, 0x3d, 0xab, 0x33, 0x7d, 0xbe,
  0xa7, 0x9f, 0x07, 0xbe, 0xd6, 0xfe, 0xa1, 0xbd, 0x84, 0xa8, 0x3e, 0xbe,
  0x0e, 0x71, 0x7f, 0xbe, 0x81, 0x2f, 0x07, 0xbe, 0x59, 0x51, 0xa8, 0x3c,
  0xb1, 0x05, 0xa6, 0x3d, 0x97, 0x56, 0xee, 0xbd, 0x93, 0xad, 0x3b, 0xbe,
  0xf1, 0xd9, 0x32, 0xbd, 0x64, 0x92, 0x5b, 0xbe, 0x3c, 0xaf, 0x88, 0xbd,
  0x7d, 0xef, 0x71, 0xbd, 0x56, 0x35, 0x70, 0x3f, 0x80, 0x14, 0x48, 0xbe,
  0x58, 0xaa, 0x72, 0xbe, 0x35, 0x44, 0x12, 0x3d, 0x2b, 0x3c, 0x17, 0x3e,
  0x1d, 0xf6, 0x00, 0x3e, 0xa6, 0x3d, 0x7d, 0xbe, 0x0d, 0xd3, 0xe0, 0xbc,
  0x50, 0xe1, 0x48, 0xbc, 0x9a, 0xb6, 0xdf, 0x3b, 0x40, 0xb0, 0x9f, 0xbd,
  0x62, 0x9a, 0xcc, 0x3d, 0x57, 0x16, 0x39, 0x3d, 0xb2, 0xed, 0x4b, 0x3e,
  0xc1, 0x95, 0x54, 0xbd, 0xdc, 0x26, 0x1b, 0xbe, 0xa2, 0x87, 0xe1, 0x3e,
  0xd9, 0x5e, 0x28, 0xbe, 0xfd, 0x32, 0xe6, 0xbd, 0x5c, 0xa4, 0x8f, 0xbe,
  0xa8, 0x08, 0x32, 0x3d, 0x98, 0x3e, 0x17, 0x3e, 0x66, 0x34, 0x57, 0xbe,
  0x73, 0xdd, 0x66, 0x3e, 0xa8, 0x47, 0x38, 0xbe, 0xde, 0x2d, 0xb2, 0x3d,
  0xbb, 0x17, 0x6d, 0xbe, 0x6d, 0x62, 0x00, 0x3e, 0x2b, 0xb8, 0xea, 0xbd,
  0x68, 0x51, 0x08, 0xbd, 0xfa, 0x1f, 0xeb, 0xbc, 0xfe, 0xba, 0x90, 0xbd,
  0xd2, 0xb0, 0x41, 0x3e, 0x27, 0x6f, 0x32, 0xbe, 0x28, 0xf9, 0x19, 0xbe,
  0x3e, 0x61, 0xac, 0x3c, 0x94, 0x2b, 0xf1, 0x3d, 0xf1, 0xa1, 0x45, 0xbe,
  0x15, 0xd5, 0x45, 0xbe, 0x98, 0x67, 0xbf, 0xbb, 0x26, 0x47, 0x00, 0xbe,
  0x6b, 0x79, 0x13, 0xbe, 0xa8, 0x92, 0x91, 0x3c, 0x63, 0x20, 0xa7, 0xbd,
  0x3a, 0x0f, 0xce, 0xbd, 0xb2, 0x98, 0x89, 0xbe, 0x4b, 0xd6, 0x4d, 0xbc,
  0x0d, 0xc2, 0x09, 0xbe, 0x1a, 0xda, 0x74, 0x3e, 0xcb, 0xfe, 0x76, 0xbe,
  0x33, 0x3e, 0xab, 0xbe, 0x9b, 0x5b, 0xae, 0x3d, 0x1b, 0x47, 0x37, 0xbd,
  0x15, 0x48, 0xe4, 0xbd, 0x65, 0x05, 0xc4, 0xbe, 0x27, 0xa1, 0x1c, 0x3d,
  0x21, 0x78, 0xc3, 0xbe, 0x71, 0x01, 0xd1, 0x3d, 0x35, 0xcc, 0x0c, 0xbe,
  0x36, 0x91, 0x70, 0x3e, 0xbf, 0xb7, 0x21, 0xbe, 0xfe, 0x24, 0x2c, 0x3e,
  0xae, 0x0a, 0x89, 0xbe, 0x9f, 0xba, 0x28, 0x3e, 0xd2, 0xf3, 0xdf, 0x3d,
  0x98, 0x05, 0x2e, 0xbe, 0xc9, 0x3a, 0x54, 0xbc, 0x48, 0xe4, 0x58, 0x3d,
  0xe4, 0x76, 0x3b, 0xbe, 0xf1, 0x15, 0xa7, 0x3d, 0xa7, 0x31, 0x53, 0x3e,
  0xbd, 0x25, 0x36, 0x3d, 0x68, 0x4c, 0x75, 0xbd, 0x14, 0x85, 0x74, 0x3e,
  0x0e, 0x60, 0x79, 0xbe, 0x02, 0x95, 0x11, 0xbf, 0x9d, 0xb9, 0x07, 0x3d,
  0x5e, 0xa4, 0x96, 0x3e, 0x3f, 0xdf, 0xc9, 0xbe, 0x36, 0x3d, 0x16, 0xbd,
  0xf8, 0x82, 0x48, 0x3e, 0xfa, 0xd8, 0xe8, 0xbd, 0xa8, 0x64, 0xac, 0xbc,
  0x00, 0x41, 0x5c, 0xbe, 0x6a, 0x6e, 0x09, 0x3e, 0x7c, 0x91, 0x55, 0xbe,
  0x23, 0xc2, 0x6b, 0x3e, 0x63, 0x5e, 0x24, 0x3d, 0xb4, 0x00, 0xa3, 0x3e,
  0x04, 0x66, 0x5f, 0xbc, 0x86, 0x55, 0x34, 0xbe, 0xbf, 0x84, 0x4e, 0xbe,
  0xfd, 0xe8, 0x81, 0x3d, 0x63, 0x35, 0x89, 0x3e, 0x64, 0x3a, 0x14, 0xbe,
  0xe5, 0x39, 0x64, 0xbe, 0xab, 0xc5, 0x0b, 0x3f, 0xd3, 0xf3, 0x6c, 0xbe,
  0xd8, 0x17, 0x3c, 0xbd, 0x12, 0x9e, 0x4a, 0x3e, 0x83, 0x24, 0x1d, 0x3e,
  0x6f, 0x91, 0x31, 0xbe, 0x23, 0x51, 0x23, 0xbd, 0xb3, 0x0c, 0x17, 0xbe,
  0x04, 0x08, 0x03, 0x3e, 0x1a, 0x2e, 0x84, 0xbe, 0x96, 0xd8, 0x06, 0xbe,
  0x0a, 0x89, 0xa7, 0x3c, 0xd4, 0xa9, 0x84, 0x3d, 0x19, 0x66, 0x90, 0xbe,
  0x9b, 0xdc, 0xa5, 0xbe, 0x4c, 0xf2, 0xc4, 0xbe, 0x3e, 0xf8, 0x10, 0x3f,
  0x91, 0x29, 0xa3, 0xbe, 0xb4, 0x60, 0x23, 0xbd, 0xb5, 0x70, 0x43, 0x3d,
  0xd6, 0x6f, 0x0e, 0x3e, 0x5f, 0xde, 0x98, 0xbd, 0x84, 0x8f, 0x91, 0xbd,
  0x6c, 0x4c, 0x80, 0x3c, 0xc1, 0x13, 0x29, 0xbd, 0x99, 0xfa, 0x11, 0x3c,
  0xf9, 0xe7, 0xb4, 0xbd, 0x6e, 0xe6, 0x6b, 0x3e, 0xf7, 0x73, 0x1a, 0xbc,
  0xff, 0x96, 0xbe, 0xbd, 0x90, 0xe8, 0x48, 0xbe, 0xd1, 0xf5, 0xe8, 0xbd,
  0xdf, 0x9f, 0x06, 0x3f, 0x0e, 0x9e, 0x82, 0xbe, 0x2c, 0xa6, 0xb8, 0xbc,
  0x55, 0x68, 0xac, 0xbb, 0x16, 0xde, 0xdc, 0xbd, 0x1e, 0xea, 0x2e, 0xbe,
  0x95, 0x95, 0xdd, 0x3d, 0xba, 0xad, 0x8b, 0x3d, 0x7a, 0x50, 0x68, 0xbe,
  0x90, 0xc1, 0xa3, 0xbd, 0xc4, 0x4c, 0xde, 0x3b, 0xe9, 0xa2, 0x59, 0xbe,
  0x81, 0x87, 0x40, 0x3d, 0xe3, 0xbd, 0x6a, 0x3c, 0x00, 0x38, 0x5c, 0xbe,
  0x04, 0x86, 0x74, 0xbd, 0x86, 0x9a, 0xb2, 0x3e, 0x53, 0xe5, 0x84, 0xbe,
  0x08, 0x26, 0x45, 0x3c, 0x79, 0x35, 0x5d, 0xbd, 0x62, 0x1f, 0x96, 0xbe,
  0xca, 0xf3, 0x26, 0xbe, 0xef, 0x81, 0x7d, 0xbd, 0x05, 0xe9, 0x9f, 0x3e,
  0x56, 0x21, 0x54, 0xbd, 0xfa, 0x55, 0x76, 0xbe, 0x7e, 0xd0, 0xbf, 0xbd,
  0xf4, 0x36, 0x3b, 0xbe, 0x21, 0x00, 0x7f, 0xbd, 0x5d, 0x95, 0x07, 0xbd,
  0x1a, 0x3a, 0x92, 0xbe, 0x98, 0x9a, 0x41, 0xbe, 0x2e, 0xd6, 0x87, 0x3e,
  0x10, 0xf1, 0x59, 0xbe, 0xa4, 0x2e, 0xa7, 0x3c, 0x7c, 0x32, 0x2f, 0xbe,
  0x47, 0xe1, 0x3f, 0xbd, 0x87, 0x27, 0x59, 0xbe, 0x2b, 0xb3, 0x51, 0xbd,
  0xf6, 0x94, 0x01, 0xbf, 0x5f, 0x26, 0x51, 0xbe, 0x6e, 0x9a, 0x7d, 0xbe,
  0xa1, 0x87, 0x82, 0x3d, 0xb5, 0xa6, 0x42, 0xbd, 0xac, 0xf6, 0xc8, 0xbe,
  0xce, 0x03, 0x7f, 0xbe, 0x88, 0x6a, 0x0f, 0xbe, 0x37, 0x78, 0x18, 0x3c,
  0x3b, 0x32, 0xf4, 0xbb, 0xb4, 0x74, 0x5b, 0x3d, 0xbf, 0x4e, 0x43, 0xbe,
  0xd5, 0xf4, 0xa8, 0x3d, 0x06, 0xe3, 0x3c, 0xbe, 0xf8, 0x90, 0x9a, 0xbb,
  0xe4, 0x8b, 0x82, 0xbe, 0x55, 0xd7, 0x84, 0xbe, 0x41, 0x2b, 0x23, 0xbd,
  0x71, 0x17, 0xd0, 0x3d, 0xfe, 0xf0, 0x28, 0x3e, 0xf3, 0x9a, 0x25, 0xbd,
  0x37, 0xf9, 0x80, 0xbc, 0xcb, 0xe9, 0x97, 0x3d, 0x1f, 0xfb, 0x80, 0xbe,
  0xc9, 0x6e, 0x71, 0xbe, 0xe1, 0x03, 0x24, 0xbe, 0x8e, 0x15, 0x22, 0xbd,
  0x6f, 0x95, 0x32, 0xbe, 0x09, 0x18, 0x58, 0xbd, 0x10, 0xcf, 0xaf, 0xbd,
  0xe7, 0xae, 0xf2, 0x3d, 0x61, 0x61, 0x1b, 0xbe, 0x0f, 0xeb, 0x70, 0xbe,
  0x4a, 0x83, 0x0c, 0xbe, 0x52, 0xe1, 0xe1, 0xbd, 0xf3, 0x0f, 0x09, 0x3e,
  0xd2, 0xca, 0x2f, 0x3e, 0x6c, 0xd8, 0x2a, 0xbe, 0x75, 0xf7, 0x3b, 0xbe,
  0xad, 0xde, 0x17, 0xbe, 0x8f, 0x49, 0x90, 0xbd, 0x3e, 0xa8, 0x9e, 0xbe,
  0x12, 0xfd, 0xec, 0xbd, 0x19, 0x4b, 0x45, 0xbe, 0xda, 0x17, 0x9d, 0xbd,
  0x3b, 0x72, 0x21, 0x3e, 0x5a, 0xef, 0x48, 0xbe, 0x8a, 0x2f, 0x66, 0xbb,
  0x19, 0x21, 0xd6, 0xbd, 0xb6, 0x5e, 0x87, 0x3c, 0x63, 0x11, 0x2b, 0x3d,
  0x4a, 0x6f, 0xd0, 0x3d, 0x51, 0x2f, 0x4a, 0x3d, 0x03, 0x49, 0x82, 0xbe,
  0x64, 0x45, 0x3e, 0x3c, 0xce, 0x89, 0x8c, 0xbd, 0x9a, 0x46, 0xb3, 0xbd,
  0x3a, 0xe0, 0x3b, 0xbd, 0xed, 0x20, 0xb3, 0x3d, 0x01, 0x79, 0x87, 0xbe,
  0x24, 0x41, 0xbc, 0xbd, 0x37, 0x74, 0xb7, 0x3d, 0x3d, 0x9c, 0x28, 0xbe,
  0x79, 0xe9, 0xb6, 0xbd, 0x92, 0xc7, 0xff, 0x3c, 0xce, 0x13, 0x82, 0xbe,
  0xf3, 0x91, 0x1e, 0xbe, 0x1b, 0xd9, 0x22, 0x3e, 0xf8, 0x91, 0x90, 0xbd,
  0xee, 0x84, 0x13, 0x3d, 0xdb, 0xd0, 0x73, 0xbe, 0x56, 0x8f, 0x53, 0x3d,
  0x64, 0x58, 0x70, 0x3d, 0xcd, 0x61, 0xe8, 0xbd, 0xa4, 0x92, 0x7d, 0x3b,
  0xf3, 0x4d, 0x87, 0xbe, 0xa2, 0x4b, 0xfd, 0xbd, 0x7e, 0xa4, 0x4c, 0xbe,
  0x0d, 0xf8, 0x16, 0x3e, 0x8b, 0x1e, 0x84, 0xbe, 0x77, 0x9b, 0x17, 0xbc,
  0xc0, 0xf6, 0xdf, 0x3d, 0x21, 0xfb, 0x60, 0xbd, 0x47, 0x00, 0x0f, 0xbe,
  0xb0, 0x83, 0xe8, 0xbc, 0x23, 0xec, 0x3c, 0xbe, 0x1c, 0x62, 0xb1, 0x3a,
  0x4a, 0x1d, 0x31, 0xbe, 0x17, 0x1b, 0xb0, 0x3d, 0x3e, 0xe1, 0x4a, 0xbd,
  0xd7, 0xc3, 0x48, 0xbd, 0xbc, 0xbd, 0x4d, 0xbc, 0x34, 0xe6, 0x0f, 0xbe,
  0x73, 0x08, 0x56, 0xbe, 0x2f, 0xff, 0x18, 0x3e, 0xad, 0x88, 0x99, 0xbc,
  0x1f, 0x75, 0x81, 0xbe, 0x34, 0xc5, 0x43, 0xbd, 0x6c, 0xa0, 0x0a, 0xbd,
  0xfd, 0xb0, 0x9e, 0x3c, 0xab, 0x46, 0xc5, 0xbd, 0x1b, 0x91, 0x9d, 0xbd,
  0xde, 0x62, 0xb1, 0xbb, 0x98, 0x46, 0x89, 0xbd, 0x13, 0x62, 0x67, 0xbd,
  0x20, 0xf7, 0x42, 0xbe, 0xf4, 0xf2, 0xec, 0xbd, 0x43, 0xfe, 0xa1, 0xbd,
  0xbd, 0xe8, 0x70, 0x3d, 0xfb, 0xed, 0xb8, 0xbd, 0xe6, 0xd4, 0x1b, 0x3d,
  0xd7, 0xa8, 0x4b, 0xbe, 0xdc, 0x91, 0x58, 0xbe, 0xac, 0x71, 0x01, 0xbe,
  0xd6, 0x45, 0x0a, 0xbf, 0x1d, 0xc7, 0x17, 0xbe, 0xa8, 0x8d, 0xcc, 0xbe,
  0x1d, 0x74, 0x56, 0xbc, 0x5b, 0x76, 0xe3, 0xbe, 0xb3, 0x66, 0x7b, 0xbe,
  0xd9, 0xd0, 0xe3, 0xbd, 0x0d, 0x04, 0x22, 0xbd, 0xc7, 0x55, 0xc2, 0xbe,
  0x05, 0x3d, 0x0a, 0xbc, 0xd2, 0x13, 0xa6, 0xbe, 0x36, 0x46, 0xcb, 0xbd,
  0x0c, 0x4d, 0xa5, 0xbd, 0x6a, 0x66, 0xc5, 0xbe, 0xc9, 0xf7, 0xde, 0xbd,
  0xea, 0x0d, 0x25, 0xbd, 0xa2, 0x83, 0xf3, 0xbe, 0x45, 0x4e, 0xef, 0xbd,
  0x98, 0x0f, 0xa9, 0xbe, 0x2b, 0xc0, 0x9b, 0xbe, 0xf7, 0x09, 0x93, 0xbe,
  0x0b, 0x57, 0x4f, 0xbd, 0x07, 0x49, 0x93, 0xbd, 0x1b, 0xe3, 0x1f, 0x3f,
  0x0a, 0x15, 0x42, 0xbe, 0xd8, 0x58, 0x54, 0xbc, 0x6c, 0xef, 0xce, 0xbe,
  0x3c, 0x5e, 0x51, 0x3e, 0x62, 0x41, 0x5d, 0xbe, 0x4c, 0xc4, 0xcf, 0xbe,
  0xf4, 0xf1, 0x6e, 0xbe, 0x94, 0x90, 0x1c, 0x3e, 0x9e, 0x69, 0xbd, 0xbe,
  0x41, 0x37, 0x86, 0x3d, 0xe3, 0xef, 0xa3, 0xbd, 0x9b, 0xad, 0x22, 0xbe,
  0xcc, 0x6b, 0x56, 0xbd, 0xac, 0x6e, 0x9f, 0xbe, 0x12, 0x5a, 0xdf, 0xbd,
  0x9e, 0x61, 0xd0, 0x3e, 0xda, 0x4d, 0x47, 0xbe, 0x8f, 0xbc, 0xe7, 0x3b,
  0xeb, 0xf3, 0x36, 0xbe, 0x73, 0x9a, 0xd8, 0x3d, 0xf5, 0x93, 0x46, 0xbe,
  0x05, 0x3f, 0x0d, 0xbd, 0x43, 0xdc, 0x48, 0x3c, 0x6a, 0x1a, 0x92, 0x3d,
  0x37, 0x5a, 0x4e, 0xbe, 0x8e, 0x09, 0x5b, 0xbe, 0xf3, 0x2f, 0xd3, 0x3c,
  0xdb, 0xbf, 0x5d, 0xbd, 0x61, 0x2c, 0x0c, 0x3e, 0x66, 0x28, 0xb7, 0xbd,
  0xef, 0x0f, 0x83, 0xbb, 0x1d, 0x72, 0x65, 0x3e, 0x77, 0xbd, 0x34, 0xbe,
  0xbe, 0x13, 0xdb, 0xbc, 0x59, 0x54, 0x69, 0x3d, 0x88, 0x46, 0x24, 0x3d,
  0x1f, 0x58, 0xf8, 0xbd, 0x82, 0xfc, 0xaf, 0x3e, 0xf9, 0xc7, 0x97, 0x3d,
  0xb5, 0x2a, 0xcc, 0xbd, 0x9e, 0x41, 0x8d, 0x3e, 0x5c, 0x25, 0xdb, 0xbe,
  0xe6, 0x63, 0x7c, 0x3d, 0xb3, 0xa1, 0x6b, 0xbe, 0x8c, 0x2e, 0x6c, 0x3e,
  0xb7, 0xbb, 0x9c, 0xbe, 0xb3, 0x9d, 0x3f, 0xbe, 0x35, 0xb1, 0xf6, 0x3d,
  0xab, 0x09, 0xf9, 0xbd, 0xb7, 0xc4, 0x06, 0xbd, 0x12, 0x02, 0x65, 0xbe,
  0x8e, 0xc3, 0xcc, 0xbb, 0xa3, 0xfd, 0x1a, 0xbe, 0xbe, 0xe4, 0x36, 0x3e,
  0x52, 0x71, 0x0a, 0x3d, 0x04, 0xf2, 0x29, 0xbe, 0x43, 0xc3, 0x4f, 0x3e,
  0x27, 0x07, 0x49, 0xbe, 0x9a, 0xfa, 0x54, 0x3e, 0xdb, 0x8f, 0x69, 0xbd,
  0xb4, 0x5b, 0x47, 0x3e, 0xfe, 0x96, 0x94, 0xbe, 0xa4, 0x69, 0x9c, 0xbe,
  0xf4, 0xf7, 0x8b, 0x3d, 0x3d, 0xfa, 0x7a, 0xbe, 0xf7, 0xbf, 0x06, 0xbd,
  0xeb, 0xc2, 0x23, 0xbf, 0x8e, 0xb2, 0xd0, 0xbd, 0x37, 0xc7, 0x73, 0xbe,
  0x0b, 0x48, 0x28, 0x3e, 0x29, 0xb0, 0x1b, 0x3e, 0xe0, 0x2f, 0x89, 0xbe,
  0xaa, 0x94, 0x2d, 0x3e, 0xfb, 0xc3, 0xb5, 0xbd, 0xa2, 0xd7, 0x1b, 0x3e,
  0x28, 0x6f, 0x4b, 0x3d, 0xa2, 0x04, 0x42, 0xbc, 0x99, 0x12, 0x4a, 0xbe,
  0x12, 0xc0, 0x97, 0x3d, 0xc5, 0x59, 0x92, 0x3e, 0xd3, 0xa7, 0xe9, 0xbd,
  0x93, 0x6d, 0xb7, 0xbd, 0x3c, 0xc2, 0x3a, 0xbe, 0x8a, 0x07, 0x2c, 0x3c,
  0xdd, 0xba, 0x19, 0xbe, 0x0a, 0x6d, 0x77, 0x3d, 0xa8, 0xe0, 0xf3, 0x3d,
  0xef, 0xd3, 0xb6, 0xbe, 0x3d, 0x86, 0x94, 0xbe, 0x10, 0xcb, 0x17, 0xbe,
  0x34, 0xb2, 0x0c, 0xbd, 0x02, 0xe9, 0x96, 0xbe, 0x18, 0xd1, 0x86, 0x3e,
  0xd5, 0x81, 0xfe, 0xbe, 0x37, 0x81, 0xba, 0xbe, 0xaa, 0x1b, 0x96, 0x3d,
  0x71, 0x9c, 0xf9, 0xbe, 0x95, 0x0b, 0x8a, 0xbd, 0x52, 0x18, 0x0a, 0xbd,
  0x8f, 0x70, 0xae, 0xbe, 0x8d, 0x50, 0xba, 0xbe, 0xb2, 0x4a, 0x2f, 0x3e,
  0x16, 0xe8, 0x79, 0xbe, 0x1a, 0x2e, 0xce, 0x3d, 0xd3, 0x3e, 0x8d, 0xbd,
  0x76, 0x98, 0x1d, 0xbe, 0xd5, 0xf7, 0x0b, 0xbc, 0x9d, 0x1d, 0xb0, 0xbc,
  0x22, 0x18, 0x56, 0x3e, 0x7a, 0x86, 0xdb, 0xbe, 0xae, 0x96, 0x91, 0xbd,
  0x94, 0x8d, 0x29, 0x3f, 0x99, 0xdd, 0x92, 0xbe, 0xba, 0xab, 0x0d, 0xbe,
  0x7c, 0x86, 0x95, 0xbc, 0x12, 0x00, 0xdb, 0xbc, 0x2d, 0x74, 0xe4, 0xbd,
  0x80, 0xd4, 0x31, 0x3e, 0x51, 0xb2, 0xdb, 0xbd, 0x6d, 0x14, 0xa2, 0x3d,
  0x2f, 0x59, 0x85, 0xbd, 0xd9, 0x90, 0x4f, 0x3e, 0xa1, 0x90, 0x7b, 0x3e,
  0x55, 0xda, 0x9e, 0x3d, 0xae, 0x3b, 0x9c, 0x3d, 0x93, 0x4b, 0xf9, 0xbe,
  0xf9, 0x5b, 0x9a, 0xbe, 0x23, 0x20, 0x0d, 0x3f, 0x80, 0x8a, 0xc1, 0xbe,
  0x03, 0x0c, 0xf8, 0xbd, 0x15, 0x6a, 0x82, 0x3d, 0xb6, 0xbb, 0x89, 0x3e,
  0xcf, 0x9e, 0xab, 0xbe, 0x99, 0x75, 0x3e, 0x3e, 0x2e, 0x68, 0xb6, 0xbd,
  0x73, 0x5e, 0xb7, 0x3d, 0x0d, 0x36, 0x24, 0x3e, 0xa5, 0x6a, 0x20, 0xb9,
  0x3a, 0x8b, 0x2b, 0x3e, 0x1a, 0x5c, 0x25, 0xbe, 0x11, 0x3f, 0x20, 0x3e,
  0xba, 0x54, 0x1e, 0xbe, 0xae, 0x1b, 0xe2, 0xbe, 0x67, 0xaf, 0xf7, 0x3e,
  0x67, 0x8f, 0x62, 0xbe, 0xfe, 0xea, 0xbf, 0xbd, 0x28, 0xb1, 0x06, 0xbd,
  0x94, 0x10, 0xa9, 0x3e, 0xfe, 0x21, 0xe7, 0xbd, 0x0f, 0x93, 0x82, 0x3e,
  0xf8, 0x6c, 0x5b, 0x3e, 0xcd, 0x0e, 0x6a, 0xbe, 0x83, 0xac, 0x74, 0x3e,
  0x3d, 0xab, 0x89, 0xbe, 0xc4, 0xfc, 0x4e, 0x3e, 0xb6, 0x4f, 0xed, 0xbd,
  0x33, 0x04, 0xba, 0x3e, 0x4b, 0x7a, 0x08, 0xbf, 0xef, 0x25, 0xb0, 0xbe,
  0xef, 0xbc, 0xbf, 0x3e, 0x3e, 0x87, 0x0e, 0xbe, 0xbb, 0xf7, 0x8f, 0xbd,
  0x9e, 0x76, 0xcb, 0xbe, 0xc8, 0xbc, 0x67, 0xbe, 0x12, 0x52, 0xa8, 0xbe,
  0x66, 0xe7, 0x81, 0x3e, 0xbc, 0x7c, 0x03, 0x3e, 0x0f, 0xdb, 0xfa, 0xbd,
  0x9b, 0xed, 0x1e, 0x3c, 0x70, 0x24, 0xd3, 0xbe, 0xe8, 0x30, 0xa9, 0xbd,
  0x8d, 0x50, 0xff, 0xbb, 0xbe, 0xf1, 0x7e, 0x3e, 0xad, 0xdc, 0x83, 0xbe,
  0x0f, 0x70, 0x09, 0xbe, 0x7d, 0xc7, 0x80, 0x3e, 0x5d, 0x8d, 0xbb, 0xbe,
  0x5f, 0x01, 0x9f, 0xbd, 0x34, 0x4b, 0x8f, 0xbe, 0x4e, 0x2a, 0xb7, 0x3d,
  0xe5, 0x13, 0xec, 0xbd, 0x3c, 0x4b, 0x57, 0x3d, 0xfa, 0xe2, 0x19, 0xbd,
  0x1d, 0x28, 0x78, 0xbd, 0xa5, 0xc8, 0xd0, 0xbe, 0x87, 0xbb, 0xc7, 0xbd,
  0xc7, 0x69, 0x01, 0x3e, 0x42, 0xd6, 0x4d, 0xbd, 0x75, 0xe8, 0xe4, 0xbd,
  0x68, 0xb0, 0x5d, 0xbe, 0xea, 0x8c, 0x41, 0xbe, 0x6d, 0x2f, 0xb1, 0x3e,
  0x6c, 0x89, 0x5e, 0xbe, 0x56, 0x75, 0x84, 0xbc, 0xb7, 0x0b, 0x0f, 0xbe,
  0x1d, 0x76, 0xd9, 0xbc, 0xda, 0xab, 0x2c, 0xbe, 0x4c, 0x9d, 0x83, 0xbd,
  0x92, 0x38, 0x92, 0xbe, 0x89, 0x08, 0x2a, 0xbe, 0x8c, 0xdb, 0x79, 0xbd,
  0xbe, 0x09, 0x6a, 0xbe, 0xb8, 0xf9, 0x76, 0xbe, 0xf5, 0x06, 0x8a, 0xbe,
  0xfd, 0x72, 0xdd, 0xbd, 0x49, 0x98, 0x58, 0x3d, 0xc0, 0x00, 0xd6, 0xbd,
  0x91, 0x5b, 0x89, 0xbe, 0xfa, 0x30, 0x28, 0xbc, 0x12, 0x9f, 0xdc, 0xbd,
  0xe5, 0x27, 0x38, 0xbe, 0xbf, 0x33, 0x15, 0xbe, 0x51, 0xd4, 0x19, 0xbe,
  0x6d, 0x1d, 0xb2, 0xbd, 0x34, 0x47, 0xcd, 0xbe, 0x1b, 0x5d, 0x05, 0xbe,
  0x2c, 0xab, 0xa3, 0xbd, 0xac, 0xe4, 0x04, 0xbe, 0x1c, 0x99, 0x8b, 0xbd,
  0xc7, 0xe6, 0x05, 0x3c, 0x6f, 0x81, 0x46, 0xbd, 0xde, 0x5b, 0x74, 0x3e,
  0xb3, 0x63, 0x25, 0xbe, 0x9f, 0x59, 0x1b, 0xbe, 0x61, 0xbd, 0xd9, 0xbd,
  0x3d, 0x36, 0x1f, 0xbe, 0xd2, 0x76, 0xd4, 0xbd, 0x32, 0xe0, 0x1e, 0xbe,
  0xa4, 0xc8, 0xd7, 0x3d, 0xc1, 0x46, 0x6a, 0xbc, 0xd9, 0xda, 0x2d, 0xbe,
  0x3d, 0x70, 0xf6, 0x3c, 0x37, 0x9c, 0xa2, 0xbd, 0x7d, 0x3c, 0xda, 0x3d,
  0xc8, 0xe5, 0x5f, 0xbe, 0xab, 0x89, 0x80, 0x3c, 0x07, 0xbc, 0x64, 0x3c,
  0xee, 0xea, 0xe3, 0x3c, 0x76, 0x97, 0xe2, 0x3c, 0xc9, 0xb4, 0x2a, 0xbe,
  0xa5, 0x43, 0x24, 0x3c, 0xd8, 0x11, 0x24, 0xbe, 0x5b, 0x4d, 0x0d, 0xbd,
  0x69, 0xdd, 0x33, 0x3e, 0x48, 0xd2, 0x33, 0xbe, 0x4c, 0x30, 0x2d, 0xbc,
  0xdf, 0x97, 0x3f, 0xbe, 0x1f, 0x27, 0x06, 0x3b, 0x2a, 0x43, 0x08, 0xbe,
  0xfe, 0xb1, 0xc8, 0xbd, 0x22, 0xb9, 0x14, 0xbe, 0x41, 0xdb, 0x3d, 0xbe,
  0xd1, 0xa7, 0x7b, 0xbe, 0xd1, 0xba, 0xc9, 0xbd, 0x28, 0x98, 0x81, 0xbd,
  0x43, 0x06, 0xb3, 0xbe, 0x88, 0xf2, 0x96, 0xbe, 0xe4, 0xba, 0xef, 0xbd,
  0xdb, 0xb8, 0xee, 0xbd, 0x10, 0xe8, 0xb3, 0xbd, 0x1a, 0x34, 0x78, 0x3e,
  0xf7, 0x21, 0x96, 0xbc, 0x53, 0x58, 0x90, 0xbb, 0x44, 0x9e, 0x9d, 0xbd,
  0x80, 0x7c, 0xdc, 0xbd, 0x82, 0xc0, 0x75, 0x3e, 0x9f, 0x4d, 0x53, 0x3d,
  0x9f, 0x0a, 0x88, 0xbd, 0x5c, 0x6c, 0xcf, 0xbe, 0x93, 0x18, 0x63, 0xbe,
  0x89, 0x62, 0xfe, 0xbd, 0xe4, 0xb8, 0x90, 0xbd, 0xe4, 0x03, 0x9e, 0xbe,
  0x56, 0xde, 0x82, 0xbe, 0xcd, 0x0f, 0x6b, 0x3e, 0xbd, 0xd2, 0x75, 0xbd,
  0x85, 0x48, 0xe3, 0x3d, 0x70, 0x7c, 0xf6, 0xbe, 0x01, 0xea, 0x78, 0xbe,
  0x3a, 0xcc, 0x10, 0x3e, 0x91, 0x1f, 0x5b, 0xbe, 0xf0, 0xf2, 0x7d, 0x3d,
  0xaa, 0xa5, 0xb1, 0xbd, 0x54, 0x25, 0x23, 0x3e, 0xb8, 0x14, 0xba, 0xbe,
  0xa9, 0x41, 0xea, 0x3d, 0xc3, 0xe8, 0x48, 0xbe, 0x49, 0x78, 0xa0, 0x3b,
  0xd2, 0x83, 0x4e, 0x3d, 0xeb, 0x59, 0xae, 0xbd, 0x48, 0x9e, 0x71, 0xbd,
  0x8e, 0xe0, 0xc5, 0x3e, 0xa9, 0x12, 0x48, 0x3e, 0x0a, 0xd5, 0x48, 0xbe,
  0x6e, 0x0d, 0x32, 0xbd, 0x8c, 0xaa, 0x54, 0xbb, 0x09, 0x9c, 0xcc, 0xbc,
  0x27, 0x49, 0x54, 0x3e, 0x6e, 0xa8, 0x61, 0x3c, 0x36, 0xfb, 0xa8, 0x3d,
  0x23, 0xbe, 0x61, 0xbc, 0x50, 0xd6, 0x01, 0x3e, 0x48, 0xc0, 0xff, 0x3d,
  0x87, 0x19, 0x2c, 0x3e, 0x0d, 0xc0, 0x28, 0xbd, 0xdf, 0x76, 0x2f, 0xbd,
  0x64, 0xf4, 0x18, 0x3e, 0x5d, 0x86, 0x54, 0x3e, 0x03, 0xa1, 0x76, 0x3d,
  0xc7, 0xa9, 0x02, 0x3c, 0x82, 0xaf, 0x98, 0xbc, 0x98, 0x44, 0x39, 0xbe,
  0x6f, 0x1e, 0x67, 0x3d, 0xb1, 0x17, 0xf3, 0xbd, 0x53, 0xdb, 0x4b, 0x3c,
  0xec, 0x6a, 0x25, 0xbe, 0xac, 0x01, 0xa3, 0x3e, 0x50, 0xcb, 0x8d, 0xbe,
  0xa7, 0x8c, 0xa2, 0xbc, 0xab, 0xa3, 0x05, 0x3e, 0x98, 0x65, 0x00, 0xbe,
  0xfd, 0x57, 0x3c, 0xbd, 0x43, 0x8a, 0x7f, 0xbe, 0x06, 0x4f, 0xac, 0xbd,
  0xbc, 0xaa, 0x04, 0xbe, 0x13, 0xc4, 0x7e, 0x3e, 0xa1, 0xd5, 0x86, 0xbd,
  0x68, 0xfb, 0xc7, 0xbd, 0x89, 0xd3, 0x46, 0x3e, 0x3e, 0x13, 0x29, 0xbe,
  0x33, 0xa9, 0x00, 0xbf, 0xdd, 0x0b, 0x98, 0x3b, 0x4c, 0x63, 0xfc, 0x3d,
  0xd9, 0x87, 0xb7, 0xbe, 0x06, 0x96, 0x33, 0xbe, 0xab, 0xaf, 0xc9, 0x3e,
  0x7c, 0xfa, 0x6b, 0xbe, 0x6c, 0xe5, 0xf7, 0xbb, 0x11, 0xa8, 0xe9, 0xbe,
  0x29, 0x02, 0x80, 0x3d, 0x2d, 0x1e, 0xa7, 0xbe, 0xc6, 0xf3, 0x13, 0x3e,
  0x0e, 0x44, 0x30, 0xbe, 0x1e, 0xa1, 0x95, 0x3e, 0x0c, 0x64, 0xf3, 0xbd,
  0x1b, 0x55, 0xcb, 0xbd, 0x8e, 0xb5, 0x08, 0x3e, 0xab, 0x94, 0x82, 0x3e,
  0x4f, 0x33, 0x86, 0x3e, 0x53, 0xcd, 0xa6, 0xbe, 0x0e, 0x76, 0x30, 0xbe,
  0x89, 0xbf, 0x19, 0x3f, 0x92, 0xb6, 0x25, 0xbe, 0x3a, 0x2a, 0x82, 0xbd,
  0x50, 0x83, 0x00, 0xbe, 0xdf, 0x2c, 0x13, 0x3e, 0xbf, 0xa3, 0x39, 0xbe,
  0x58, 0x8b, 0x80, 0x3d, 0x4e, 0xf0, 0x85, 0xbd, 0x26, 0x63, 0x12, 0x3e,
  0xa4, 0xb1, 0x93, 0xbe, 0x55, 0x49, 0x21, 0xbe, 0x47, 0xb5, 0x0e, 0x3e,
  0x77, 0xec, 0x98, 0x3d, 0xce, 0x8b, 0xf3, 0x3d, 0x1e, 0x30, 0xcf, 0xbe,
  0xcc, 0xb5, 0x3d, 0xbe, 0x18, 0x26, 0x1c, 0x3f, 0xb6, 0x97, 0xa3, 0xbe,
  0x7b, 0x69, 0x1a, 0xbc, 0xe7, 0x0b, 0x20, 0xbe, 0x4f, 0xf3, 0x73, 0x3e,
  0xf0, 0xc2, 0xe2, 0xbd, 0x00, 0xd1, 0x5c, 0x3d, 0xc1, 0xf9, 0xf2, 0x3d,
  0x59, 0xf2, 0x0b, 0xbd, 0x4f, 0x84, 0x84, 0x3d, 0x70, 0xc6, 0xe9, 0xbe,
  0xde, 0xc2, 0x2a, 0x3e, 0x7f, 0x01, 0x05, 0xbe, 0x81, 0x3e, 0x44, 0x3e,
  0xea, 0x56, 0x07, 0xbf, 0xf5, 0x9b, 0x65, 0xbe, 0xa1, 0xae, 0x1f, 0x3f,
  0xda, 0xe5, 0xb2, 0xbe, 0x56, 0xaf, 0xd6, 0xbb, 0xc5, 0x67, 0x57, 0xbe,
  0x67, 0xbe, 0x16, 0xbe, 0x44, 0x0a, 0x04, 0xbd, 0xdb, 0x56, 0x85, 0x3e,
  0xcf, 0x8d, 0xf8, 0x3c, 0xee, 0x63, 0xcd, 0xbe, 0xc5, 0x94, 0xfb, 0xbd,
  0xcb, 0x1e, 0xac, 0xbe, 0xd4, 0x30, 0x8f, 0x3e, 0x85, 0x56, 0x35, 0xbe,
  0xe8, 0x19, 0x78, 0x3e, 0xd7, 0x07, 0xdb, 0xbe, 0x40, 0x90, 0x94, 0xbe,
  0xf4, 0x61, 0x3b, 0x3e, 0xa0, 0x3d, 0xab, 0xbe, 0xe4, 0x8a, 0xdb, 0x3b,
  0x72, 0xe5, 0xd0, 0xbe, 0x49, 0x4d, 0x82, 0xbe, 0x31, 0xd9, 0x82, 0xbe,
  0xdc, 0xbd, 0x76, 0x3e, 0x3b, 0x41, 0x6c, 0x3e, 0x1f, 0xe1, 0xf0, 0xbe,
  0x92, 0x9c, 0xea, 0x3d, 0xef, 0x70, 0x20, 0xbe, 0x17, 0x53, 0xb8, 0x3d,
  0x99, 0x84, 0x96, 0xbd, 0xa8, 0x95, 0x08, 0xbd, 0x8a, 0x8d, 0x04, 0xbe,
  0x41, 0x31, 0xf8, 0x3d, 0x2b, 0xff, 0x5a, 0x3e, 0x81, 0xb5, 0x50, 0xbe,
  0x13, 0x69, 0x25, 0x3d, 0x83, 0x8b, 0x6a, 0xbe, 0x92, 0xab, 0xd0, 0x3d,
  0x0f, 0x59, 0x87, 0xbe, 0xe9, 0x02, 0x8d, 0x3d, 0xcb, 0xe2, 0x0c, 0x3e,
  0x70, 0x74, 0xbe, 0x3d, 0x21, 0xc2, 0xa7, 0xbd, 0x23, 0x67, 0xfa, 0x3d,
  0x6f, 0x27, 0x54, 0x3d, 0x0a, 0x44, 0x23, 0xbe, 0x8f, 0xba, 0xb3, 0xbb,
  0xa5, 0x43, 0x79, 0xbe, 0xa7, 0xc5, 0xf4, 0xbd, 0x1d, 0x92, 0x96, 0xbc,
  0x48, 0x9d, 0xec, 0xba, 0xb3, 0xdb, 0x46, 0xbe, 0xba, 0xef, 0x0d, 0x3d,
  0x16, 0xdb, 0x84, 0x3b, 0x7a, 0x58, 0x0e, 0xbe, 0x81, 0x09, 0xd8, 0xbd,
  0xd7, 0x8d, 0x04, 0x3d, 0xec, 0x15, 0xde, 0xbd, 0x1d, 0x72, 0xe1, 0x3c,
  0xd5, 0x21, 0x43, 0x3e, 0xc8, 0xda, 0x01, 0x3d, 0x8c, 0xaf, 0x2a, 0xbe,
  0x48, 0x00, 0x88, 0xbe, 0x24, 0xff, 0xbf, 0xbb, 0xfc, 0x61, 0x86, 0x3d,
  0x6f, 0x82, 0x80, 0xbd, 0x63, 0x8f, 0x54, 0xbe, 0x3f, 0xd0, 0x98, 0xbe,
  0x2a, 0xb7, 0x5b, 0xbd, 0xf3, 0x2b, 0x1f, 0xbe, 0xd8, 0x68, 0x4a, 0xbd,
  0x2e, 0xa1, 0x6b, 0xbe, 0x6c, 0xac, 0x1d, 0xbc, 0x78, 0x70, 0x4d, 0xbd,
  0x06, 0xae, 0x27, 0xbe, 0xbc, 0xef, 0x6a, 0xbe, 0x94, 0x02, 0xef, 0x3c,
  0xc2, 0x32, 0x5a, 0xbe, 0x2d, 0x3f, 0xdd, 0x3d, 0x85, 0x82, 0x12, 0x3e,
  0xd0, 0x73, 0xe1, 0xbd, 0x71, 0x51, 0xdb, 0x3d, 0xb0, 0xb3, 0x17, 0xbd,
  0x36, 0x53, 0x91, 0xbe, 0xe3, 0xb3, 0x64, 0x3c, 0x1e, 0xfa, 0xd6, 0xbd,
  0x57, 0x99, 0x22, 0x3e, 0xc4, 0x9e, 0x80, 0xbe, 0x9a, 0x70, 0xff, 0x3d,
  0x13, 0x1e, 0xb2, 0xbd, 0xca, 0x1d, 0xae, 0xbd, 0x39, 0x39, 0x35, 0xbe,
  0x8e, 0x1d, 0xca, 0xbd, 0x1c, 0x4e, 0x67, 0xbe, 0x78, 0xe5, 0x16, 0xbe,
  0xb5, 0x59, 0xce, 0xbd, 0x14, 0x4b, 0xb2, 0xbb, 0xa3, 0x91, 0x0d, 0x3d,
  0x88, 0xf0, 0x71, 0xbd, 0x9d, 0x33, 0x29, 0xbe, 0x00, 0xf3, 0x0c, 0x3e,
  0x99, 0x3f, 0x08, 0x3e, 0xab, 0x18, 0xe4, 0x3d, 0x8c, 0xdb, 0x96, 0xbc,
  0x38, 0x4d, 0x47, 0xbe, 0xa7, 0xac, 0x08, 0x3e, 0xb0, 0x44, 0xb8, 0xbd,
  0x57, 0x05, 0x32, 0xbe, 0x74, 0xde, 0xac, 0x3d, 0x3d, 0x6b, 0x56, 0xbe,
  0x69, 0x81, 0x73, 0x3c, 0x24, 0x66, 0xda, 0x3d, 0x9f, 0xa9, 0x1f, 0xbd,
  0xaf, 0xd5, 0x46, 0xbe, 0x3f, 0x7c, 0x82, 0x3e, 0x0a, 0x38, 0x89, 0xbd,
  0x9a, 0x56, 0xbf, 0xbd, 0x80, 0x45, 0x07, 0x3e, 0x04, 0x33, 0x3f, 0xbd,
  0x22, 0xa0, 0x45, 0xbe, 0xa2, 0x36, 0x52, 0xbe, 0x47, 0x93, 0x15, 0xbe,
  0xab, 0xcb, 0xbd, 0xbd, 0xa0, 0x39, 0x25, 0xbd, 0x41, 0xc3, 0xe4, 0xbc,
  0x96, 0xde, 0x5c, 0xbe, 0xb8, 0xc0, 0x49, 0xbe, 0x0e, 0x09, 0x3d, 0xbe,
  0xbb, 0xae, 0xe9, 0xbd, 0xd6, 0xd2, 0x95, 0xbd, 0x16, 0xfe, 0x18, 0xbe,
  0xc2, 0x6e, 0xb0, 0xbd, 0xdf, 0xca, 0x17, 0x3e, 0xa1, 0xee, 0x36, 0x3e,
  0x7d, 0xc7, 0x3e, 0x3d, 0x66, 0x30, 0x45, 0xbd, 0x8a, 0xe3, 0xfa, 0xbd,
  0x8f, 0xe2, 0x46, 0xbe, 0xe9, 0xf0, 0x15, 0xbe, 0x57, 0x06, 0x2b, 0x3d,
  0xfc, 0x2d, 0x21, 0xbe, 0x8f, 0xf9, 0x62, 0xbe, 0x67, 0x88, 0x38, 0xbe,
  0xc5, 0x8c, 0xb0, 0xbd, 0x5f, 0xcd, 0xa2, 0xbc, 0x4c, 0xd1, 0x45, 0xbe,
  0x6b, 0xcc, 0x10, 0x3e, 0x68, 0xae, 0x97, 0xbe, 0x47, 0x2d, 0x18, 0x3c,
  0x4a, 0xee, 0xb7, 0xbd, 0xe0, 0x34, 0xfe, 0x3c, 0xd7, 0xfa, 0xa7, 0xbd,
  0x2a, 0x22, 0x09, 0x3e, 0x94, 0xc3, 0x9b, 0x3e, 0x88, 0x6e, 0x1e, 0xbe,
  0xcb, 0x8d, 0x57, 0xbe, 0x28, 0xd3, 0xaf, 0xbd, 0x21, 0xe9, 0x27, 0x3e,
  0xb5, 0x36, 0x80, 0xbd, 0xc2, 0xc0, 0x82, 0x3d, 0x6f, 0x26, 0xb7, 0x3d,
  0x9e, 0x02, 0x5f, 0x3e, 0xf7, 0xbe, 0xb1, 0x3d, 0xb0, 0xc4, 0x39, 0xbd,
  0x25, 0xab, 0xa5, 0x3e, 0xe1, 0x8c, 0x22, 0x3e, 0x90, 0xcd, 0x07, 0x3f,
  0x0f, 0x23, 0x80, 0x3d, 0x92, 0x2c, 0x0e, 0x3e, 0x74, 0x52, 0x89, 0x3e,
  0xe9, 0xe8, 0x81, 0xbe, 0xf4, 0x9d, 0xeb, 0xbd, 0xca, 0x25, 0x26, 0x3e,
  0xad, 0xf6, 0xe9, 0xbd, 0x6c, 0xc7, 0x30, 0xbc, 0x8d, 0xe4, 0xcc, 0x3d,
  0x47, 0x82, 0x64, 0xbe, 0x22, 0x58, 0x6e, 0xbd, 0x8f, 0x29, 0x40, 0xbd,
  0x2d, 0x2a, 0xf4, 0xbc, 0xdd, 0xfb, 0xe9, 0x3b, 0x9c, 0x80, 0x43, 0x3e,
  0xcc, 0x02, 0x84, 0xbe, 0xc5, 0xfa, 0x41, 0xbd, 0x77, 0xa9, 0x1f, 0x3e,
  0xae, 0x1e, 0x59, 0xbe, 0x9a, 0xbe, 0x9e, 0xbd, 0xac, 0x8e, 0x03, 0xbe,
  0xf2, 0xec, 0xea, 0xba, 0x0b, 0xc5, 0x3e, 0xbe, 0x03, 0x7a, 0x5b, 0x3d,
  0x88, 0x87, 0x09, 0xbe, 0x9a, 0x51, 0x00, 0xbe, 0x88, 0xcf, 0x0b, 0xbf,
  0x55, 0xbd, 0xd1, 0xbc, 0x32, 0x0c, 0x98, 0x3d, 0x84, 0x58, 0x5d, 0xbd,
  0x30, 0x81, 0x56, 0xbe, 0x65, 0x02, 0xc2, 0xbd, 0xb5, 0x41, 0xdb, 0x3c,
  0xa8, 0x2f, 0x86, 0x3e, 0xf2, 0xd5, 0x34, 0xbe, 0x30, 0xce, 0x96, 0xbc,
  0xdc, 0x63, 0x43, 0x3d, 0x12, 0x99, 0x49, 0xbe, 0xd7, 0x7b, 0x7a, 0xbe,
  0xf9, 0xb4, 0x35, 0xbe, 0x3b, 0xd4, 0x41, 0x3d, 0x71, 0x2e, 0x3d, 0xbe,
  0x7e, 0x35, 0x39, 0xbf, 0x17, 0x3e, 0xa9, 0xbc, 0x63, 0x91, 0x54, 0xbc,
  0xcf, 0xaa, 0x20, 0x3d, 0x4f, 0xf5, 0x4e, 0xbe, 0x20, 0x03, 0xa2, 0xbe,
  0x55, 0x37, 0x93, 0xbe, 0xfe, 0x98, 0x36, 0xbe, 0xe5, 0xf0, 0xcb, 0xbd,
  0xc2, 0x02, 0x9a, 0x3d, 0x1c, 0xb7, 0x23, 0xbe, 0xd0, 0x69, 0x47, 0x3e,
  0xc3, 0x7f, 0x8b, 0xbe, 0x46, 0x3d, 0xb0, 0xbc, 0xfb, 0xf4, 0xe3, 0x3c,
  0x26, 0x97, 0x21, 0x3d, 0xe6, 0xdb, 0xe4, 0xbe, 0xf6, 0xad, 0xde, 0xbd,
  0xb1, 0x2d, 0xb0, 0x3c, 0xab, 0xcb, 0x46, 0xbe, 0xa1, 0x5a, 0xc9, 0x3c,
  0x46, 0x42, 0x42, 0xbe, 0x2e, 0x4e, 0x32, 0xbe, 0x6a, 0xdd, 0x02, 0xbf,
  0xde, 0x07, 0x8a, 0xbe, 0xeb, 0xdb, 0xb6, 0xbd, 0xc9, 0xd3, 0xf0, 0x3e,
  0x2e, 0xd0, 0xa9, 0xbe, 0xce, 0xea, 0x2c, 0xbe, 0x50, 0x80, 0x4c, 0xbe,
  0xf2, 0xc0, 0xb4, 0xbd, 0xc2, 0x46, 0xeb, 0xbd, 0x17, 0xd9, 0x85, 0xbe,
  0x9f, 0x32, 0x4d, 0xbe, 0xae, 0xb9, 0xbc, 0xbd, 0xc9, 0x64, 0x9e, 0xbd,
  0xb8, 0xb5, 0xbd, 0x3e, 0x1b, 0x30, 0xee, 0xbe, 0xc2, 0xb1, 0x0b, 0xbe,
  0x6f, 0xbe, 0x3a, 0xbe, 0x5d, 0x69, 0x01, 0x3e, 0xea, 0xd2, 0x6f, 0xbe,
  0x21, 0x72, 0x1c, 0x3e, 0x5e, 0x0c, 0x98, 0x3c, 0xe2, 0x0b, 0xa9, 0x3c,
  0x23, 0x9d, 0xdd, 0xbd, 0x54, 0xc7, 0xad, 0x3e, 0x40, 0xb6, 0x54, 0x3c,
  0x00, 0x64, 0x3a, 0x3e, 0xa3, 0x62, 0xdd, 0x3d, 0x14, 0xfb, 0x8c, 0xbd,
  0x97, 0x85, 0x79, 0x3e, 0xfd, 0x3f, 0x71, 0x3e, 0xbf, 0xba, 0x16, 0x3e,
  0xa3, 0x5a, 0x62, 0xbd, 0x4c, 0xde, 0x44, 0x3d, 0xf7, 0x2c, 0x41, 0x3e,
  0xbf, 0x91, 0xff, 0xbd, 0x75, 0xc9, 0x29, 0x3e, 0x56, 0x11, 0xab, 0xbe,
  0xf3, 0xea, 0x56, 0xbe, 0xb7, 0x9c, 0xfd, 0xbc, 0xa6, 0xd4, 0xcf, 0xbd,
  0xd0, 0x23, 0xa5, 0xbc, 0x19, 0x09, 0x55, 0xbe, 0x0c, 0x0f, 0x44, 0x3e,
  0x59, 0x41, 0xa4, 0xbe, 0x33, 0x1b, 0xb1, 0xbd, 0xa0, 0x95, 0x0e, 0xbd,
  0x4e, 0xdb, 0x20, 0x3c, 0x0e, 0xae, 0xc5, 0xbd, 0x5a, 0x03, 0x5e, 0xbb,
  0x5e, 0x7f, 0xb4, 0xbd, 0x47, 0x1a, 0x22, 0xbe, 0x59, 0xc5, 0x90, 0x3c,
  0xfc, 0xe7, 0x4a, 0xbe, 0xb7, 0xd1, 0x2f, 0xbd, 0xba, 0xfd, 0x57, 0xbd,
  0xf9, 0x59, 0x80, 0x3d, 0x84, 0x83, 0x49, 0xbe, 0x02, 0x99, 0x29, 0xbe,
  0x6c, 0x22, 0xff, 0xbb, 0xc9, 0x53, 0x43, 0xbe, 0xbe, 0x3b, 0x81, 0x3c,
  0xf5, 0x60, 0x51, 0xbe, 0x73, 0xed, 0x3d, 0x3e, 0xfc, 0x4e, 0x2a, 0x3e,
  0x98, 0xbc, 0xb9, 0x3c, 0x90, 0xd6, 0x19, 0xbd, 0x70, 0x0c, 0x1c, 0xbe,
  0x0e, 0xa8, 0x9e, 0xbd, 0x0a, 0xa3, 0x79, 0xbd, 0x90, 0x4d, 0x84, 0xbd,
  0xa7, 0x34, 0x52, 0x3e, 0xe6, 0x18, 0xbb, 0x3c, 0xc7, 0xed, 0x87, 0x3c,
  0x56, 0x31, 0x57, 0xbe, 0xe0, 0xe8, 0x1b, 0xbc, 0xa4, 0xfc, 0x71, 0xbe,
  0x6c, 0x4d, 0x0c, 0x3e, 0x66, 0x0e, 0x62, 0x3d, 0x03, 0xdd, 0x59, 0xbe,
  0xaa, 0x52, 0x70, 0xbe, 0xd3, 0x3a, 0x48, 0xbe, 0xf3, 0xe1, 0x92, 0xbd,
  0x5f, 0xda, 0x1c, 0xba, 0xc6, 0xac, 0xd1, 0x3e, 0x5f, 0xf3, 0x57, 0xbe,
  0x03, 0x4d, 0xb6, 0xbe, 0x0b, 0x14, 0xed, 0x3d, 0x4d, 0xbd, 0x63, 0xbe,
  0x0f, 0xe4, 0xcb, 0xbd, 0x45, 0xe3, 0x92, 0xbe, 0xde, 0x75, 0xaa, 0x3d,
  0x02, 0xe5, 0x13, 0xbe, 0x2d, 0x01, 0xa8, 0x3d, 0xec, 0x28, 0xd0, 0x3c,
  0x15, 0x43, 0x79, 0x3d, 0x81, 0x05, 0xa2, 0xbe, 0xb4, 0x3f, 0x65, 0xbe,
  0x1e, 0xa0, 0xac, 0x3d, 0xf1, 0xab, 0xb3, 0x3c, 0x8c, 0x13, 0x88, 0x3e,
  0x16, 0x69, 0x3d, 0x3e, 0x13, 0x36, 0x68, 0x3d, 0xab, 0x18, 0x15, 0xbc,
  0x0f, 0x5e, 0x90, 0x3d, 0xa5, 0x36, 0x9e, 0xbd, 0x60, 0xd4, 0x25, 0x3e,
  0x13, 0xfa, 0xcd, 0xbd, 0x09, 0x4d, 0x85, 0xbe, 0xd4, 0x00, 0xcf, 0x3e,
  0x31, 0xbb, 0xfa, 0x3e, 0x85, 0xf0, 0x5c, 0x3e, 0x49, 0xdd, 0x59, 0xbe,
  0xec, 0x8a, 0x11, 0x3c, 0xfd, 0xb5, 0x01, 0x3e, 0xc0, 0x5f, 0xf6, 0xbd,
  0x45, 0x93, 0x70, 0x3e, 0x0c, 0x0e, 0xbc, 0xbd, 0x36, 0x2a, 0x57, 0x3d,
  0x24, 0x7b, 0x41, 0xbe, 0x53, 0xd2, 0x1a, 0x3e, 0x57, 0xd9, 0xc9, 0xbd,
  0xb7, 0x6f, 0x33, 0x3e, 0xf3, 0xa4, 0x04, 0x3e, 0x01, 0x50, 0x86, 0xbd,
  0xc7, 0x7a, 0x6a, 0x3e, 0x98, 0x06, 0x96, 0x3e, 0x69, 0xcf, 0xb5, 0x3d,
  0x35, 0x17, 0x8b, 0xbd, 0x50, 0x96, 0x32, 0x3e, 0x1e, 0x8a, 0x22, 0xbd,
  0xa7, 0xb5, 0x53, 0xbe, 0x09, 0x1f, 0x18, 0xbd, 0xa6, 0xb0, 0x98, 0xbd,
  0x81, 0x28, 0x38, 0xbe, 0x9b, 0xe8, 0xe6, 0x3c, 0x94, 0xfa, 0x74, 0xbe,
  0xbb, 0xe1, 0xd4, 0xbd, 0x06, 0xc5, 0xa1, 0xbe, 0x53, 0x27, 0x99, 0xbd,
  0x00, 0x5a, 0xcb, 0xbc, 0x57, 0x30, 0xa7, 0xbe, 0x58, 0x1b, 0x23, 0xbe,
  0x16, 0xda, 0xec, 0xbe, 0xc0, 0x40, 0x47, 0x3c, 0x15, 0xba, 0x43, 0xbe,
  0x58, 0x4f, 0x0e, 0xbd, 0x12, 0xee, 0x43, 0x3e, 0xf7, 0x7b, 0x1d, 0x3f,
  0xac, 0x25, 0xc4, 0xbe, 0x0c, 0xe4, 0xc3, 0x3d, 0x37, 0xe8, 0xb1, 0xbe,
  0xa7, 0x82, 0x35, 0xbe, 0x45, 0x28, 0xad, 0xbe, 0x9b, 0x5b, 0x9f, 0xbe,
  0x6f, 0x9b, 0x47, 0xbe, 0xdb, 0xfe, 0x71, 0x3d, 0xf4, 0x8a, 0x58, 0xbd,
  0xb9, 0x3f, 0x2f, 0xbe, 0x7b, 0xf6, 0x34, 0xbd, 0xc2, 0xa7, 0x02, 0xbf,
  0x5a, 0xca, 0xaa, 0xbc, 0x02, 0xf8, 0x22, 0xbd, 0x5a, 0x04, 0xdc, 0xbd,
  0xe3, 0x7f, 0x74, 0xbd, 0x46, 0xf1, 0x80, 0x3c, 0x22, 0x5d, 0x88, 0x3d,
  0x77, 0x44, 0x12, 0xbf, 0x2f, 0x1e, 0xf8, 0x3d, 0x8c, 0x62, 0x42, 0x3e,
  0x9a, 0xa6, 0x3d, 0xbd, 0xcc, 0x1f, 0xbf, 0x3c, 0x17, 0x4c, 0x17, 0x3d,
  0x2c, 0x9c, 0x32, 0x3d, 0x4e, 0x64, 0xaf, 0xbc, 0x98, 0x4d, 0x52, 0x3f,
  0x4a, 0x03, 0xd5, 0xbe, 0x88, 0xda, 0x77, 0xbe, 0xec, 0x82, 0x3d, 0xbe,
  0x84, 0x1e, 0x30, 0x3e, 0xfa, 0x3b, 0x6d, 0xbd, 0xfe, 0x91, 0xb5, 0x3b,
  0x70, 0xb4, 0xde, 0x3d, 0xd4, 0xaa, 0xe9, 0xbe, 0x46, 0x9a, 0x34, 0x3e,
  0x77, 0x51, 0x6e, 0x3e, 0x08, 0x66, 0x96, 0xbe, 0x64, 0x76, 0xdd, 0x3d,
  0x0b, 0xb0, 0x4a, 0x3d, 0x5c, 0x56, 0xdf, 0x3d, 0x8e, 0x2f, 0x80, 0x3e,
  0x87, 0xf0, 0x63, 0x3f, 0x9e, 0xf3, 0x27, 0xbe, 0x44, 0x9f, 0x21, 0xbe,
  0x05, 0xf9, 0x00, 0x3e, 0x49, 0xf3, 0xdf, 0x3d, 0x77, 0xd7, 0x69, 0x3e,
  0x40, 0x3b, 0x88, 0xbd, 0xa5, 0xa6, 0xf7, 0x3d, 0x3e, 0xf6, 0x65, 0xbe,
  0xf9, 0x9a, 0xdd, 0x3d, 0xb5, 0xd1, 0x11, 0x3f, 0x96, 0x24, 0x15, 0xbe,
  0xd2, 0x94, 0x15, 0x3e, 0x09, 0xe3, 0x4c, 0x3d, 0x91, 0xa1, 0x1b, 0x3d,
  0xf1, 0x54, 0x39, 0x3c, 0x7b, 0x01, 0x82, 0x3e, 0x34, 0xeb, 0x87, 0xbe,
  0x91, 0x67, 0x7d, 0xbd, 0x63, 0xef, 0xd5, 0xbc, 0x63, 0x4a, 0x3c, 0x3e,
  0xfd, 0x05, 0x7c, 0xbe, 0xf0, 0x63, 0xc1, 0xbd, 0x5a, 0x79, 0x9c, 0x3d,
  0x4d, 0x0d, 0x98, 0xbe, 0x0d, 0xc2, 0x25, 0x3e, 0x6f, 0x29, 0x1b, 0x3e,
  0x60, 0xdb, 0xa9, 0xbe, 0xd1, 0x1d, 0x14, 0x3d, 0x68, 0xab, 0x80, 0x3b,
  0xdf, 0x5e, 0x74, 0x3c, 0x95, 0xf1, 0x1b, 0x3d, 0xaf, 0xd4, 0xda, 0x3e,
  0x90, 0xc1, 0x43, 0xbe, 0x3e, 0xa9, 0x11, 0xbe, 0x6f, 0xa9, 0x22, 0xbd,
  0x32, 0x4b, 0x03, 0x3e, 0x42, 0x47, 0x49, 0x3e, 0xf2, 0xa0, 0x93, 0xbe,
  0x3e, 0xcf, 0xaf, 0xbd, 0xa0, 0x02, 0x5a, 0xbe, 0xa4, 0x91, 0x9f, 0x3c,
  0xa1, 0x49, 0x84, 0x3e, 0x0a, 0x30, 0x65, 0xbf, 0x27, 0xdd, 0x42, 0x3d,
  0x0b, 0xbc, 0x95, 0x3d, 0xfa, 0xbf, 0x31, 0x3d, 0x55, 0x78, 0x39, 0x3c,
  0x6a, 0x40, 0x4e, 0x3e, 0xdb, 0x51, 0xd4, 0xbd, 0x2e, 0xe1, 0x6a, 0xbe,
  0xae, 0xf8, 0xdd, 0xbd, 0xac, 0xa8, 0x80, 0xbc, 0x5d, 0xe5, 0x5d, 0xbd,
  0x2c, 0x0f, 0x30, 0xbe, 0xcb, 0xf8, 0xb9, 0xbc, 0x40, 0xd4, 0x6a, 0x3b,
  0x9d, 0x51, 0xd2, 0xbd, 0xcb, 0x23, 0x7d, 0xbe, 0x29, 0x1f, 0xa1, 0xbe,
  0xca, 0x5d, 0x1d, 0x3e, 0x04, 0x6d, 0x24, 0x3d, 0xea, 0x08, 0x00, 0xbe,
  0xe7, 0x96, 0xa8, 0xbe, 0x9b, 0x9d, 0x7c, 0x3d, 0xea, 0x4a, 0x7d, 0xbd,
  0x0e, 0x05, 0x3d, 0xbe, 0xf2, 0x4e, 0x21, 0xbd, 0xad, 0x47, 0xa3, 0x3e,
  0x10, 0xaf, 0x7c, 0x3e, 0xd2, 0x4a, 0x67, 0x3d, 0xa7, 0x90, 0xb8, 0xbd,
  0xda, 0xfb, 0x35, 0x3e, 0x26, 0x61, 0x03, 0xbe, 0x7a, 0x65, 0xde, 0xbd,
  0x94, 0x2c, 0x7c, 0xbe, 0x58, 0xa8, 0x5e, 0xbc, 0x0d, 0x4c, 0x0c, 0xbd,
  0x14, 0xfd, 0xdc, 0xbd, 0x51, 0x36, 0x82, 0xbd, 0xa7, 0xc9, 0xbc, 0xbc,
  0xa0, 0x0e, 0xaa, 0x3d, 0x47, 0xa7, 0x09, 0xbe, 0x64, 0x08, 0x12, 0x3e,
  0x80, 0x5b, 0xd5, 0xbd, 0x01, 0x3c, 0x15, 0x3e, 0x81, 0x84, 0x88, 0xbd,
  0xef, 0x17, 0x11, 0x3e, 0x7f, 0x39, 0x76, 0x3d, 0xfa, 0xd2, 0xfa, 0xbd,
  0xf3, 0x31, 0x10, 0x3e, 0xbf, 0x40, 0x0d, 0x3e, 0xcb, 0x63, 0x31, 0xbe,
  0x5d, 0x8f, 0xda, 0xbd, 0xd6, 0x3d, 0xbf, 0xbd, 0x30, 0xfd, 0xdc, 0xbd,
  0xc9, 0x58, 0x2a, 0xbe, 0x30, 0x14, 0x70, 0xbe, 0xc3, 0x6c, 0x2a, 0x3e,
  0x8f, 0x0e, 0x15, 0x3e, 0x2f, 0x7e, 0xfa, 0xbd, 0xa7, 0xc5, 0x3e, 0x3d,
  0x7b, 0x05, 0x80, 0xbd, 0x57, 0x6c, 0x07, 0x3b, 0xaf, 0xb6, 0x84, 0xbd,
  0x9e, 0x6b, 0x47, 0xbd, 0x83, 0xf3, 0x26, 0xbe, 0xfa, 0x39, 0xbd, 0x3e,
  0xf8, 0x01, 0x0c, 0xbe, 0x5e, 0x31, 0x34, 0xbe, 0x32, 0xdf, 0xe4, 0x3d,
  0xa4, 0x8b, 0x5d, 0x3e, 0x66, 0x7c, 0x99, 0x3d, 0xf6, 0xdb, 0x24, 0x3c,
  0xf2, 0xd6, 0xdf, 0xba, 0x3d, 0x70, 0xf9, 0x3d, 0xec, 0xb5, 0x0e, 0xba,
  0x35, 0xe8, 0x9b, 0x3d, 0xdb, 0xe4, 0x1c, 0x3e, 0xf6, 0xb8, 0x96, 0xbd,
  0x68, 0x85, 0xbd, 0x3d, 0xbc, 0x05, 0xdd, 0x3b, 0x5c, 0xb4, 0x98, 0xbe,
  0x20, 0x39, 0x20, 0x3e, 0xd0, 0x4b, 0xe5, 0x3d, 0xe7, 0x0f, 0x61, 0xbe,
  0xc5, 0x8a, 0x97, 0xbe, 0x62, 0x06, 0xe2, 0xbd, 0x79, 0x25, 0x4a, 0x3e,
  0x28, 0x12, 0x1c, 0xbe, 0x59, 0xea, 0xdb, 0xbd, 0x1f, 0x05, 0xa0, 0x3d,
  0xa5, 0x52, 0xf6, 0xbd, 0x60, 0x88, 0x84, 0xbe, 0xfb, 0x30, 0x1a, 0x3e,
  0xbb, 0xdf, 0x34, 0xbe, 0x4a, 0x8d, 0x65, 0xbd, 0xf2, 0xc9, 0x85, 0x3d,
  0x26, 0xa3, 0x94, 0xbd, 0xe1, 0xf1, 0x76, 0x3d, 0x64, 0xaf, 0x91, 0xbe,
  0x81, 0xb5, 0x29, 0x3d, 0xc8, 0xc1, 0x32, 0xbe, 0x98, 0x67, 0x28, 0x3e,
  0xe9, 0xa2, 0x93, 0x3d, 0xef, 0xa4, 0x5f, 0xbe, 0x4c, 0x9e, 0xf7, 0x3c,
  0x32, 0x86, 0xc1, 0xbd, 0x29, 0x34, 0x3d, 0xbe, 0xfc, 0xcd, 0xc9, 0x3d,
  0xa7, 0xc8, 0x55, 0xbe, 0x56, 0xf2, 0x6e, 0xbe, 0xae, 0xe1, 0x2c, 0xbe,
  0xa3, 0xa6, 0x35, 0xbc, 0x2b, 0x1d, 0x96, 0x3c, 0xb5, 0x80, 0x98, 0x3e,
  0x1e, 0x8a, 0xcc, 0xbd, 0x07, 0xa2, 0x56, 0x3d, 0xa1, 0xf4, 0x46, 0xbe,
  0x6a, 0xbf, 0xa9, 0xbd, 0x5b, 0xcb, 0x37, 0xbe, 0x6e, 0x64, 0x30, 0xbe,
  0xda, 0x7c, 0x3d, 0xbe, 0x67, 0x3a, 0xd9, 0x3d, 0x90, 0x47, 0x6e, 0xbd,
  0x54, 0x02, 0x8f, 0xbe, 0xa4, 0xad, 0xe5, 0xbd, 0x51, 0x59, 0x5d, 0xbe,
  0xad, 0x02, 0xa4, 0xbd, 0x9c, 0x23, 0x4e, 0x3c, 0xec, 0x8d, 0xbe, 0xbd,
  0x17, 0x19, 0xa5, 0xbd, 0x80, 0x0c, 0x0b, 0xbe, 0xd6, 0x81, 0x22, 0x3d,
  0x81, 0x00, 0xdd, 0xbd, 0x1c, 0xcd, 0x70, 0x3d, 0x49, 0xda, 0x8d, 0x3d,
  0xe2, 0xb5, 0x9a, 0xbe, 0x5e, 0x62, 0x1c, 0x3c, 0xa2, 0x42, 0xcf, 0x3d,
  0x97, 0x09, 0x3a, 0x3d, 0x53, 0x71, 0xe7, 0x3d, 0xfd, 0xb1, 0x3c, 0xbe,
  0x57, 0x9a, 0x8a, 0xbe, 0xb0, 0x8c, 0x21, 0x3e, 0xc5, 0x1f, 0xcd, 0xbd,
  0xd1, 0xab, 0x45, 0xbd, 0x36, 0x79, 0xf8, 0xbd, 0x55, 0x0a, 0x9d, 0x3e,
  0x51, 0x59, 0x69, 0xbe, 0x0d, 0x14, 0x64, 0x3c, 0xd8, 0xf4, 0x04, 0xbe,
  0x5d, 0x85, 0x49, 0xbe, 0x8d, 0x05, 0xa0, 0xbd, 0x1d, 0xd0, 0x14, 0x3d,
  0x87, 0x4d, 0x94, 0x3d, 0x24, 0x65, 0x2a, 0x3c, 0x8e, 0xc6, 0xc5, 0x3d,
  0xa8, 0x6a, 0xfe, 0x3d, 0x64, 0xb2, 0xb3, 0x3d, 0x68, 0x0b, 0x3d, 0x3e,
  0xd7, 0xcc, 0xf4, 0x3d, 0x1a, 0x96, 0x71, 0x3e, 0x07, 0x58, 0x87, 0x3d,
  0xc7, 0x79, 0x7a, 0x3d, 0x2e, 0x83, 0xbf, 0xbe, 0x2d, 0xfe, 0x8b, 0x3d,
  0x01, 0x2b, 0xdf, 0x3d, 0xd2, 0xce, 0x3f, 0x3f, 0x8f, 0x8a, 0x99, 0xbd,
  0x8b, 0x69, 0xc9, 0xbd, 0x0b, 0xb7, 0xdf, 0x3e, 0xf9, 0x12, 0x94, 0x3e,
  0x57, 0xeb, 0x87, 0xbe, 0xe1, 0x91, 0xa2, 0x3d, 0xa1, 0xd5, 0xb8, 0xbc,
  0x62, 0xa2, 0xf6, 0x3d, 0xd9, 0x43, 0xb4, 0x3d, 0x6f, 0xc1, 0xb2, 0x3e,
  0x63, 0xa3, 0x12, 0x3e, 0x14, 0x24, 0x99, 0x3e, 0x4d, 0xf4, 0x3e, 0xbe,
  0xab, 0xa8, 0xf4, 0xbb, 0x48, 0xba, 0x3f, 0x3e, 0x89, 0x08, 0xdf, 0x3e,
  0x79, 0xf5, 0x29, 0x3b, 0xbb, 0x1f, 0x8f, 0x3d, 0x4e, 0xbd, 0xf0, 0x3d,
  0x83, 0x89, 0x64, 0x3c, 0x76, 0xff, 0x4e, 0xbb, 0xf0, 0xea, 0x93, 0x3d,
  0xf6, 0x3f, 0x24, 0x3d, 0x55, 0xd7, 0xef, 0x3d, 0x8e, 0x48, 0x38, 0x3a,
  0xd4, 0xdf, 0x20, 0x3e, 0x70, 0xa7, 0xb4, 0x3d, 0xc5, 0x45, 0x3b, 0x3e,
  0x35, 0x24, 0x06, 0xbe, 0x30, 0xa2, 0x32, 0x3d, 0xec, 0x26, 0x9d, 0x3d,
  0x8f, 0x54, 0x5c, 0x3e, 0xc4, 0x9e, 0x25, 0x3d, 0xbe, 0x77, 0xf7, 0x3d,
  0x46, 0x31, 0x9c, 0x3d, 0x6f, 0xea, 0x2b, 0x3e, 0x48, 0x7b, 0x3d, 0xbe,
  0x16, 0xc1, 0x09, 0xbe, 0xcb, 0x6f, 0x1d, 0xbe, 0x1f, 0x74, 0x3b, 0x3c,
  0xd3, 0x93, 0x37, 0x3c, 0x4a, 0xa9, 0xa2, 0x3e, 0xaa, 0x80, 0x32, 0x3c,
  0x14, 0x0c, 0xef, 0x3d, 0xd6, 0xd0, 0x8e, 0xbe, 0xed, 0x96, 0x43, 0xbe,
  0x0d, 0xbf, 0x20, 0x3d, 0x17, 0xc7, 0xb5, 0x3d, 0x6c, 0xd5, 0x00, 0xbd,
  0x29, 0x54, 0x15, 0xbe, 0x0d, 0x76, 0x38, 0x3c, 0x72, 0x23, 0x1d, 0x3e,
  0x13, 0x22, 0xef, 0x3d, 0xde, 0x16, 0x3e, 0x3e, 0x7a, 0x4e, 0xa8, 0xbc,
  0x01, 0xc7, 0xc4, 0xbd, 0x81, 0x87, 0x46, 0x3d, 0xe4, 0x0a, 0x5f, 0x3e,
  0x3d, 0xbc, 0x94, 0xbe, 0x52, 0x66, 0x67, 0x3d, 0x29, 0x75, 0x95, 0xbe,
  0x42, 0xd6, 0xfc, 0x3c, 0xc9, 0x31, 0x2b, 0xbc, 0xab, 0x37, 0xb6, 0xbd,
  0xb3, 0x9e, 0x34, 0x3e, 0x10, 0x68, 0xa4, 0x3c, 0xc3, 0xd5, 0x2e, 0x3e,
  0xbb, 0xb6, 0x46, 0x3d, 0x9c, 0xb1, 0x04, 0xbe, 0x06, 0x6e, 0x05, 0xbe,
  0xd5, 0x87, 0x16, 0xbe, 0xd4, 0xcd, 0xa7, 0xbe, 0x34, 0x11, 0x43, 0x3d,
  0x0f, 0xc9, 0xc2, 0xbd, 0x95, 0xaa, 0xff, 0xbd, 0x36, 0xba, 0x5f, 0x3d,
  0xd1, 0x2b, 0x8b, 0xbe, 0xad, 0xfb, 0xe3, 0xbd, 0xd3, 0x1e, 0x45, 0x3e,
  0xce, 0x0f, 0x8b, 0x3e, 0xd2, 0x00, 0x63, 0xbe, 0x1e, 0xc6, 0xd3, 0x3d,
  0x66, 0xfd, 0xff, 0xff, 0x10, 0x00, 0x00, 0x00, 0x07, 0x00, 0x00, 0x00,
  0x14, 0x00, 0x00, 0x00, 0x2c, 0x00, 0x00, 0x00, 0x02, 0x00, 0x00, 0x00,
  0x10, 0x00, 0x00, 0x00, 0x70, 0x00, 0x00, 0x00, 0x17, 0x00, 0x00, 0x00,
  0x73, 0x65, 0x71, 0x75, 0x65, 0x6e, 0x74, 0x69, 0x61, 0x6c, 0x2f, 0x64,
  0x65, 0x6e, 0x73, 0x65, 0x2f, 0x4d, 0x61, 0x74, 0x4d, 0x75, 0x6c, 0x00,
  0xd0, 0xfc, 0xff, 0xff, 0xda, 0xfd, 0xff, 0xff, 0x04, 0x00, 0x00, 0x00,
  0x08, 0x00, 0x00, 0x00, 0xff, 0xff, 0xff, 0xff, 0x70, 0x00, 0x00, 0x00,
  0x00, 0x00, 0x0e, 0x00, 0x18, 0x00, 0x08, 0x00, 0x07, 0x00, 0x0c, 0x00,
  0x10, 0x00, 0x14, 0x00, 0x0e, 0x00, 0x00, 0x00, 0x00, 0x00, 0x00, 0x02,
  0x10, 0x00, 0x00, 0x00, 0x06, 0x00, 0x00, 0x00, 0x10, 0x00, 0x00, 0x00,
  0x2c, 0x00, 0x00, 0x00, 0x01, 0x00, 0x00, 0x00, 0x02, 0x00, 0x00, 0x00,
  0x18, 0x00, 0x00, 0x00, 0x73, 0x65, 0x71, 0x75, 0x65, 0x6e, 0x74, 0x69,
  0x61, 0x6c, 0x2f, 0x66, 0x6c, 0x61, 0x74, 0x74, 0x65, 0x6e, 0x2f, 0x43,
  0x6f, 0x6e, 0x73, 0x74, 0x00, 0x00, 0x00, 0x00, 0x38, 0xfd, 0xff, 0xff,
  0x42, 0xfe, 0xff, 0xff, 0x04, 0x00, 0x00, 0x00, 0x0c, 0x00, 0x00, 0x00,
  0xfe, 0x8b, 0xee, 0xbf, 0x9b, 0xc2, 0x62, 0xc0, 0x5c, 0x22, 0x50, 0x40,
  0x26, 0xfe, 0xff, 0xff, 0x10, 0x00, 0x00, 0x00, 0x05, 0x00, 0x00, 0x00,
  0x10, 0x00, 0x00, 0x00, 0x44, 0x00, 0x00, 0x00, 0x01, 0x00, 0x00, 0x00,
  0x03, 0x00, 0x00, 0x00, 0x32, 0x00, 0x00, 0x00, 0x73, 0x65, 0x71, 0x75,
  0x65, 0x6e, 0x74, 0x69, 0x61, 0x6c, 0x2f, 0x64, 0x65, 0x6e, 0x73, 0x65,
  0x5f, 0x31, 0x2f, 0x42, 0x69, 0x61, 0x73, 0x41, 0x64, 0x64, 0x2f, 0x52,
  0x65, 0x61, 0x64, 0x56, 0x61, 0x72, 0x69, 0x61, 0x62, 0x6c, 0x65, 0x4f,
  0x70, 0x2f, 0x72, 0x65, 0x73, 0x6f, 0x75, 0x72, 0x63, 0x65, 0x00, 0x00,
  0xa8, 0xfd, 0xff, 0xff, 0xb2, 0xfe, 0xff, 0xff, 0x04, 0x00, 0x00, 0x00,
  0x40, 0x00, 0x00, 0x00, 0x65, 0x92, 0xd6, 0xbf, 0x54, 0x71, 0x3c, 0xbf,
  0x96, 0xb4, 0x70, 0xbe, 0x98, 0xbb, 0x0d, 0x3f, 0xb9, 0xdc, 0x3e, 0x3f,
  0xb2, 0x37, 0xa4, 0xbe, 0x43, 0xff, 0x59, 0xbf, 0x1a, 0xf7, 0xcc, 0x3f,
  0xf1, 0xcb, 0xc2, 0xbe, 0x58, 0x8b, 0x95, 0x3f, 0x11, 0xaf, 0x88, 0xbe,
  0x03, 0xe3, 0x85, 0xbf, 0xca, 0xc8, 0xc1, 0xbe, 0x6e, 0xb2, 0xfb, 0x3f,
  0x88, 0xdd, 0x7e, 0xbe, 0xaf, 0xea, 0x8c, 0xbe, 0xca, 0xfe, 0xff, 0xff,
  0x10, 0x00, 0x00, 0x00, 0x04, 0x00, 0x00, 0x00, 0x10, 0x00, 0x00, 0x00,
  0x44, 0x00, 0x00, 0x00, 0x01, 0x00, 0x00, 0x00, 0x10, 0x00, 0x00, 0x00,
  0x30, 0x00, 0x00, 0x00, 0x73, 0x65, 0x71, 0x75, 0x65, 0x6e, 0x74, 0x69,
  0x61, 0x6c, 0x2f, 0x64, 0x65, 0x6e, 0x73, 0x65, 0x2f, 0x42, 0x69, 0x61,
  0x73, 0x41, 0x64, 0x64, 0x2f, 0x52, 0x65, 0x61, 0x64, 0x56, 0x61, 0x72,
  0x69, 0x61, 0x62, 0x6c, 0x65, 0x4f, 0x70, 0x2f, 0x72, 0x65, 0x73, 0x6f,
  0x75, 0x72, 0x63, 0x65, 0x00, 0x00, 0x00, 0x00, 0x4c, 0xfe, 0xff, 0xff,
  0x56, 0xff, 0xff, 0xff, 0x04, 0x00, 0x00, 0x00, 0x40, 0x00, 0x00, 0x00,
  0x62, 0x79, 0x96, 0xbf, 0x73, 0xf3, 0x35, 0xbd, 0xbe, 0x7e, 0x83, 0xbe,
  0x11, 0xce, 0xf9, 0xbf, 0x19, 0x34, 0x34, 0xbe, 0xbc, 0xd7, 0x7d, 0xbf,
  0x5a, 0x10, 0x4f, 0xbf, 0x85, 0x02, 0xa0, 0xbf, 0x5e, 0x08, 0x9c, 0x40,
  0x7e, 0x5c, 0x20, 0xbf, 0xc4, 0x0a, 0x6b, 0x3e, 0x7c, 0x99, 0xde, 0xbe,
  0x6f, 0x0d, 0x8b, 0xbf, 0xaf, 0xe4, 0x5b, 0xbe, 0x94, 0xad, 0xbd, 0xbf,
  0x80, 0x71, 0x0f, 0xbf, 0x6e, 0xff, 0xff, 0xff, 0x10, 0x00, 0x00, 0x00,
  0x03, 0x00, 0x00, 0x00, 0x10, 0x00, 0x00, 0x00, 0x48, 0x00, 0x00, 0x00,
  0x01, 0x00, 0x00, 0x00, 0x10, 0x00, 0x00, 0x00, 0x33, 0x00, 0x00, 0x00,
  0x73, 0x65, 0x71, 0x75, 0x65, 0x6e, 0x74, 0x69, 0x61, 0x6c, 0x2f, 0x63,
  0x6f, 0x6e, 0x76, 0x32, 0x64, 0x5f, 0x31, 0x2f, 0x42, 0x69, 0x61, 0x73,
  0x41, 0x64, 0x64, 0x2f, 0x52, 0x65, 0x61, 0x64, 0x56, 0x61, 0x72, 0x69,
  0x61, 0x62, 0x6c, 0x65, 0x4f, 0x70, 0x2f, 0x72, 0x65, 0x73, 0x6f, 0x75,
  0x72, 0x63, 0x65, 0x00, 0x04, 0x00, 0x06, 0x00, 0x04, 0x00, 0x00, 0x00,
  0x00, 0x00, 0x06, 0x00, 0x08, 0x00, 0x04, 0x00, 0x06, 0x00, 0x00, 0x00,
  0x04, 0x00, 0x00, 0x00, 0x20, 0x00, 0x00, 0x00, 0x9a, 0xb6, 0x53, 0xc0,
  0x7a, 0x81, 0x91, 0xbf, 0xff, 0x95, 0x2b, 0xc0, 0x52, 0x72, 0x9a, 0x3f,
  0x8e, 0xde, 0x1a, 0xc0, 0xe7, 0x76, 0xcc, 0xbf, 0xc5, 0xc0, 0xc6, 0xbf,
  0x8b, 0x50, 0x02, 0xbf, 0x00, 0x00, 0x0e, 0x00, 0x14, 0x00, 0x04, 0x00,
  0x00, 0x00, 0x08, 0x00, 0x0c, 0x00, 0x10, 0x00, 0x0e, 0x00, 0x00, 0x00,
  0x10, 0x00, 0x00, 0x00, 0x02, 0x00, 0x00, 0x00, 0x10, 0x00, 0x00, 0x00,
  0x44, 0x00, 0x00, 0x00, 0x01, 0x00, 0x00, 0x00, 0x08, 0x00, 0x00, 0x00,
  0x31, 0x00, 0x00, 0x00, 0x73, 0x65, 0x71, 0x75, 0x65, 0x6e, 0x74, 0x69,
  0x61, 0x6c, 0x2f, 0x63, 0x6f, 0x6e, 0x76, 0x32, 0x64, 0x2f, 0x42, 0x69,
  0x61, 0x73, 0x41, 0x64, 0x64, 0x2f, 0x52, 0x65, 0x61, 0x64, 0x56, 0x61,
  0x72, 0x69, 0x61, 0x62, 0x6c, 0x65, 0x4f, 0x70, 0x2f, 0x72, 0x65, 0x73,
  0x6f, 0x75, 0x72, 0x63, 0x65, 0x00, 0x00, 0x00, 0x90, 0xff, 0xff, 0xff,
  0x14, 0x00, 0x18, 0x00, 0x04, 0x00, 0x00, 0x00, 0x08, 0x00, 0x0c, 0x00,
  0x10, 0x00, 0x00, 0x00, 0x00, 0x00, 0x14, 0x00, 0x14, 0x00, 0x00, 0x00,
  0x14, 0x00, 0x00, 0x00, 0x01, 0x00, 0x00, 0x00, 0x20, 0x00, 0x00, 0x00,
  0x44, 0x00, 0x00, 0x00, 0x2c, 0x00, 0x00, 0x00, 0x04, 0x00, 0x00, 0x00,
  0x01, 0x00, 0x00, 0x00, 0x40, 0x00, 0x00, 0x00, 0x03, 0x00, 0x00, 0x00,
  0x01, 0x00, 0x00, 0x00, 0x0c, 0x00, 0x00, 0x00, 0x63, 0x6f, 0x6e, 0x76,
  0x32, 0x64, 0x5f, 0x69, 0x6e, 0x70, 0x75, 0x74, 0x00, 0x00, 0x00, 0x00,
  0x04, 0x00, 0x00, 0x00, 0xff, 0xff, 0xff, 0xff, 0x40, 0x00, 0x00, 0x00,
  0x03, 0x00, 0x00, 0x00, 0x01, 0x00, 0x00, 0x00, 0xfc, 0xff, 0xff, 0xff,
  0x04, 0x00, 0x04, 0x00, 0x04, 0x00, 0x00, 0x00
};


unsigned int model_tflite_len = 13052;// Fill the int in `src/model.cc` here
